<pad>	0.00000
</s>	0.00000
<unk>	0.00000
▁	-2.01229
X	-2.48648
.	-3.54493
,	-3.64925
s	-3.90340
▁the	-3.95985
a	-4.09710
:	-4.41433
▁and	-4.42067
▁to	-4.45232
▁of	-4.57207
▁fill	-4.57502
e	-4.67492
▁in	-4.81206
t	-5.06391
-	-5.12904
▁is	-5.28343
▁de	-5.34414
▁for	-5.39302
’	-5.42283
i	-5.46986
▁that	-5.57624
▁you	-5.59638
d	-5.60473
▁I	-5.66404
▁with	-5.70373
n	-5.73789
▁on	-5.78414
'	-5.82900
o	-5.92556
▁are	-5.93131
▁it	-5.93952
en	-5.94656
▁be	-5.95567
▁The	-5.99002
▁as	-6.05741
▁your	-6.13231
l	-6.13950
▁(	-6.18480
▁or	-6.24195
▁have	-6.27459
▁at	-6.32747
▁from	-6.34965
▁an	-6.35009
▁was	-6.35039
▁this	-6.35256
er	-6.36043
▁la	-6.36240
m	-6.37521
r	-6.37653
ing	-6.37786
▁can	-6.38715
!	-6.42138
▁will	-6.42398
▁by	-6.44155
?	-6.58589
▁not	-6.59591
re	-6.62007
)	-6.63657
▁we	-6.64302
y	-6.65454
▁und	-6.74147
▁has	-6.76020
▁all	-6.76818
▁die	-6.86412
▁but	-6.90683
▁our	-6.90988
▁their	-6.91325
▁A	-6.91581
▁more	-6.91867
▁un	-6.92493
▁der	-6.92540
c	-6.92571
u	-6.93294
in	-6.93406
▁so	-6.94705
▁they	-6.98930
▁one	-7.01274
▁about	-7.07149
▁my	-7.07214
ul	-7.07649
▁which	-7.09704
à	-7.10000
▁In	-7.10025
/	-7.10087
he	-7.10475
f	-7.11004
▁le	-7.11294
▁out	-7.12856
▁also	-7.13358
▁des	-7.15677
▁It	-7.16212
▁up	-7.17234
▁"	-7.17281
▁time	-7.17805
ă	-7.18325
if	-7.18517
▁This	-7.19165
▁We	-7.22327
p	-7.22413
▁do	-7.22821
–	-7.23541
▁“	-7.23814
on	-7.24083
h	-7.25432
▁si	-7.27673
le	-7.29943
▁les	-7.31296
▁în	-7.31457
▁his	-7.32477
▁who	-7.35106
▁like	-7.37136
b	-7.37537
▁when	-7.38020
;	-7.38085
▁been	-7.38669
▁other	-7.38852
ly	-7.39466
"	-7.40721
g	-7.40800
▁cu	-7.41528
▁care	-7.43241
▁what	-7.43304
▁new	-7.43709
or	-7.44541
▁some	-7.46195
▁get	-7.47900
▁were	-7.49155
▁just	-7.49250
▁there	-7.49319
▁would	-7.49438
S	-7.49741
▁them	-7.51360
▁any	-7.52054
).	-7.52105
al	-7.52306
▁into	-7.52790
▁me	-7.52834
▁had	-7.53243
▁se	-7.54515
▁make	-7.58271
at	-7.58943
▁than	-7.59236
▁du	-7.59585
▁over	-7.60788
▁You	-7.62611
▁how	-7.63555
▁no	-7.63729
▁people	-7.63995
an	-7.64084
”	-7.64453
é	-7.64692
it	-7.64864
▁If	-7.64869
k	-7.66056
▁pe	-7.66214
is	-7.66726
▁her	-7.67338
▁work	-7.68039
ve	-7.68741
▁only	-7.69786
▁may	-7.70239
▁its	-7.70245
▁first	-7.70437
▁most	-7.70831
▁well	-7.70876
▁use	-7.71509
▁zu	-7.71878
▁pour	-7.73671
z	-7.74565
il	-7.74591
▁need	-7.74779
▁these	-7.76332
▁din	-7.76989
▁den	-7.77566
▁us	-7.77813
able	-7.77971
▁S	-7.78189
▁mit	-7.79252
▁very	-7.79971
▁am	-7.81410
&	-7.82953
▁au	-7.83012
▁many	-7.83834
▁mai	-7.84363
A	-7.84983
th	-7.85554
▁through	-7.85959
▁pentru	-7.86392
▁two	-7.87361
▁von	-7.87496
▁way	-7.88712
ll	-7.88775
I	-7.89130
▁ce	-7.90156
▁și	-7.90444
▁help	-7.90741
▁best	-7.90791
),	-7.90821
un	-7.92502
▁years	-7.92596
▁2	-7.92827
▁C	-7.93696
▁nu	-7.93952
▁good	-7.94400
v	-7.94747
▁1	-7.94766
w	-7.94798
▁das	-7.96054
▁ca	-7.96243
▁where	-7.96491
▁know	-7.96623
▁year	-7.97106
▁He	-7.97461
▁see	-7.98001
▁für	-7.98400
▁auf	-7.98425
▁3	-7.98443
de	-7.98540
est	-8.00209
▁back	-8.00702
▁such	-8.00852
▁should	-8.01175
x	-8.01505
▁after	-8.01761
▁could	-8.01967
▁ist	-8.02078
▁now	-8.02285
▁much	-8.02311
and	-8.02390
...	-8.03011
▁home	-8.03627
to	-8.03821
▁ein	-8.04834
▁even	-8.04866
▁que	-8.04983
▁day	-8.05155
▁take	-8.05419
▁want	-8.05444
▁For	-8.06217
▁said	-8.06325
▁sur	-8.07347
▁une	-8.07703
▁să	-8.08292
▁dans	-8.08455
▁great	-8.08806
▁este	-8.08947
▁because	-8.09431
▁information	-8.10409
ului	-8.10545
▁find	-8.11217
C	-8.11995
▁she	-8.12532
▁im	-8.12606
ation	-8.13012
▁then	-8.13021
▁est	-8.13099
▁par	-8.13859
▁used	-8.14187
▁E	-8.14679
▁made	-8.14998
▁So	-8.15785
am	-8.16289
▁eine	-8.16546
▁şi	-8.16837
▁business	-8.17335
▁right	-8.17359
▁here	-8.17613
▁being	-8.18497
▁B	-8.18536
▁those	-8.18574
▁before	-8.19472
▁And	-8.19950
▁P	-8.20071
ers	-8.20092
▁don	-8.20403
B	-8.20487
▁life	-8.20627
▁go	-8.20974
▁As	-8.21055
▁M	-8.22117
▁each	-8.22955
▁qui	-8.23324
▁place	-8.23625
com	-8.23748
ant	-8.25292
▁sich	-8.25593
▁There	-8.26195
ar	-8.26499
▁Sie	-8.27387
▁own	-8.27753
▁part	-8.27944
ent	-8.28105
▁world	-8.28174
ment	-8.28200
▁while	-8.29447
▁But	-8.29537
▁around	-8.30080
▁L	-8.30108
us	-8.30404
▁plus	-8.31305
▁To	-8.31369
▁5	-8.31412
▁high	-8.31863
▁long	-8.31938
D	-8.32008
▁D	-8.32028
▁really	-8.32292
▁nicht	-8.33204
▁Le	-8.33533
▁service	-8.34125
▁4	-8.34209
▁different	-8.34254
▁Die	-8.34809
▁think	-8.35377
—	-8.35600
▁auch	-8.35716
▁look	-8.36220
▁both	-8.36682
lor	-8.36687
▁down	-8.36800
ten	-8.36889
▁La	-8.37807
▁off	-8.38004
▁vous	-8.38054
▁They	-8.38146
M	-8.38325
▁pas	-8.38451
▁data	-8.38571
▁T	-8.38675
▁love	-8.38810
▁every	-8.39001
▁10	-8.39118
▁last	-8.39208
▁same	-8.39348
▁using	-8.39549
▁free	-8.40883
▁dem	-8.40895
▁still	-8.40998
ate	-8.41093
ist	-8.41561
▁between	-8.42028
P	-8.42098
be	-8.42817
▁available	-8.42944
man	-8.43298
▁company	-8.43968
▁G	-8.44164
▁experience	-8.44495
▁going	-8.44907
▁site	-8.45383
j	-8.45514
are	-8.45690
▁set	-8.47066
2	-8.47368
▁system	-8.47468
▁important	-8.47679
▁few	-8.48244
▁fi	-8.48255
ich	-8.48330
▁What	-8.48865
▁services	-8.50243
▁under	-8.50257
▁When	-8.50309
▁online	-8.50700
▁New	-8.51494
▁come	-8.52487
▁provide	-8.52565
F	-8.52645
▁team	-8.52782
▁always	-8.52941
▁De	-8.53041
▁că	-8.53252
▁him	-8.53586
▁F	-8.53831
▁things	-8.55008
▁including	-8.55094
▁support	-8.55261
▁number	-8.55411
T	-8.55718
▁during	-8.55886
▁family	-8.56046
▁little	-8.56132
▁three	-8.56773
▁water	-8.56810
▁man	-8.56976
▁An	-8.57193
based	-8.57216
▁R	-8.57443
▁sau	-8.57443
▁avec	-8.57604
▁better	-8.57683
▁„	-8.58225
▁too	-8.58635
ge	-8.58672
▁must	-8.58974
▁per	-8.58992
ele	-8.59040
▁oder	-8.59265
au	-8.59555
▁aus	-8.59573
▁werden	-8.59865
▁does	-8.59914
▁without	-8.59927
▁ou	-8.59993
▁design	-8.60101
▁va	-8.60544
▁did	-8.61568
▁O	-8.61906
▁U	-8.62357
up	-8.62901
▁end	-8.63368
▁local	-8.63623
▁next	-8.63897
▁sure	-8.64098
▁lot	-8.64645
▁Re	-8.64702
▁top	-8.64764
▁Our	-8.65689
▁small	-8.65698
▁full	-8.65942
▁something	-8.66289
ung	-8.66672
▁vor	-8.67325
E	-8.67334
▁give	-8.67604
▁might	-8.67661
▁another	-8.67933
▁6	-8.68078
▁All	-8.68132
▁process	-8.68167
L	-8.68258
▁found	-8.68942
▁sind	-8.69004
▁since	-8.69529
▁With	-8.69556
K	-8.69699
um	-8.70102
▁within	-8.70167
▁post	-8.70661
▁car	-8.70937
une	-8.71410
▁N	-8.71504
▁J	-8.71560
ic	-8.71824
R	-8.72231
ter	-8.72744
ur	-8.72827
▁She	-8.73131
▁public	-8.73201
▁keep	-8.73578
▁H	-8.73618
▁order	-8.74076
▁start	-8.74220
ez	-8.74746
▁‘	-8.74983
uri	-8.75110
▁20	-8.75248
▁On	-8.75352
▁offer	-8.76301
▁quality	-8.76499
▁working	-8.76999
▁No	-8.77031
▁That	-8.77516
▁game	-8.78632
▁bei	-8.78664
▁today	-8.78866
▁never	-8.79459
▁week	-8.79587
▁St	-8.79779
▁feel	-8.79932
▁put	-8.80190
▁website	-8.80322
Y	-8.80448
▁days	-8.80471
▁program	-8.80545
▁looking	-8.81046
▁K	-8.81081
▁students	-8.81144
▁create	-8.81180
▁change	-8.81262
▁book	-8.81293
ity	-8.81376
▁At	-8.81521
▁possible	-8.81567
▁sunt	-8.81651
▁7	-8.81812
▁real	-8.82337
▁al	-8.82417
▁making	-8.82537
▁Be	-8.82576
▁products	-8.82592
▁case	-8.82654
▁school	-8.82721
▁say	-8.83035
area	-8.83208
▁My	-8.83384
▁point	-8.83473
▁als	-8.83561
▁children	-8.83619
▁course	-8.84406
▁show	-8.84799
▁8	-8.84927
▁These	-8.84935
▁18	-8.85114
▁large	-8.85132
co	-8.85436
▁über	-8.85479
▁second	-8.85656
▁market	-8.85981
▁fost	-8.86049
▁easy	-8.86398
▁plan	-8.86430
▁project	-8.86493
G	-8.86518
W	-8.86957
3	-8.87194
▁son	-8.87333
la	-8.87905
▁face	-8.88137
▁needs	-8.88148
ch	-8.88314
▁personal	-8.88344
me	-8.88603
▁sont	-8.88738
▁je	-8.89493
▁non	-8.89547
▁got	-8.89659
▁Do	-8.89738
the	-8.89765
▁health	-8.89909
▁special	-8.90555
."	-8.90771
1	-8.90785
den	-8.90862
▁state	-8.90936
▁open	-8.91019
▁money	-8.91054
▁again	-8.91308
▁food	-8.91317
▁page	-8.91460
▁together	-8.91628
age	-8.91911
▁qu	-8.92193
hat	-8.92239
▁ver	-8.92699
▁W	-8.92779
▁away	-8.92876
▁wird	-8.93164
▁until	-8.93425
V	-8.93494
▁pre	-8.93585
▁One	-8.93643
▁product	-8.93656
▁often	-8.93933
▁wir	-8.94411
▁nach	-8.94513
▁include	-8.94656
▁um	-8.94820
▁room	-8.95371
▁group	-8.95377
▁name	-8.95495
ce	-8.95545
H	-8.95618
N	-8.95814
▁person	-8.95818
▁social	-8.95861
▁list	-8.96367
▁How	-8.96413
▁why	-8.96571
▁community	-8.96600
▁contact	-8.97303
­	-8.97559
▁co	-8.97968
▁play	-8.98396
▁having	-8.98417
▁power	-8.98692
▁call	-8.99169
▁against	-8.99182
▁become	-8.99778
▁cost	-9.00379
▁V	-9.00459
▁research	-9.00691
▁12	-9.00731
▁wie	-9.00828
der	-9.00839
▁thing	-9.01403
▁along	-9.01730
4	-9.01733
▁access	-9.02039
▁level	-9.02051
▁price	-9.02282
▁einen	-9.02371
▁side	-9.02636
▁Un	-9.02685
▁means	-9.03042
(	-9.03234
▁big	-9.03437
▁God	-9.03650
▁dass	-9.03731
im	-9.03737
▁30	-9.03743
▁event	-9.04167
▁development	-9.04206
▁form	-9.04226
▁read	-9.04258
▁hand	-9.04319
▁control	-9.04447
▁However	-9.04632
▁done	-9.04806
▁job	-9.05169
▁hard	-9.05662
▁war	-9.05754
▁area	-9.05841
▁add	-9.05866
▁votre	-9.05939
▁live	-9.05949
▁range	-9.06010
▁After	-9.06016
▁Les	-9.06051
▁far	-9.06441
ver	-9.06473
▁old	-9.06958
▁perfect	-9.06976
▁15	-9.07043
▁space	-9.07365
▁house	-9.07407
ine	-9.07409
▁enough	-9.07433
0	-9.07582
▁several	-9.07712
The	-9.08116
mm	-9.08562
▁University	-9.08638
▁diese	-9.08757
▁Co	-9.08834
▁comes	-9.08850
▁across	-9.08886
▁already	-9.09010
,”	-9.09034
▁body	-9.09276
▁Das	-9.09459
▁einer	-9.09596
▁left	-9.09922
▁future	-9.10571
▁times	-9.10667
▁dar	-9.10965
▁simple	-9.11041
ry	-9.11241
▁getting	-9.11316
▁try	-9.11536
ți	-9.11690
ness	-9.12004
▁makes	-9.12038
▁past	-9.12062
ca	-9.12130
▁light	-9.12221
▁Der	-9.12300
▁run	-9.12584
▁four	-9.12694
ance	-9.13050
▁ever	-9.13150
▁einem	-9.13182
▁below	-9.13372
O	-9.13407
▁9	-9.13728
▁learn	-9.14004
out	-9.14036
▁video	-9.14318
▁etc	-9.14693
▁«	-9.14880
▁zum	-9.14971
▁kann	-9.15045
▁minutes	-9.15118
▁example	-9.15419
▁nous	-9.15462
▁Se	-9.15744
▁sie	-9.15996
▁industry	-9.16161
▁problem	-9.16202
J	-9.16248
▁country	-9.16337
▁fact	-9.16419
▁type	-9.16419
ner	-9.16424
▁companies	-9.16586
▁line	-9.16985
▁city	-9.17271
▁check	-9.17371
▁doing	-9.17441
elle	-9.17504
▁fun	-9.17655
▁En	-9.17755
▁Your	-9.17860
ling	-9.18145
▁share	-9.18186
ile	-9.18201
▁actually	-9.18754
▁value	-9.18775
zi	-9.18866
▁ab	-9.18988
▁offers	-9.19055
▁less	-9.19057
▁night	-9.19356
▁Dr	-9.19519
▁started	-9.19545
▁least	-9.19802
▁short	-9.19856
▁main	-9.20114
▁single	-9.20294
▁though	-9.20378
▁prin	-9.20393
time	-9.20531
▁hours	-9.20661
▁others	-9.20685
▁called	-9.20730
▁visit	-9.20887
▁bit	-9.20901
ée	-9.21082
▁customers	-9.21138
▁music	-9.21200
▁members	-9.21719
ies	-9.21743
▁pay	-9.21918
nd	-9.21974
▁once	-9.22113
gen	-9.22174
▁können	-9.22298
▁low	-9.22377
▁durch	-9.22739
▁story	-9.22808
▁understand	-9.22954
“	-9.22986
▁Am	-9.23183
▁didn	-9.23460
▁content	-9.23722
son	-9.24181
▁building	-9.24224
▁result	-9.24261
▁aux	-9.24311
▁complete	-9.24500
▁doesn	-9.24511
▁haben	-9.24607
▁questions	-9.24662
line	-9.24708
▁technology	-9.24743
▁Pro	-9.24798
▁current	-9.24850
▁won	-9.24888
▁let	-9.25071
▁features	-9.25198
▁please	-9.25826
5	-9.25852
▁above	-9.25939
ive	-9.26213
▁management	-9.26239
▁lui	-9.26254
her	-9.26306
▁training	-9.26571
▁everything	-9.26654
▁noch	-9.26685
▁came	-9.26771
▁web	-9.27282
▁ensure	-9.27299
▁months	-9.27313
▁art	-9.27313
▁sub	-9.27436
▁million	-9.27456
▁professional	-9.27504
▁results	-9.27837
▁kind	-9.27840
▁season	-9.27929
▁unique	-9.28107
ze	-9.28436
▁enjoy	-9.28488
▁early	-9.28777
▁major	-9.28820
▁yet	-9.29153
▁Ver	-9.29333
one	-9.29678
▁media	-9.29719
▁[	-9.30095
▁property	-9.30297
▁beautiful	-9.30447
▁given	-9.30529
▁due	-9.30672
▁government	-9.30718
▁nur	-9.30881
▁email	-9.30910
▁total	-9.31108
▁natural	-9.31126
▁test	-9.31145
▁provides	-9.31164
▁various	-9.31263
▁American	-9.31561
▁moment	-9.31811
▁air	-9.31895
▁idea	-9.31924
▁known	-9.31998
▁Il	-9.32050
▁friends	-9.32058
▁final	-9.32092
▁buy	-9.32140
▁specific	-9.32223
▁issues	-9.32455
▁took	-9.32523
▁mind	-9.32626
▁study	-9.32676
▁addition	-9.32842
▁size	-9.33245
▁pro	-9.33405
▁film	-9.33546
▁pot	-9.33564
▁thought	-9.33812
▁tell	-9.33890
▁While	-9.33968
▁head	-9.33998
▁clients	-9.34043
▁performance	-9.34620
▁question	-9.34684
▁whether	-9.34793
▁certain	-9.34827
▁model	-9.34876
▁following	-9.35093
▁energy	-9.35421
▁office	-9.35421
▁whole	-9.35669
▁bring	-9.35696
▁required	-9.35726
ţi	-9.35822
▁date	-9.35870
_	-9.35898
que	-9.35979
▁da	-9.36026
▁US	-9.36120
▁taking	-9.36144
go	-9.36279
▁living	-9.36342
▁someone	-9.36349
▁heart	-9.36512
▁key	-9.36578
▁areas	-9.36624
▁says	-9.36701
▁2018	-9.36913
▁month	-9.37013
▁Er	-9.37135
ste	-9.37508
▁11	-9.37518
▁front	-9.37528
▁Now	-9.37670
▁class	-9.37695
▁choose	-9.37708
pe	-9.37809
▁further	-9.37902
▁believe	-9.37936
of	-9.37959
▁among	-9.38099
sch	-9.38169
▁child	-9.38261
▁aber	-9.38376
▁Please	-9.38627
rea	-9.38725
▁later	-9.38727
▁amount	-9.38876
ice	-9.39013
▁National	-9.39018
▁style	-9.39075
▁tout	-9.39149
▁staff	-9.39294
▁white	-9.39793
▁ge	-9.39918
▁five	-9.40098
▁blog	-9.40110
▁designed	-9.40126
▁went	-9.40222
▁Da	-9.40269
▁general	-9.40380
▁rest	-9.40387
▁zur	-9.40580
▁quite	-9.40595
per	-9.40687
▁customer	-9.40838
▁close	-9.40875
▁Some	-9.41055
▁women	-9.41076
▁move	-9.41076
▁software	-9.41136
▁Ein	-9.41365
▁Ab	-9.41382
▁history	-9.41386
▁either	-9.41565
▁seen	-9.41740
▁card	-9.41973
▁City	-9.42154
▁hope	-9.42177
▁16	-9.42207
és	-9.42283
va	-9.42329
▁Al	-9.42383
▁especially	-9.42483
▁view	-9.42614
men	-9.42736
▁account	-9.42749
▁needed	-9.42978
▁United	-9.42979
]	-9.43239
▁yourself	-9.43279
▁100	-9.43306
▁receive	-9.43342
▁ideas	-9.43369
▁writing	-9.43459
▁simply	-9.43474
▁present	-9.43509
▁continue	-9.43611
▁application	-9.44115
▁build	-9.44187
▁turn	-9.44249
ated	-9.44292
▁everyone	-9.44306
cette	-9.44311
▁bien	-9.44496
less	-9.44522
▁Si	-9.44536
▁original	-9.44687
8	-9.44795
▁individual	-9.44890
tre	-9.44943
▁works	-9.45171
▁options	-9.45182
▁May	-9.45446
▁Not	-9.45494
▁report	-9.45547
mer	-9.45724
▁human	-9.45912
▁provided	-9.45960
▁By	-9.46093
▁series	-9.46201
7	-9.46227
▁modern	-9.46388
▁meet	-9.46392
▁50	-9.46412
▁25	-9.46970
▁color	-9.47009
▁download	-9.47011
▁Here	-9.47114
6	-9.47132
▁poate	-9.47145
▁În	-9.47232
▁phone	-9.47370
▁likely	-9.47437
▁table	-9.47647
▁ma	-9.47655
▁Or	-9.47918
Z	-9.48026
▁19	-9.48222
▁insurance	-9.48254
▁anything	-9.48381
▁search	-9.48503
▁Ge	-9.48521
▁issue	-9.48556
▁includes	-9.48569
▁clear	-9.48734
les	-9.48802
▁almost	-9.48826
ilor	-9.48935
▁14	-9.49072
by	-9.49406
▁Du	-9.49624
▁mais	-9.49730
ier	-9.49916
▁law	-9.49924
▁added	-9.50013
▁con	-9.50096
,"	-9.50153
▁ago	-9.50213
▁His	-9.50470
▁points	-9.50498
▁mult	-9.50558
▁financial	-9.50622
▁problems	-9.50643
▁however	-9.50648
▁events	-9.50675
▁half	-9.50789
ard	-9.51118
▁ask	-9.51157
▁version	-9.51163
end	-9.51248
▁created	-9.51264
▁lead	-9.51292
▁focus	-9.51385
▁increase	-9.51510
ex	-9.51512
▁allow	-9.51580
▁extra	-9.51646
▁24	-9.51669
▁credit	-9.51677
▁production	-9.51680
zu	-9.51726
▁black	-9.51754
▁systems	-9.51804
▁17	-9.51818
▁opportunity	-9.51853
▁bis	-9.51922
▁fast	-9.51981
ring	-9.52117
▁Don	-9.52211
▁via	-9.52243
fer	-9.52252
▁comme	-9.52280
▁popular	-9.52372
▁South	-9.52449
ating	-9.52500
▁State	-9.52520
ator	-9.52568
▁common	-9.52597
con	-9.52673
▁throughout	-9.52756
▁risk	-9.52775
▁young	-9.52853
▁Je	-9.52869
▁image	-9.52928
ha	-9.52938
▁third	-9.52959
▁taken	-9.53005
▁Z	-9.53143
▁dis	-9.53162
▁From	-9.53358
▁details	-9.53486
▁games	-9.53517
▁practice	-9.53604
che	-9.53615
▁security	-9.53736
▁medical	-9.53765
▁learning	-9.53781
▁material	-9.53851
▁international	-9.54070
▁forward	-9.54125
▁paper	-9.54125
▁action	-9.54135
▁file	-9.54238
▁oil	-9.54310
▁self	-9.54378
▁private	-9.54525
▁interest	-9.54556
bar	-9.54607
▁sale	-9.54712
▁stay	-9.54735
ke	-9.54809
▁San	-9.54905
▁matter	-9.54987
▁reason	-9.55025
ted	-9.55148
▁potential	-9.55174
▁brand	-9.55244
▁field	-9.55315
▁treatment	-9.55342
▁period	-9.55352
▁York	-9.55389
▁Park	-9.55474
▁acest	-9.55601
ou	-9.55693
▁Ce	-9.55701
▁ready	-9.55811
▁rather	-9.55860
▁outside	-9.56009
▁standard	-9.56012
▁located	-9.56077
▁marketing	-9.56231
cu	-9.56404
▁Can	-9.56456
▁education	-9.56611
use	-9.56664
▁role	-9.56683
▁men	-9.57151
▁probably	-9.57155
▁store	-9.57222
▁John	-9.57236
▁rate	-9.57396
▁code	-9.57399
▁kids	-9.57441
▁currently	-9.57553
▁near	-9.57648
▁sales	-9.57672
▁usually	-9.57701
▁activities	-9.57724
▁party	-9.57737
▁leur	-9.57743
▁particular	-9.57763
▁mehr	-9.57771
ill	-9.57876
▁percent	-9.57911
▁fait	-9.57954
▁happy	-9.57990
▁inside	-9.58005
▁save	-9.58051
▁skills	-9.58077
▁consider	-9.58103
▁recent	-9.58162
▁strong	-9.58178
▁position	-9.58208
▁knowledge	-9.58230
▁tax	-9.58387
▁users	-9.58426
und	-9.58556
▁coming	-9.58590
▁article	-9.58592
min	-9.58635
▁sein	-9.58656
▁travel	-9.58687
▁changes	-9.58766
▁impact	-9.58818
▁wanted	-9.58846
▁address	-9.58856
▁soon	-9.58873
▁North	-9.58892
ată	-9.58924
▁trying	-9.58985
▁app	-9.59061
▁School	-9.59251
▁Es	-9.59255
we	-9.59262
▁conditions	-9.59293
▁digital	-9.59329
▁similar	-9.59481
▁solution	-9.59514
▁location	-9.59518
▁Of	-9.59542
▁follow	-9.59584
▁red	-9.59753
▁review	-9.59920
▁skin	-9.59958
▁pretty	-9.60037
day	-9.60056
▁dé	-9.60207
▁cause	-9.60217
▁Sa	-9.60246
▁user	-9.60252
▁Man	-9.60338
”.	-9.60415
▁Just	-9.60437
▁faire	-9.60448
▁member	-9.60562
▁iar	-9.60689
▁higher	-9.60772
▁step	-9.60789
▁wide	-9.60819
▁uns	-9.60892
▁World	-9.60914
▁additional	-9.61177
ber	-9.61320
▁easily	-9.61399
▁deal	-9.61507
▁ways	-9.61551
▁mobile	-9.61684
▁national	-9.61691
▁couple	-9.61739
▁ihre	-9.61940
▁choice	-9.61961
for	-9.61969
ous	-9.62070
▁Google	-9.62086
▁environment	-9.62243
urile	-9.62332
▁Center	-9.62668
mp	-9.62859
▁»	-9.62973
qui	-9.63068
▁growth	-9.63105
ler	-9.63317
▁improve	-9.63361
▁items	-9.63367
▁Nu	-9.63394
▁leave	-9.63407
▁true	-9.63481
▁wurde	-9.63487
▁cannot	-9.63500
▁13	-9.63510
▁running	-9.63602
▁anti	-9.63618
▁option	-9.63631
▁reading	-9.63657
▁Car	-9.63670
▁Wir	-9.63811
▁April	-9.63976
▁behind	-9.64064
▁client	-9.64075
▁cover	-9.64101
▁stop	-9.64109
ja	-9.64128
▁built	-9.64131
▁Con	-9.64131
ement	-9.64137
▁projects	-9.64183
▁variety	-9.64184
▁Ihre	-9.64267
ș	-9.64303
▁unter	-9.64386
▁longer	-9.64658
year	-9.64716
▁photo	-9.64837
▁Also	-9.64934
▁received	-9.65110
▁return	-9.65268
00	-9.65308
▁bar	-9.65334
ary	-9.65443
elor	-9.65514
▁Home	-9.65619
our	-9.65630
▁Me	-9.65771
▁held	-9.65911
▁click	-9.66014
▁ex	-9.66018
▁cum	-9.66156
▁takes	-9.66395
▁computer	-9.66580
▁told	-9.66819
+	-9.67065
▁patients	-9.67081
ting	-9.67217
▁direct	-9.67225
▁quickly	-9.67241
tic	-9.67288
▁vom	-9.67372
▁di	-9.67381
▁kitchen	-9.67402
▁network	-9.67564
▁2015	-9.67669
▁effective	-9.67723
▁collection	-9.67770
▁2017	-9.67775
▁words	-9.67815
▁cele	-9.67886
▁student	-9.67886
▁amazing	-9.67893
eur	-9.68042
.”	-9.68227
▁ale	-9.68272
”,	-9.68414
▁purchase	-9.68435
▁mean	-9.68478
▁West	-9.68685
▁nice	-9.68891
▁age	-9.68913
▁base	-9.68924
▁summer	-9.68928
▁multi	-9.68950
▁allows	-9.68957
▁latest	-9.68960
▁global	-9.68993
▁chance	-9.69079
▁sense	-9.69087
ieren	-9.69279
▁difficult	-9.69313
ité	-9.69475
ka	-9.69479
du	-9.69484
▁providing	-9.69574
▁Art	-9.69694
▁drive	-9.69855
▁Go	-9.69888
▁très	-9.69941
U	-9.69958
▁Pre	-9.69985
▁shows	-9.70004
▁hair	-9.70132
▁success	-9.70151
▁UK	-9.70317
red	-9.70324
ü	-9.70337
ish	-9.70363
▁weeks	-9.70484
▁solutions	-9.70550
▁Pe	-9.70575
▁equipment	-9.70614
și	-9.70648
▁worked	-9.70707
".	-9.70863
▁legal	-9.70872
▁bad	-9.70892
▁40	-9.70956
▁Internet	-9.70980
▁included	-9.70998
▁upon	-9.71098
▁excellent	-9.71106
▁goal	-9.71130
▁El	-9.71141
▁Mo	-9.71170
▁policy	-9.71320
▁aussi	-9.71354
▁weight	-9.71369
ici	-9.71513
▁approach	-9.71558
▁six	-9.71580
▁entire	-9.71591
9	-9.71634
▁send	-9.71683
▁1.	-9.71897
▁wenn	-9.71906
▁photos	-9.71994
://	-9.72101
ger	-9.72282
▁favorite	-9.72310
ley	-9.72348
▁else	-9.72463
▁types	-9.72468
▁link	-9.72533
▁recently	-9.72584
▁Mit	-9.72632
▁hot	-9.72655
tra	-9.72660
ş	-9.72731
▁according	-9.72851
▁necessary	-9.72851
▁multiple	-9.72927
▁Im	-9.72951
▁sehr	-9.72966
▁sign	-9.73226
▁anyone	-9.73284
▁land	-9.73361
▁States	-9.73404
▁unsere	-9.73412
ées	-9.73464
We	-9.73567
▁nothing	-9.73585
▁commercial	-9.73686
ful	-9.73727
▁seems	-9.73933
▁International	-9.74010
▁March	-9.74164
▁Thanks	-9.74331
▁County	-9.74365
▁books	-9.74464
▁Ca	-9.74518
▁mi	-9.74630
▁meeting	-9.74666
▁tools	-9.74759
▁cut	-9.74765
▁related	-9.74766
▁lives	-9.74800
way	-9.74850
▁develop	-9.74865
▁sound	-9.74872
▁safe	-9.74895
▁Her	-9.74938
▁average	-9.75128
▁clean	-9.75174
▁talk	-9.75236
▁peut	-9.75242
▁dann	-9.75255
▁terms	-9.75327
▁foarte	-9.75351
▁super	-9.75428
▁programs	-9.75485
▁decision	-9.75541
▁costs	-9.75606
▁être	-9.75629
▁2019	-9.75767
led	-9.75948
▁parents	-9.75962
▁Mr	-9.76170
▁lower	-9.76236
▁door	-9.76298
▁été	-9.76393
▁box	-9.76495
▁record	-9.76552
▁win	-9.76565
ster	-9.76640
▁America	-9.76675
▁immer	-9.76876
▁road	-9.76997
▁leading	-9.77276
▁section	-9.77284
▁Facebook	-9.77299
▁Most	-9.77387
iert	-9.77435
▁morning	-9.77450
▁asked	-9.77519
▁involved	-9.77552
▁hier	-9.77761
▁images	-9.77821
▁House	-9.77826
▁highly	-9.78076
▁Bar	-9.78162
▁Service	-9.78251
▁attention	-9.78432
▁normal	-9.78457
▁plans	-9.78588
▁source	-9.78593
▁Aus	-9.78809
▁benefits	-9.78866
▁ses	-9.78935
des	-9.78987
▁internet	-9.78995
▁materials	-9.79008
▁même	-9.79132
▁fine	-9.79152
▁fit	-9.79223
▁21	-9.79261
▁itself	-9.79374
▁wieder	-9.79397
▁Many	-9.79531
▁nature	-9.79540
▁pain	-9.79547
▁device	-9.79618
art	-9.79699
pro	-9.79718
▁France	-9.79727
lich	-9.79731
▁2014	-9.79954
▁inter	-9.79996
▁Li	-9.80045
▁career	-9.80114
▁looks	-9.80145
▁ré	-9.80225
▁ability	-9.80256
▁situation	-9.80315
ville	-9.80316
▁2016	-9.80320
tes	-9.80346
▁remember	-9.80388
▁TV	-9.80400
▁levels	-9.80585
▁subject	-9.80772
ally	-9.80844
▁reduce	-9.81023
▁*	-9.81085
▁Day	-9.81087
▁write	-9.81215
▁pick	-9.81425
ence	-9.81540
▁fresh	-9.81652
▁traditional	-9.81666
chi	-9.81769
▁machine	-9.81805
▁resources	-9.81913
â	-9.81950
▁countries	-9.82001
▁Even	-9.82034
▁green	-9.82128
▁Free	-9.82191
▁daily	-9.82211
▁respect	-9.82301
▁instead	-9.82371
▁Once	-9.82418
▁word	-9.82441
▁construction	-9.82489
▁huge	-9.82506
▁feature	-9.82522
▁themselves	-9.82637
▁loss	-9.82920
%	-9.83006
▁safety	-9.83026
▁economic	-9.83141
▁require	-9.83195
30	-9.83255
▁planning	-9.83339
▁mal	-9.83448
▁directly	-9.83521
ure	-9.83572
▁track	-9.83573
▁tool	-9.83614
▁positive	-9.83639
▁piece	-9.83708
▁parts	-9.83714
ang	-9.83741
▁trip	-9.83745
▁organization	-9.83794
▁sites	-9.83827
▁fire	-9.83832
▁China	-9.83888
▁Pour	-9.83929
▁plant	-9.84011
▁board	-9.84034
▁interesting	-9.84123
gar	-9.84171
▁fie	-9.84175
▁late	-9.84217
▁wall	-9.84229
▁walk	-9.84274
ham	-9.84387
▁Ne	-9.84543
▁First	-9.84546
▁double	-9.84570
▁budget	-9.84766
▁cases	-9.84767
cal	-9.84974
old	-9.84980
▁Bo	-9.84982
▁spend	-9.85044
port	-9.85083
▁worth	-9.85093
ique	-9.85131
nes	-9.85190
cul	-9.85227
era	-9.85297
▁text	-9.85303
▁decided	-9.85495
▁floor	-9.85504
▁requirements	-9.85530
▁cel	-9.85536
▁effect	-9.85541
▁gibt	-9.85616
▁news	-9.85924
▁vos	-9.85993
▁players	-9.86057
▁saw	-9.86273
▁auto	-9.86306
▁town	-9.86321
▁myself	-9.86411
▁lost	-9.86499
▁$	-9.86512
▁June	-9.86609
▁significant	-9.86620
▁giving	-9.86623
▁stand	-9.86674
▁stock	-9.86766
▁hold	-9.86777
▁Are	-9.86908
▁shall	-9.86924
▁ideal	-9.86928
▁London	-9.87080
▁answer	-9.87085
▁Vor	-9.87158
▁gives	-9.87312
ative	-9.87317
▁timp	-9.87317
▁center	-9.87362
▁Group	-9.87458
▁sans	-9.87514
▁Ar	-9.87547
▁Ma	-9.87557
▁reach	-9.87628
ren	-9.87665
▁More	-9.87745
mit	-9.87807
▁guide	-9.87833
▁fully	-9.87883
▁Since	-9.87895
▁Inc	-9.87924
▁culture	-9.87978
eat	-9.88053
▁written	-9.88072
▁Ho	-9.88134
▁India	-9.88163
▁Well	-9.88171
back	-9.88175
▁goes	-9.88217
▁completely	-9.88218
▁tour	-9.88308
▁began	-9.88320
▁picture	-9.88326
▁mare	-9.88353
▁playing	-9.88422
▁trebuie	-9.88493
ils	-9.88494
chen	-9.88522
▁hit	-9.88542
▁complex	-9.88591
▁Thank	-9.88614
▁Let	-9.88635
▁applications	-9.88712
▁friend	-9.88831
▁English	-9.88955
▁charge	-9.89004
▁recommend	-9.89345
▁message	-9.89367
In	-9.89372
▁Mar	-9.89476
pp	-9.89585
▁method	-9.89692
▁successful	-9.89700
tion	-9.89888
▁release	-9.89992
▁creating	-9.90040
▁despre	-9.90142
esc	-9.90243
▁eye	-9.90275
▁apply	-9.90595
net	-9.90600
side	-9.90654
▁ar	-9.90695
▁platform	-9.90714
▁touch	-9.90733
▁towards	-9.90785
▁match	-9.90822
▁Black	-9.90934
▁fall	-9.90962
▁ground	-9.91023
▁High	-9.91074
▁Q	-9.91116
▁schon	-9.91171
▁hotel	-9.91175
▁prices	-9.91203
▁developed	-9.91341
uk	-9.91348
ide	-9.91367
▁September	-9.91371
ized	-9.91420
▁War	-9.91470
!!	-9.91629
▁grow	-9.91700
▁watch	-9.91707
▁storage	-9.91741
eau	-9.91751
can	-9.91837
▁Get	-9.91952
▁See	-9.91953
▁European	-9.91970
▁language	-9.91983
ează	-9.92018
▁court	-9.92033
▁Why	-9.92111
▁hear	-9.92134
▁doar	-9.92180
lan	-9.92330
▁Christmas	-9.92381
▁Web	-9.92387
vo	-9.92406
▁sent	-9.92498
▁businesses	-9.92587
▁Red	-9.92628
tel	-9.92638
▁Ha	-9.92651
▁wonderful	-9.92665
ations	-9.92674
za	-9.92749
▁22	-9.92866
▁thinking	-9.92942
▁became	-9.92973
▁cool	-9.92984
▁speed	-9.93037
mar	-9.93043
▁--	-9.93174
▁groups	-9.93192
▁interested	-9.93198
ak	-9.93219
▁60	-9.93267
▁screen	-9.93370
▁Design	-9.93379
▁limited	-9.93565
▁expected	-9.93596
▁opportunities	-9.93638
▁regular	-9.93687
off	-9.93702
▁Best	-9.93730
Re	-9.93844
▁ihr	-9.93872
▁Great	-9.93891
▁employees	-9.93925
▁custom	-9.93968
▁multe	-9.94012
let	-9.94088
▁benefit	-9.94249
▁term	-9.94262
▁bine	-9.94287
▁deep	-9.94453
▁August	-9.94526
▁President	-9.94538
▁Auf	-9.94585
▁wish	-9.94692
▁sometimes	-9.94727
ari	-9.94779
▁pressure	-9.94818
▁ani	-9.94860
▁trade	-9.94993
▁firm	-9.95003
▁comment	-9.95004
▁November	-9.95024
▁expect	-9.95110
▁2012	-9.95249
▁Ich	-9.95328
▁relationship	-9.95364
▁active	-9.95468
org	-9.95471
▁heat	-9.95673
▁wood	-9.95679
▁notre	-9.95792
▁function	-9.95833
▁2.	-9.95909
▁wedding	-9.96005
▁starting	-9.96124
▁Health	-9.96125
",	-9.96171
▁death	-9.96217
▁pages	-9.96276
▁vehicle	-9.96294
▁request	-9.96387
▁helps	-9.96392
▁blue	-9.96402
▁analysis	-9.96441
▁posted	-9.96454
▁healthy	-9.96481
▁contract	-9.96499
▁•	-9.96526
▁Each	-9.96529
▁Fa	-9.96618
▁dintre	-9.96622
▁Friday	-9.96720
▁considered	-9.96799
cher	-9.96826
▁quick	-9.96873
▁understanding	-9.96916
▁condition	-9.96938
ization	-9.97105
▁document	-9.97166
▁prevent	-9.97189
▁growing	-9.97253
▁protection	-9.97262
▁cat	-9.97400
▁#	-9.97506
10	-9.97528
▁join	-9.97595
▁serve	-9.97658
▁blood	-9.97710
▁July	-9.97734
▁region	-9.97779
car	-9.97934
▁entre	-9.97979
▁physical	-9.98129
▁cash	-9.98132
aux	-9.98182
ng	-9.98265
▁stage	-9.98281
▁seem	-9.98303
▁definitely	-9.98380
▁investment	-9.98383
▁purpose	-9.98544
▁begin	-9.98549
®	-9.98550
▁break	-9.98570
itate	-9.98729
▁moving	-9.98929
▁met	-9.99068
ize	-9.99083
▁select	-9.99117
▁tous	-9.99131
▁Europe	-9.99164
@	-9.99272
▁individuals	-9.99339
▁Zeit	-9.99352
gu	-9.99567
▁unit	-9.99575
▁noi	-9.99609
▁places	-9.99617
all	-9.99632
▁wait	-9.99676
▁difference	-9.99723
▁round	-9.99802
50	-9.99954
rie	-9.99955
▁Et	-9.99993
20	-10.00073
▁activity	-10.00079
е	-10.00087
▁Windows	-10.00109
▁produce	-10.00139
▁keine	-10.00213
▁Air	-10.00257
▁January	-10.00489
▁deux	-10.00508
▁entry	-10.00521
king	-10.00650
▁goals	-10.00674
▁previous	-10.00775
▁+	-10.00804
▁Business	-10.00826
ont	-10.00855
▁Sunday	-10.00869
▁offering	-10.01036
▁response	-10.01102
▁surface	-10.01139
▁Department	-10.01212
▁exactly	-10.01219
▁Online	-10.01258
dem	-10.01380
ischen	-10.01401
▁hands	-10.01510
▁hour	-10.01620
▁dog	-10.01695
▁damage	-10.01701
▁capital	-10.01879
▁toate	-10.02049
▁wrong	-10.02067
unui	-10.02220
tri	-10.02398
▁sell	-10.02400
▁published	-10.02418
▁families	-10.02468
▁avoid	-10.02549
▁Ko	-10.02551
▁mod	-10.02670
rat	-10.02765
▁Make	-10.02997
▁October	-10.03015
▁former	-10.03129
▁Services	-10.03281
▁felt	-10.03305
▁selection	-10.03331
eaza	-10.03418
gel	-10.03442
▁Good	-10.03579
▁actual	-10.03644
▁gut	-10.03685
▁gas	-10.03709
15	-10.03818
▁structure	-10.03829
▁act	-10.03864
▁Zu	-10.03865
▁creative	-10.03913
▁Vi	-10.03916
▁shop	-10.04066
▁Lo	-10.04074
şi	-10.04219
▁mis	-10.04222
ungen	-10.04230
▁fan	-10.04241
▁|	-10.04339
▁Bei	-10.04404
▁protect	-10.04455
▁Na	-10.04480
q	-10.04569
ok	-10.04711
▁California	-10.04726
▁political	-10.04730
25	-10.04753
▁feeling	-10.04791
▁ces	-10.04832
▁display	-10.04886
▁essential	-10.04965
ând	-10.04997
▁seine	-10.05055
▁soft	-10.05092
ach	-10.05102
▁happen	-10.05112
▁Paul	-10.05335
▁Cu	-10.05402
house	-10.05538
ante	-10.05582
▁easier	-10.05655
▁sort	-10.05670
▁Post	-10.05714
▁accept	-10.05730
field	-10.05765
zen	-10.05774
▁character	-10.05785
▁beginning	-10.05843
▁Jesus	-10.05876
▁weekend	-10.05966
▁certainly	-10.06114
▁THE	-10.06125
▁alle	-10.06189
▁transport	-10.06222
▁Saturday	-10.06304
▁basic	-10.06414
▁loved	-10.06432
ros	-10.06533
▁offered	-10.06600
▁camera	-10.06702
▁Green	-10.06790
ology	-10.06948
ä	-10.06965
▁manage	-10.07042
▁paid	-10.07088
▁advice	-10.07162
▁patient	-10.07223
▁spent	-10.07227
▁mir	-10.07237
▁baby	-10.07240
ö	-10.07319
▁basis	-10.07334
▁cancer	-10.07377
▁Although	-10.07401
▁gift	-10.07434
▁3.	-10.07487
dieser	-10.07516
▁overall	-10.07521
▁Sch	-10.07527
▁Ex	-10.07626
▁December	-10.07689
▁released	-10.07821
▁prior	-10.07900
▁sowie	-10.08107
▁club	-10.08133
▁Street	-10.08154
▁College	-10.08255
▁î	-10.08306
over	-10.08316
▁gave	-10.08455
▁truly	-10.08478
par	-10.08481
▁Canada	-10.08489
▁existing	-10.08542
lie	-10.08634
▁ganz	-10.08666
▁setting	-10.08711
▁supply	-10.08739
▁college	-10.08754
▁communication	-10.08841
▁23	-10.08883
▁pass	-10.09155
▁devices	-10.09187
▁glass	-10.09208
▁experienced	-10.09240
▁grand	-10.09336
▁Po	-10.09340
▁beyond	-10.09403
▁format	-10.09417
▁mon	-10.09461
▁perform	-10.09464
sten	-10.09513
▁1,	-10.09627
▁Per	-10.09664
▁sold	-10.09725
▁rates	-10.09729
▁regarding	-10.09778
▁Paris	-10.09829
▁Dar	-10.09958
▁challenge	-10.09965
▁feet	-10.10056
▁Su	-10.10202
je	-10.10259
▁Bank	-10.10263
ven	-10.10313
jo	-10.10329
▁band	-10.10349
▁delivery	-10.10492
Vous	-10.10492
tele	-10.10495
▁East	-10.10538
▁pictures	-10.10607
▁useful	-10.10648
*	-10.10765
▁increased	-10.10775
▁stories	-10.10812
sion	-10.10828
bra	-10.10835
▁brought	-10.10847
▁effort	-10.10990
▁payment	-10.11058
▁heard	-10.11093
▁played	-10.11125
▁White	-10.11142
▁metal	-10.11172
tal	-10.11175
▁engine	-10.11201
▁Club	-10.11219
ical	-10.11458
▁effects	-10.11542
▁degree	-10.11576
▁bed	-10.11591
ette	-10.11599
▁David	-10.11639
°	-10.11767
▁Au	-10.11794
▁Company	-10.11846
▁player	-10.11938
▁Today	-10.12057
▁maintain	-10.12093
▁minute	-10.12119
mail	-10.12217
▁race	-10.12237
▁comfortable	-10.12389
▁responsible	-10.12409
vor	-10.12462
▁associated	-10.12470
▁weather	-10.12470
▁$1	-10.12564
▁tried	-10.12618
▁Check	-10.12765
▁solid	-10.12786
▁movie	-10.12836
▁coffee	-10.12875
board	-10.12907
▁po	-10.12947
▁warm	-10.12958
▁connect	-10.13173
▁Ad	-10.13381
work	-10.13386
mal	-10.13397
▁Act	-10.13463
▁achieve	-10.13477
▁Nach	-10.13660
www	-10.13667
term	-10.13672
▁claim	-10.13725
▁particularly	-10.13825
▁cas	-10.13840
▁furniture	-10.13846
▁finish	-10.13896
▁temps	-10.13903
▁disease	-10.13912
▁lots	-10.13920
▁ball	-10.13931
▁sun	-10.14010
▁strategy	-10.14050
bre	-10.14052
▁mine	-10.14154
▁Click	-10.14174
ran	-10.14198
▁Will	-10.14223
▁garden	-10.14297
▁stuff	-10.14359
▁limit	-10.14464
▁bottom	-10.14495
▁shown	-10.14496
ship	-10.14527
▁habe	-10.14586
▁Super	-10.14622
▁completed	-10.14697
▁wine	-10.14698
ische	-10.14726
▁largest	-10.14747
▁appropriate	-10.14826
▁immediately	-10.15025
▁Hi	-10.15236
▁trust	-10.15277
ability	-10.15425
▁powerful	-10.15510
▁helping	-10.15562
▁schedule	-10.15569
▁correct	-10.15571
▁transfer	-10.15650
pre	-10.15665
▁journey	-10.15688
pm	-10.15700
don	-10.15844
▁highest	-10.15925
▁finally	-10.16000
form	-10.16026
▁extremely	-10.16040
▁window	-10.16050
▁Over	-10.16222
▁remove	-10.16247
wood	-10.16248
▁2013	-10.16363
▁mother	-10.16407
▁Auto	-10.16437
▁annual	-10.16462
▁Star	-10.16483
▁Di	-10.16614
о	-10.16711
▁gold	-10.16713
tar	-10.16735
ju	-10.16775
▁Use	-10.16947
▁thanks	-10.16960
▁centre	-10.17013
▁Australia	-10.17036
▁estate	-10.17050
▁eyes	-10.17144
▁force	-10.17159
▁income	-10.17395
▁science	-10.17404
ori	-10.17423
▁enter	-10.17485
▁28	-10.17541
ire	-10.17568
▁schools	-10.17580
▁restaurant	-10.17609
▁Council	-10.17703
aus	-10.17789
▁agree	-10.17905
▁campaign	-10.17919
▁Ta	-10.17943
▁letter	-10.17981
▁central	-10.17993
▁Because	-10.18005
▁path	-10.18035
▁loc	-10.18088
▁files	-10.18259
▁population	-10.18271
▁explore	-10.18272
▁mid	-10.18273
▁concept	-10.18275
▁church	-10.18302
80	-10.18303
▁einfach	-10.18583
▁reasons	-10.18669
▁determine	-10.18676
▁February	-10.18710
▁evidence	-10.18798
▁sleep	-10.18804
▁Board	-10.18865
▁maybe	-10.18964
▁wasn	-10.18970
▁Monday	-10.19010
▁director	-10.19048
well	-10.19097
During	-10.19100
▁sweet	-10.19106
▁assist	-10.19125
▁police	-10.19151
▁repair	-10.19173
▁techniques	-10.19173
▁served	-10.19181
vi	-10.19204
▁sports	-10.19233
▁opening	-10.19240
▁ones	-10.19273
▁notice	-10.19346
▁PC	-10.19355
▁alte	-10.19424
▁Bi	-10.19434
▁cold	-10.19561
▁billion	-10.19579
▁balance	-10.19636
cer	-10.19642
▁nearly	-10.19673
▁wear	-10.19726
free	-10.19761
▁Have	-10.19775
▁comfort	-10.19921
▁studies	-10.19923
▁traffic	-10.19954
▁item	-10.20021
▁teaching	-10.20047
▁turned	-10.20133
isation	-10.20135
12	-10.20204
▁greater	-10.20217
▁knew	-10.20233
▁Association	-10.20333
▁Office	-10.20380
▁established	-10.20409
45	-10.20417
▁Love	-10.20432
▁changed	-10.20488
▁pan	-10.20518
van	-10.20565
▁Mi	-10.20566
▁tend	-10.20637
▁connection	-10.20652
▁lack	-10.20695
▁bank	-10.20846
cat	-10.20872
▁helped	-10.20907
▁spot	-10.20942
▁spring	-10.20974
▁Wi	-10.21091
▁Mac	-10.21168
▁Christ	-10.21202
▁saying	-10.21284
▁General	-10.21306
▁port	-10.21310
▁Mal	-10.21316
▁System	-10.21349
▁According	-10.21527
▁chiar	-10.21568
log	-10.21577
▁mix	-10.21597
▁Lake	-10.21604
▁intr	-10.21659
▁deliver	-10.21679
mon	-10.21693
▁Ro	-10.21706
▁Management	-10.21750
bri	-10.21872
▁pieces	-10.21877
▁announced	-10.21893
▁Yes	-10.21927
▁dark	-10.22088
val	-10.22177
▁rights	-10.22310
▁Diese	-10.22310
ki	-10.22335
vent	-10.22376
▁born	-10.22381
▁muss	-10.22403
compared	-10.22466
▁demand	-10.22467
▁handle	-10.22549
▁mode	-10.22606
lic	-10.22614
▁ahead	-10.22644
▁sharing	-10.22760
▁micro	-10.22778
▁Par	-10.22863
▁Every	-10.22951
▁bag	-10.22974
▁daca	-10.22975
▁Apple	-10.23022
▁Mark	-10.23024
▁larger	-10.23128
eze	-10.23198
▁progress	-10.23223
▁stress	-10.23293
▁cards	-10.23366
▁driving	-10.23374
▁dry	-10.23397
▁relevant	-10.23456
▁Jo	-10.23483
▁tree	-10.23504
▁reported	-10.23577
ities	-10.23578
▁tea	-10.23581
▁although	-10.23615
▁Research	-10.23626
▁pool	-10.23691
▁fin	-10.23716
▁Und	-10.23813
▁decide	-10.23922
▁expert	-10.23934
rate	-10.23943
zeit	-10.23997
▁26	-10.24040
▁Ka	-10.24056
▁fix	-10.24067
igen	-10.24071
▁direction	-10.24119
▁star	-10.24166
▁middle	-10.24189
▁Ja	-10.24196
▁Land	-10.24208
ken	-10.24261
▁button	-10.24263
▁rules	-10.24266
▁également	-10.24271
▁viel	-10.24316
▁welcome	-10.24368
că	-10.24393
▁Top	-10.24531
▁allowed	-10.24549
▁tip	-10.24558
▁cei	-10.24577
▁Nous	-10.24600
té	-10.24685
▁unei	-10.24690
▁efforts	-10.24726
▁note	-10.24772
▁title	-10.24798
ric	-10.24805
berg	-10.24825
▁ainsi	-10.24858
▁led	-10.24871
▁alone	-10.24879
ward	-10.24922
▁vie	-10.24932
▁brain	-10.24943
light	-10.25010
▁Court	-10.25060
set	-10.25087
▁steps	-10.25125
pri	-10.25139
Q	-10.25165
sti	-10.25194
▁voice	-10.25212
▁models	-10.25271
▁parties	-10.25443
▁radio	-10.25527
▁mission	-10.25546
▁methods	-10.25566
▁Te	-10.25602
air	-10.25649
▁essay	-10.25672
my	-10.25683
▁competition	-10.25705
ses	-10.25745
▁serious	-10.25872
▁Ti	-10.25873
▁Hand	-10.25956
not	-10.25958
▁winter	-10.26128
24	-10.26172
▁vision	-10.26175
▁technical	-10.26211
▁cross	-10.26280
▁update	-10.26295
▁Team	-10.26356
▁evening	-10.26429
▁experts	-10.26436
part	-10.26464
▁wo	-10.26519
▁App	-10.26573
▁peu	-10.26627
▁mich	-10.26631
▁reports	-10.26700
▁km	-10.26759
▁print	-10.26788
▁Hotel	-10.26810
▁earlier	-10.26824
▁uses	-10.26826
▁menu	-10.26842
▁miles	-10.26846
▁classes	-10.26846
▁mo	-10.26853
▁loan	-10.26910
▁host	-10.26919
▁author	-10.26927
-1	-10.26943
▁bun	-10.26994
19	-10.27001
uch	-10.27067
ble	-10.27081
▁holiday	-10.27086
los	-10.27189
▁looked	-10.27266
▁Test	-10.27276
▁moved	-10.27300
▁numbers	-10.27331
▁covered	-10.27341
ker	-10.27370
TM	-10.27377
▁album	-10.27473
▁27	-10.27477
▁când	-10.27523
▁shopping	-10.27525
▁Ihr	-10.27532
▁requires	-10.27579
▁USA	-10.27591
000	-10.27595
▁official	-10.27601
▁states	-10.27635
▁tips	-10.27657
ible	-10.27732
▁Lu	-10.27756
ces	-10.27834
▁figure	-10.27839
▁Take	-10.27858
▁după	-10.27869
▁teams	-10.27898
▁song	-10.27914
▁master	-10.27939
ED	-10.27984
▁cleaning	-10.28052
▁drop	-10.28065
▁primary	-10.28088
▁Life	-10.28108
▁carry	-10.28113
▁initial	-10.28127
▁encore	-10.28162
▁Add	-10.28167
▁woman	-10.28208
▁Water	-10.28222
▁advantage	-10.28278
see	-10.28323
ré	-10.28334
▁motor	-10.28348
mel	-10.28387
▁finding	-10.28442
▁plastic	-10.28637
▁IT	-10.28660
▁Church	-10.28692
▁shape	-10.28735
▁gets	-10.28776
▁followed	-10.28819
▁100%	-10.28832
▁Program	-10.28912
▁Another	-10.28934
▁zwei	-10.28952
▁father	-10.28984
▁rich	-10.29028
où	-10.29081
▁lines	-10.29093
▁distance	-10.29176
▁cell	-10.29188
▁parte	-10.29207
bit	-10.29245
▁perhaps	-10.29275
rii	-10.29359
▁session	-10.29414
▁Pentru	-10.29453
ING	-10.29505
ants	-10.29548
▁remain	-10.29554
13	-10.29559
▁finished	-10.29576
bel	-10.29873
▁organizations	-10.29946
▁Any	-10.29990
▁taste	-10.30028
Whether	-10.30060
ram	-10.30087
like	-10.30131
▁artist	-10.30132
aire	-10.30337
▁French	-10.30339
▁donc	-10.30363
ow	-10.30387
▁200	-10.30399
▁paint	-10.30447
▁Open	-10.30454
▁appear	-10.30472
▁Washington	-10.30477
▁target	-10.30492
pir	-10.30558
▁generally	-10.30599
▁British	-10.30679
▁seven	-10.30694
▁bio	-10.30716
▁sector	-10.30736
90	-10.30777
▁fapt	-10.30788
▁prefer	-10.30832
▁partner	-10.30843
ăm	-10.30855
▁diverse	-10.30861
▁onto	-10.30928
▁refer	-10.30983
▁Law	-10.31030
▁Ri	-10.31060
▁critical	-10.31074
▁copy	-10.31090
ck	-10.31152
ix	-10.31173
tag	-10.31179
▁Road	-10.31194
▁concern	-10.31205
▁maximum	-10.31210
▁train	-10.31215
▁într	-10.31219
ura	-10.31302
▁Qu	-10.31348
▁links	-10.31354
▁audience	-10.31397
▁foot	-10.31455
▁Blue	-10.31461
ification	-10.31539
▁developing	-10.31585
▁interior	-10.31588
=	-10.31656
▁aceasta	-10.31699
▁dedicated	-10.31737
▁movement	-10.31738
sta	-10.31887
▁challenges	-10.31902
inte	-10.31907
▁Euro	-10.31908
▁classic	-10.32034
▁Um	-10.32077
▁alternative	-10.32141
mann	-10.32161
▁Une	-10.32228
qu	-10.32242
▁heavy	-10.32243
▁install	-10.32248
▁fiind	-10.32250
▁leaders	-10.32300
▁views	-10.32302
▁www	-10.32308
▁standards	-10.32327
ong	-10.32358
40	-10.32383
▁cm	-10.32385
▁park	-10.32432
▁himself	-10.32442
▁People	-10.32465
▁separate	-10.32484
▁secure	-10.32502
sie	-10.32508
▁maintenance	-10.32520
▁encourage	-10.32766
ein	-10.32814
▁reviews	-10.32820
▁Michael	-10.32821
▁background	-10.32828
▁therefore	-10.32843
▁server	-10.32849
▁dream	-10.32874
ping	-10.32903
▁block	-10.32986
▁2009	-10.33073
▁facilities	-10.33093
▁II	-10.33137
▁attend	-10.33157
▁cap	-10.33224
35	-10.33242
▁steel	-10.33280
▁shared	-10.33339
▁doctor	-10.33394
▁River	-10.33412
▁Bay	-10.33446
▁length	-10.33501
▁jobs	-10.33547
▁Plus	-10.33599
▁station	-10.33614
▁elements	-10.33627
▁rock	-10.33667
▁professionals	-10.33667
cle	-10.33678
▁dont	-10.33687
urilor	-10.33714
▁gain	-10.33727
▁programme	-10.33754
▁Cor	-10.33838
▁leader	-10.33854
ării	-10.33877
▁>	-10.33914
▁task	-10.33947
▁seeing	-10.33994
▁statement	-10.34046
vin	-10.34109
▁fish	-10.34170
▁advanced	-10.34240
▁discuss	-10.34249
die	-10.34290
isch	-10.34294
▁plenty	-10.34295
▁Hall	-10.34312
▁Other	-10.34334
▁homes	-10.34494
▁Ni	-10.34502
▁testing	-10.34510
▁Last	-10.34539
▁Note	-10.34560
▁talking	-10.34593
▁exchange	-10.34704
▁exercise	-10.34719
▁cea	-10.34755
▁wife	-10.34821
▁Für	-10.34848
▁Texas	-10.34982
▁fr	-10.35066
▁speak	-10.35089
17	-10.35101
70	-10.35146
▁promote	-10.35185
tul	-10.35199
apos	-10.35209
▁Jahr	-10.35215
▁Trump	-10.35220
▁ohne	-10.35236
▁learned	-10.35370
▁Sp	-10.35380
▁owner	-10.35428
mor	-10.35442
▁fois	-10.35445
▁meaning	-10.35519
▁dacă	-10.35525
nic	-10.35548
а	-10.35553
14	-10.35577
▁driver	-10.35626
▁Amazon	-10.35675
▁flow	-10.35847
▁shot	-10.35873
▁sous	-10.35914
▁Gold	-10.35934
▁straight	-10.35956
▁conference	-10.35961
▁peste	-10.35966
whose	-10.36030
▁installation	-10.36051
▁produced	-10.36061
▁independent	-10.36193
▁Institute	-10.36202
▁James	-10.36237
▁mental	-10.36260
ara	-10.36280
ium	-10.36302
▁husband	-10.36306
▁guests	-10.36391
27	-10.36432
▁Che	-10.36465
▁Indian	-10.36469
zer	-10.36478
▁minimum	-10.36496
500	-10.36510
▁sit	-10.36561
put	-10.36656
▁avea	-10.36665
▁ride	-10.36709
gan	-10.36715
▁Ke	-10.36748
book	-10.36752
ages	-10.36802
▁presented	-10.36816
▁Com	-10.36893
▁Call	-10.36905
▁fee	-10.36985
ări	-10.36991
▁putea	-10.37072
▁Public	-10.37103
▁pa	-10.37115
28	-10.37123
▁Director	-10.37126
▁contains	-10.37176
▁factors	-10.37255
▁famous	-10.37261
▁bathroom	-10.37304
▁core	-10.37353
▁viele	-10.37361
▁acum	-10.37436
▁animal	-10.37441
▁Ihnen	-10.37443
▁Find	-10.37455
▁Fall	-10.37486
ford	-10.37605
▁coverage	-10.37653
▁smart	-10.37683
ries	-10.37689
▁memory	-10.37726
▁dance	-10.37744
11	-10.37747
▁communities	-10.37766
eurs	-10.37805
▁Florida	-10.37846
▁sport	-10.37937
▁bus	-10.37992
▁colors	-10.37997
▁affect	-10.38004
▁score	-10.38018
▁properties	-10.38050
18	-10.38059
▁astfel	-10.38131
▁beach	-10.38241
▁friendly	-10.38280
izing	-10.38289
▁buying	-10.38315
▁forget	-10.38320
este	-10.38320
▁capacity	-10.38361
▁lose	-10.38369
▁listed	-10.38407
ica	-10.38408
han	-10.38409
▁selbst	-10.38439
▁values	-10.38439
▁Power	-10.38456
▁comments	-10.38483
eux	-10.38535
ați	-10.38542
▁context	-10.38571
liche	-10.38594
▁keeping	-10.38621
▁2008	-10.38647
▁su	-10.38667
▁biggest	-10.38684
▁fiecare	-10.38736
ight	-10.38845
▁toute	-10.38981
▁dinner	-10.38983
bau	-10.39071
▁Mai	-10.39076
▁status	-10.39078
rez	-10.39134
▁selected	-10.39155
▁cells	-10.39260
▁eight	-10.39332
▁package	-10.39332
▁scale	-10.39334
din	-10.39336
▁Who	-10.39338
▁century	-10.39340
▁bi	-10.39352
▁Africa	-10.39385
▁http	-10.39413
▁named	-10.39423
▁adding	-10.39490
▁mention	-10.39504
▁casino	-10.39542
▁couldn	-10.39562
▁outdoor	-10.39591
▁sugar	-10.39605
▁prepared	-10.39612
21	-10.39653
▁Ba	-10.39663
vers	-10.39670
ration	-10.39677
▁ja	-10.39704
▁aspect	-10.39722
▁31	-10.39746
▁treat	-10.39748
tru	-10.39784
▁flat	-10.39789
32	-10.39799
▁reality	-10.39824
▁waste	-10.39877
▁King	-10.39965
▁drug	-10.39987
▁operations	-10.40012
▁aim	-10.40042
▁fans	-10.40044
▁vers	-10.40089
▁plants	-10.40097
▁Dis	-10.40148
▁Daten	-10.40151
être	-10.40267
▁placed	-10.40327
▁bon	-10.40398
beim	-10.40411
▁slow	-10.40502
cri	-10.40551
▁Care	-10.40569
mes	-10.40621
26	-10.40626
box	-10.40633
▁helpful	-10.40636
▁documents	-10.40654
▁visitors	-10.40677
ture	-10.40686
▁Menschen	-10.40689
▁Chi	-10.40698
▁recipe	-10.40764
▁kept	-10.40769
▁Grand	-10.40792
▁operating	-10.40818
point	-10.40833
▁bin	-10.40837
▁Tri	-10.40846
Be	-10.40851
▁experiences	-10.40857
▁academic	-10.40861
▁finden	-10.40870
▁sera	-10.40909
act	-10.41054
▁Pa	-10.41091
▁society	-10.41106
▁combination	-10.41124
5%	-10.41183
▁owners	-10.41189
▁poor	-10.41204
▁Robert	-10.41238
▁military	-10.41296
▁economy	-10.41303
▁aware	-10.41306
rot	-10.41344
mie	-10.41354
▁Thursday	-10.41440
▁2011	-10.41491
▁fantastic	-10.41554
▁numerous	-10.41592
▁fair	-10.41656
med	-10.41675
▁welche	-10.41689
▁fruit	-10.41713
ku	-10.41733
▁Social	-10.41758
▁funds	-10.41816
▁atunci	-10.41821
▁Part	-10.41824
▁Big	-10.41830
▁2010	-10.41941
▁detail	-10.41989
▁Peter	-10.41994
ani	-10.42020
▁Wie	-10.42080
▁Tu	-10.42165
ear	-10.42171
▁Wenn	-10.42194
▁manager	-10.42200
▁Dan	-10.42241
▁Pi	-10.42257
▁wants	-10.42265
▁Data	-10.42323
pos	-10.42388
▁older	-10.42395
▁Download	-10.42407
▁Was	-10.42411
▁corner	-10.42420
▁president	-10.42420
mas	-10.42425
▁smaller	-10.42436
▁bright	-10.42446
▁proper	-10.42458
▁Kinder	-10.42464
▁Two	-10.42467
▁award	-10.42472
▁premier	-10.42521
▁seek	-10.42565
▁thank	-10.42566
▁proud	-10.42651
▁workers	-10.42677
▁2000	-10.42697
▁gone	-10.42748
▁medium	-10.42769
▁grade	-10.42777
▁Ru	-10.42780
cro	-10.42785
▁interview	-10.42831
23	-10.42879
▁mari	-10.42944
▁80	-10.42976
▁Ga	-10.43005
▁90	-10.43184
▁anderen	-10.43261
▁cultural	-10.43302
but	-10.43314
rum	-10.43330
get	-10.43339
▁pop	-10.43358
▁Information	-10.43359
▁press	-10.43497
▁Project	-10.43536
▁excited	-10.43576
▁Saint	-10.43609
▁England	-10.43619
▁beauty	-10.43644
▁agreement	-10.43646
▁Like	-10.43757
▁strength	-10.43766
▁waiting	-10.43817
и	-10.43827
Le	-10.43833
▁residents	-10.43836
▁Ben	-10.43860
▁mentioned	-10.43926
▁etwas	-10.43931
▁rooms	-10.43935
▁neue	-10.43950
▁Microsoft	-10.43973
▁passed	-10.44021
▁sea	-10.44089
▁electric	-10.44124
▁forms	-10.44138
▁Central	-10.44160
▁Lord	-10.44263
ute	-10.44276
▁pré	-10.44279
▁square	-10.44308
itatea	-10.44345
▁debt	-10.44376
▁street	-10.44398
▁pi	-10.44492
▁happened	-10.44533
▁Tuesday	-10.44559
recht	-10.44609
▁Eine	-10.44628
▁Set	-10.44677
▁federal	-10.44684
CC	-10.44691
....	-10.44694
lig	-10.44746
▁Christian	-10.44871
▁truth	-10.44921
▁map	-10.44973
▁secret	-10.44998
▁Chinese	-10.45084
hol	-10.45090
▁wrote	-10.45151
▁hospital	-10.45178
▁Island	-10.45187
▁frame	-10.45195
▁sources	-10.45212
pan	-10.45324
▁29	-10.45353
▁changing	-10.45455
▁Where	-10.45463
▁negative	-10.45471
▁processes	-10.45492
▁leadership	-10.45503
▁nos	-10.45520
▁info	-10.45578
▁Gu	-10.45596
▁CO	-10.45605
▁reference	-10.45688
▁corporate	-10.45710
▁characters	-10.45756
▁dining	-10.45771
▁becoming	-10.45971
▁4.	-10.46031
▁Science	-10.46063
▁Education	-10.46194
▁camp	-10.46207
fall	-10.46215
▁Auch	-10.46247
▁topic	-10.46252
▁influence	-10.46346
▁70	-10.46389
▁identify	-10.46446
▁(19	-10.46465
care	-10.46522
ions	-10.46622
ray	-10.46637
▁Both	-10.46658
▁collect	-10.46700
▁practices	-10.46767
▁fight	-10.46806
▁injury	-10.46874
▁nici	-10.46906
▁depuis	-10.46956
▁actions	-10.46961
▁Wednesday	-10.47090
▁bill	-10.47109
▁cheap	-10.47132
lui	-10.47172
▁awesome	-10.47173
tig	-10.47255
▁expensive	-10.47264
ceea	-10.47283
▁exact	-10.47291
22	-10.47346
▁avant	-10.47352
▁fat	-10.47354
▁spending	-10.47435
▁designs	-10.47608
▁damit	-10.47613
▁comp	-10.47619
▁whatever	-10.47643
▁Light	-10.47644
▁quarter	-10.47680
hand	-10.47730
▁connected	-10.47758
▁technologies	-10.47772
ges	-10.47781
▁shower	-10.47900
▁500	-10.47923
▁Time	-10.47944
▁zone	-10.48053
▁vote	-10.48062
▁andere	-10.48087
▁otherwise	-10.48099
tur	-10.48129
▁happens	-10.48150
hin	-10.48160
▁volume	-10.48216
▁thousands	-10.48239
war	-10.48255
▁Play	-10.48290
▁temperature	-10.48371
▁industrial	-10.48383
▁fuel	-10.48392
100	-10.48409
top	-10.48421
kin	-10.48431
▁efficient	-10.48441
teil	-10.48453
alt	-10.48458
▁monde	-10.48484
▁Ra	-10.48490
▁bedroom	-10.48510
▁showing	-10.48532
▁continued	-10.48549
▁Plan	-10.48552
▁assistance	-10.48601
▁discover	-10.48623
▁Year	-10.48624
▁applied	-10.48643
▁audio	-10.48756
▁thus	-10.48765
▁permet	-10.48806
▁fashion	-10.48853
cra	-10.48865
ious	-10.48870
▁focused	-10.48926
16	-10.48931
▁arm	-10.48936
▁Their	-10.48979
▁Foundation	-10.49022
▁majority	-10.49022
▁wind	-10.49079
▁bought	-10.49106
▁factor	-10.49192
▁opened	-10.49214
tern	-10.49237
▁cars	-10.49260
▁exciting	-10.49269
▁affordable	-10.49351
ches	-10.49356
▁panel	-10.49372
▁caused	-10.49379
▁travail	-10.49400
▁roof	-10.49407
▁enable	-10.49420
▁toward	-10.49449
▁Development	-10.49469
▁foreign	-10.49531
avi	-10.49532
long	-10.49533
De	-10.49579
▁Mon	-10.49588
▁Va	-10.49594
AP	-10.49610
▁asta	-10.49721
▁prepare	-10.49722
▁German	-10.49726
▁Centre	-10.49733
ère	-10.49737
▁fear	-10.49754
▁Este	-10.49788
▁Des	-10.49794
▁Kon	-10.49931
á	-10.49987
stand	-10.50081
▁Real	-10.50084
lichen	-10.50099
▁Beach	-10.50146
▁expertise	-10.50186
▁route	-10.50245
▁nation	-10.50255
▁snow	-10.50302
▁articles	-10.50313
▁Wood	-10.50443
▁operation	-10.50494
▁passion	-10.50522
▁cand	-10.50569
haus	-10.50570
OR	-10.50571
▁senior	-10.50651
▁becomes	-10.50655
▁sounds	-10.50688
▁enjoyed	-10.50705
▁gegen	-10.50753
▁courses	-10.50792
▁absolutely	-10.50826
tim	-10.50826
uff	-10.50852
▁moins	-10.50861
▁TO	-10.50906
▁fabric	-10.50927
poli	-10.50933
▁Bre	-10.50976
▁bo	-10.50992
▁Elle	-10.51047
bu	-10.51234
▁participants	-10.51240
stone	-10.51279
ties	-10.51366
▁listen	-10.51370
▁Spiel	-10.51375
pot	-10.51387
▁selling	-10.51436
▁geht	-10.51468
▁mini	-10.51515
▁trans	-10.51541
▁ingredients	-10.51564
auf	-10.51567
▁orice	-10.51595
▁Next	-10.51630
▁cream	-10.51676
▁edge	-10.51697
▁recommended	-10.51702
▁Form	-10.51728
▁processing	-10.51747
vert	-10.51771
▁described	-10.51836
▁installed	-10.51885
▁managed	-10.51895
▁electronic	-10.51897
▁performed	-10.51906
▁raise	-10.51910
▁imagine	-10.51928
down	-10.51953
▁fond	-10.51998
▁Inter	-10.52043
▁Mc	-10.52055
▁Dans	-10.52068
istic	-10.52097
▁miss	-10.52105
sur	-10.52106
▁Col	-10.52188
cut	-10.52202
▁dupa	-10.52216
▁Twitter	-10.52260
▁bowl	-10.52372
▁remains	-10.52375
▁Jan	-10.52405
▁smooth	-10.52416
▁fees	-10.52442
▁aid	-10.52449
▁presence	-10.52483
▁Android	-10.52500
▁decisions	-10.52539
▁names	-10.52545
▁Music	-10.52555
▁innovative	-10.52558
▁Tom	-10.52600
▁spread	-10.52617
▁lovely	-10.52622
▁daughter	-10.52640
US	-10.52705
▁facility	-10.52710
▁peace	-10.52711
▁department	-10.52728
▁weiter	-10.52759
▁Sun	-10.52776
▁fund	-10.52777
▁2018.	-10.52793
▁discussion	-10.52819
75	-10.52880
EC	-10.52913
▁lunch	-10.52914
▁videos	-10.52927
05	-10.53125
ige	-10.53127
▁parking	-10.53156
▁relationships	-10.53173
▁George	-10.53299
▁teachers	-10.53300
room	-10.53346
▁Tra	-10.53361
▁Sam	-10.53365
▁properly	-10.53559
▁Book	-10.53563
▁CA	-10.53696
▁calls	-10.53756
▁stat	-10.53818
ux	-10.53822
▁soit	-10.53844
▁Community	-10.53868
▁Jahren	-10.53871
▁increasing	-10.53958
▁civil	-10.54018
app	-10.54057
▁35	-10.54059
▁rise	-10.54060
▁dabei	-10.54099
▁studio	-10.54180
▁policies	-10.54205
▁agent	-10.54206
▁Before	-10.54260
▁Cal	-10.54302
▁2005	-10.54340
▁sample	-10.54378
▁manner	-10.54519
wing	-10.54521
stra	-10.54555
▁fel	-10.54579
▁Show	-10.54595
▁scene	-10.54657
mic	-10.54676
nom	-10.54700
▁typically	-10.54709
▁pair	-10.54710
▁detailed	-10.54739
▁Work	-10.54742
▁cities	-10.54745
▁Rock	-10.54750
▁Gar	-10.54791
▁serving	-10.54835
▁machen	-10.54852
▁trees	-10.54889
▁accident	-10.54920
▁cloud	-10.54920
▁animals	-10.54930
▁Den	-10.54990
▁Wa	-10.54990
▁suggest	-10.55022
putting	-10.55041
▁suite	-10.55043
▁clearly	-10.55085
▁net	-10.55129
▁funding	-10.55151
▁salt	-10.55194
▁Men	-10.55212
ped	-10.55242
▁Food	-10.55314
▁leaving	-10.55354
▁Government	-10.55424
ick	-10.55438
▁seat	-10.55512
▁Los	-10.55518
▁teacher	-10.55559
▁iPhone	-10.55569
▁300	-10.55612
▁commitment	-10.55618
▁aspects	-10.55650
▁previously	-10.55712
▁cent	-10.55725
▁Vo	-10.55734
▁artists	-10.55796
▁runs	-10.55813
>	-10.55816
▁Gi	-10.55827
▁mar	-10.55854
!!!	-10.55854
▁Media	-10.55894
▁feedback	-10.55911
▁resolution	-10.55912
IN	-10.55916
▁wurden	-10.55952
▁busy	-10.55983
▁adult	-10.56000
29	-10.56049
elles	-10.56138
▁closed	-10.56176
▁trouble	-10.56177
▁rent	-10.56198
lot	-10.56225
▁importance	-10.56231
▁units	-10.56257
Pro	-10.56271
▁provider	-10.56301
▁visual	-10.56329
IT	-10.56339
▁diet	-10.56373
▁appearance	-10.56393
pin	-10.56458
▁Din	-10.56476
▁eating	-10.56552
Fi	-10.56576
ball	-10.56577
är	-10.56586
ney	-10.56588
▁records	-10.56607
▁Fi	-10.56618
▁faut	-10.56633
▁CD	-10.56680
ign	-10.56693
▁vă	-10.56700
▁agency	-10.56715
ierung	-10.56732
▁Back	-10.56736
▁windows	-10.56755
▁pull	-10.56789
ash	-10.56796
▁profit	-10.56859
▁brings	-10.56861
▁Committee	-10.56912
▁girl	-10.56917
▁vehicles	-10.56937
▁Hier	-10.56957
ES	-10.56964
până	-10.56988
▁Kunden	-10.57038
pen	-10.57046
▁explain	-10.57051
▁cadru	-10.57076
▁attack	-10.57110
▁markets	-10.57112
▁claims	-10.57134
▁walking	-10.57139
▁pouv	-10.57153
low	-10.57164
▁showed	-10.57211
▁principal	-10.57212
▁lucru	-10.57214
▁precum	-10.57271
TA	-10.57309
▁partners	-10.57310
▁exist	-10.57314
▁internal	-10.57334
hen	-10.57395
▁Master	-10.57397
unless	-10.57401
▁doubt	-10.57472
$	-10.57479
▁Long	-10.57489
▁leaves	-10.57491
allowing	-10.57506
pol	-10.57527
▁Up	-10.57549
▁Contact	-10.57609
▁practical	-10.57709
▁suit	-10.57759
▁Site	-10.57766
▁formation	-10.57769
▁signal	-10.57822
▁approximately	-10.57841
▁ourselves	-10.57850
▁colour	-10.57852
▁species	-10.57853
▁advance	-10.57875
▁PM	-10.57892
ans	-10.57912
▁locations	-10.57940
vous	-10.57960
▁updated	-10.57964
▁faith	-10.57967
mus	-10.57974
▁stores	-10.57986
heim	-10.58013
▁suitable	-10.58056
▁continues	-10.58070
▁fac	-10.58113
ever	-10.58116
▁Bill	-10.58120
▁chose	-10.58121
▁inform	-10.58123
▁environmental	-10.58143
▁responsibility	-10.58189
99	-10.58254
▁competitive	-10.58372
▁strategies	-10.58390
▁toujours	-10.58427
tive	-10.58430
▁automatically	-10.58560
▁dress	-10.58561
▁Minister	-10.58562
har	-10.58608
▁Start	-10.58625
▁=	-10.58656
▁pattern	-10.58660
tier	-10.58677
▁pays	-10.58703
▁profile	-10.58725
▁raised	-10.58726
ange	-10.58729
▁drink	-10.58776
▁element	-10.58804
▁landscape	-10.58876
▁Tag	-10.58907
▁cheese	-10.58959
ific	-10.59001
▁Stadt	-10.59018
39	-10.59140
▁launch	-10.59211
▁wouldn	-10.59215
AS	-10.59220
▁push	-10.59306
▁mill	-10.59345
▁mass	-10.59365
▁category	-10.59379
sondern	-10.59405
col	-10.59411
▁climate	-10.59431
lier	-10.59444
▁slightly	-10.59551
95	-10.59652
ace	-10.59661
▁domain	-10.59763
kan	-10.59831
▁feed	-10.59849
▁Live	-10.59884
▁Mais	-10.59911
▁après	-10.59937
▁village	-10.59942
▁hatte	-10.59968
▁joined	-10.59988
▁Museum	-10.60031
head	-10.60086
▁draw	-10.60095
▁concerns	-10.60097
ER	-10.60151
▁technique	-10.60165
▁Bio	-10.60186
▁Sea	-10.60188
▁@	-10.60193
wer	-10.60211
▁battery	-10.60246
▁mostly	-10.60267
▁familiar	-10.60268
▁Sub	-10.60269
▁delicious	-10.60322
doch	-10.60326
60	-10.60340
▁carte	-10.60361
▁avut	-10.60415
▁premium	-10.60460
▁attempt	-10.60470
▁Über	-10.60473
▁combined	-10.60494
lement	-10.60495
▁voi	-10.60503
▁wonder	-10.60538
▁failure	-10.60611
which	-10.60615
esti	-10.60632
31	-10.60655
▁sta	-10.60673
▁transform	-10.60674
▁license	-10.60674
▁depending	-10.60676
▁specifically	-10.60678
▁OF	-10.60694
band	-10.60696
▁Sport	-10.60731
list	-10.60743
▁Tour	-10.60753
▁Israel	-10.60756
▁filled	-10.60772
▁manual	-10.60776
▁watching	-10.60862
▁rule	-10.60888
mat	-10.60902
▁notes	-10.60959
▁Oh	-10.60961
▁bereits	-10.60963
▁foundation	-10.60992
▁vital	-10.61015
▁lassen	-10.61075
▁cât	-10.61116
▁shipping	-10.61143
▁registered	-10.61151
▁jour	-10.61267
▁island	-10.61277
▁sets	-10.61307
▁football	-10.61368
▁EU	-10.61386
▁stone	-10.61402
▁Press	-10.61470
▁adapt	-10.61507
ised	-10.61543
▁thoughts	-10.61543
▁doors	-10.61585
€	-10.61595
▁components	-10.61604
rig	-10.61633
▁generation	-10.61659
▁guess	-10.61670
cker	-10.61694
▁realize	-10.61721
▁Roman	-10.61731
▁contre	-10.61769
▁Out	-10.61794
▁IN	-10.61905
cip	-10.61909
59	-10.61933
▁enhance	-10.61977
▁battle	-10.61982
▁monitor	-10.61986
▁Martin	-10.62046
▁websites	-10.62046
▁DE	-10.62060
▁Festival	-10.62095
ân	-10.62131
▁Place	-10.62142
▁rare	-10.62155
această	-10.62173
▁sollte	-10.62173
▁Read	-10.62182
ware	-10.62217
Those	-10.62267
ende	-10.62354
▁prix	-10.62384
▁roman	-10.62410
▁creation	-10.62422
▁confidence	-10.62455
▁Japan	-10.62464
▁rain	-10.62494
▁guys	-10.62518
▁south	-10.62524
▁trading	-10.62565
▁€	-10.62610
▁Film	-10.62634
▁pana	-10.62707
▁asemenea	-10.62707
36	-10.62719
▁instance	-10.62788
cou	-10.62939
▁nun	-10.63007
▁Pass	-10.63039
Cette	-10.63058
▁Network	-10.63088
▁prime	-10.63101
▁spiritual	-10.63210
▁tough	-10.63303
▁AND	-10.63309
▁Cat	-10.63360
▁boat	-10.63361
▁leads	-10.63486
▁Germany	-10.63510
▁valuable	-10.63564
57	-10.63589
lect	-10.63615
▁distribution	-10.63645
dar	-10.63652
▁Manager	-10.63770
cha	-10.63773
▁obtain	-10.63774
GB	-10.63791
▁unor	-10.63808
schaft	-10.63860
▁zwischen	-10.63872
▁winning	-10.63917
▁suis	-10.63981
58	-10.64013
▁Party	-10.64037
▁ceva	-10.64042
▁comprehensive	-10.64068
▁aceste	-10.64073
▁committed	-10.64073
▁Hu	-10.64138
ţ	-10.64149
▁north	-10.64202
werk	-10.64254
▁interface	-10.64279
▁Valley	-10.64281
▁anywhere	-10.64281
▁Only	-10.64285
TE	-10.64330
hui	-10.64368
bus	-10.64395
vis	-10.64398
▁Society	-10.64512
▁reliable	-10.64557
▁quelques	-10.64563
tech	-10.64619
ual	-10.64638
▁educational	-10.64642
serv	-10.64649
▁opinion	-10.64663
▁appears	-10.64670
▁count	-10.64680
irea	-10.64698
ban	-10.64750
▁45	-10.64753
▁contain	-10.64766
ost	-10.64766
▁anul	-10.64771
rien	-10.64816
gra	-10.64836
▁counter	-10.64895
-3	-10.65041
▁resource	-10.65046
▁Wo	-10.65051
▁posts	-10.65062
▁employee	-10.65132
rol	-10.65186
▁ended	-10.65197
met	-10.65308
▁meine	-10.65317
▁reached	-10.65337
gri	-10.65372
▁Bra	-10.65375
▁conduct	-10.65429
▁housing	-10.65442
▁tickets	-10.65479
▁database	-10.65567
IL	-10.65615
▁perspective	-10.65636
▁Har	-10.65640
▁error	-10.65655
▁meal	-10.65657
▁hearing	-10.65724
▁transition	-10.65730
▁browser	-10.65761
▁supported	-10.65761
▁starts	-10.65881
țe	-10.65890
▁adults	-10.65891
▁România	-10.65918
dra	-10.65988
▁worry	-10.66022
▁avoir	-10.66050
▁regional	-10.66051
▁min	-10.66072
▁Does	-10.66081
▁Keep	-10.66120
rom	-10.66124
sco	-10.66132
tem	-10.66190
▁Old	-10.66195
▁Under	-10.66255
▁Commission	-10.66256
▁Bau	-10.66327
▁News	-10.66336
▁mois	-10.66344
▁respond	-10.66356
▁alles	-10.66388
▁chair	-10.66448
▁ho	-10.66485
right	-10.66491
▁totally	-10.66553
gle	-10.66553
▁32	-10.66560
66	-10.66566
town	-10.66590
Ch	-10.66626
▁gr	-10.66630
▁garage	-10.66633
ții	-10.66650
▁Union	-10.66714
ică	-10.66734
▁2,	-10.66844
▁reflect	-10.66916
▁retail	-10.66939
▁unde	-10.66961
▁accessible	-10.67026
water	-10.67059
▁regard	-10.67071
▁logo	-10.67149
▁inspired	-10.67152
▁Wall	-10.67186
▁Ste	-10.67209
▁asking	-10.67218
▁Journal	-10.67303
▁Teil	-10.67404
▁collaboration	-10.67419
▁acid	-10.67427
▁Fund	-10.67438
▁spirit	-10.67444
despite	-10.67446
▁delivered	-10.67482
▁girls	-10.67537
▁Look	-10.67590
rant	-10.67595
▁District	-10.67646
▁rental	-10.67671
▁spune	-10.67673
els	-10.67754
▁permanent	-10.67766
▁iron	-10.67771
▁Thomas	-10.67775
EL	-10.67807
▁except	-10.67807
▁catch	-10.67837
▁providers	-10.67838
▁2006	-10.67844
▁chat	-10.67993
▁emergency	-10.68028
gre	-10.68031
site	-10.68089
▁missing	-10.68089
abil	-10.68091
▁Hill	-10.68100
urs	-10.68131
▁plusieurs	-10.68172
▁birthday	-10.68173
DS	-10.68202
ersten	-10.68238
▁5.	-10.68253
▁library	-10.68334
▁earth	-10.68352
CI	-10.68365
▁lighting	-10.68444
▁fixed	-10.68488
tori	-10.68489
▁replace	-10.68500
▁administration	-10.68507
leurs	-10.68523
▁meat	-10.68614
▁songs	-10.68666
▁confirm	-10.68687
▁rapid	-10.68699
▁Special	-10.68700
▁holding	-10.68712
▁honor	-10.68727
▁Market	-10.68741
La	-10.68754
▁measure	-10.68776
▁guarantee	-10.68786
▁switch	-10.68813
▁extensive	-10.68829
▁Neu	-10.68867
avez	-10.68890
▁protein	-10.68898
▁infrastructure	-10.68945
▁functions	-10.68949
▁cont	-10.68950
row	-10.68976
star	-10.68977
▁Port	-10.69019
Using	-10.69034
▁faster	-10.69056
44	-10.69117
▁measures	-10.69162
▁celor	-10.69186
▁exam	-10.69190
200	-10.69203
î	-10.69255
▁conversation	-10.69283
▁brands	-10.69296
▁Code	-10.69359
▁Website	-10.69375
OS	-10.69378
▁alors	-10.69382
▁organ	-10.69403
▁removed	-10.69482
▁Head	-10.69491
▁Cha	-10.69491
▁visiting	-10.69493
▁wild	-10.69493
▁seit	-10.69496
49	-10.69511
▁organic	-10.69540
aţi	-10.69578
▁kit	-10.69595
68	-10.69596
▁flowers	-10.69612
▁appreciate	-10.69701
▁dead	-10.69744
▁Fire	-10.69754
▁cela	-10.69759
▁Ph	-10.69763
▁arrive	-10.69792
▁purposes	-10.69821
▁qualité	-10.69823
▁restaurants	-10.69848
▁advertising	-10.69854
cur	-10.69856
▁ça	-10.69897
▁introduced	-10.69909
▁returned	-10.69911
▁desire	-10.69951
▁soul	-10.69998
▁Technology	-10.69999
);	-10.70016
▁Royal	-10.70028
tant	-10.70069
▁possibly	-10.70070
▁consumers	-10.70081
▁doua	-10.70098
ified	-10.70098
▁Award	-10.70115
toutes	-10.70130
▁meant	-10.70133
ezi	-10.70162
▁plu	-10.70177
ţii	-10.70215
▁talent	-10.70279
▁Security	-10.70331
arii	-10.70335
▁zi	-10.70346
▁Shop	-10.70367
▁breakfast	-10.70411
▁trial	-10.70449
ami	-10.70494
▁register	-10.70530
unserer	-10.70565
▁solar	-10.70570
▁deals	-10.70592
▁Ku	-10.70593
To	-10.70619
bat	-10.70680
MC	-10.70701
▁Global	-10.70702
у	-10.70741
▁nor	-10.70782
▁milk	-10.70787
▁choices	-10.70821
»	-10.70868
▁Sur	-10.70870
more	-10.70874
48	-10.70902
67	-10.70938
▁replacement	-10.70994
34	-10.71044
▁chocolate	-10.71049
▁Family	-10.71060
This	-10.71123
▁novel	-10.71144
▁Chicago	-10.71156
▁participate	-10.71167
▁trei	-10.71273
▁monthly	-10.71373
▁survey	-10.71398
▁End	-10.71429
▁Medical	-10.71443
autres	-10.71468
rich	-10.71470
▁bike	-10.71470
▁eventually	-10.71472
▁HD	-10.71472
bil	-10.71474
cent	-10.71490
▁afin	-10.71568
▁surgery	-10.71616
▁sin	-10.71646
▁manufacturing	-10.71696
▁consumer	-10.71725
system	-10.71731
▁object	-10.71740
▁Ju	-10.71742
ered	-10.71784
rac	-10.71807
▁clinical	-10.71866
▁dollars	-10.71976
▁chain	-10.71995
▁afternoon	-10.72020
▁ligne	-10.72042
▁accounts	-10.72181
ving	-10.72204
▁Australian	-10.72241
38	-10.72254
▁persoane	-10.72258
▁grande	-10.72267
▁Report	-10.72347
▁revenue	-10.72365
▁spre	-10.72376
▁cutting	-10.72400
▁approved	-10.72413
▁glad	-10.72419
chaque	-10.72440
win	-10.72444
▁waren	-10.72473
▁launched	-10.72507
▁layer	-10.72565
▁airport	-10.72572
▁effectively	-10.72572
▁coach	-10.72595
dé	-10.72613
LE	-10.72627
▁müssen	-10.72639
plan	-10.72664
dan	-10.72671
55	-10.72679
bringing	-10.72690
▁$2	-10.72700
nce	-10.72718
▁inspiration	-10.72818
You	-10.72866
▁soll	-10.72910
▁seemed	-10.72960
▁flight	-10.72969
▁prima	-10.72988
▁Welt	-10.73012
▁jetzt	-10.73032
ky	-10.73043
▁Western	-10.73054
▁label	-10.73060
▁möglich	-10.73081
▁input	-10.73086
▁laws	-10.73100
▁personnes	-10.73171
▁paying	-10.73173
▁Uhr	-10.73174
▁Mary	-10.73175
pur	-10.73191
▁covers	-10.73213
▁throw	-10.73252
▁Tor	-10.73328
▁bat	-10.73355
▁Gr	-10.73373
▁farm	-10.73376
▁improved	-10.73384
▁fără	-10.73429
▁theme	-10.73437
pens	-10.73487
▁Cup	-10.73498
▁settings	-10.73511
▁hire	-10.73523
▁massive	-10.73525
▁generate	-10.73541
▁earn	-10.73584
▁tab	-10.73643
For	-10.73662
gang	-10.73689
▁hin	-10.73709
▁roll	-10.73711
▁engagement	-10.73716
▁signed	-10.73718
▁League	-10.73732
▁registration	-10.73793
▁première	-10.73876
isse	-10.73897
▁university	-10.73903
ell	-10.73916
▁nou	-10.73917
rog	-10.73919
▁sitting	-10.73921
▁cazul	-10.73957
▁surrounding	-10.73983
▁Asia	-10.74036
▁bath	-10.74083
hal	-10.74092
▁plate	-10.74103
▁tests	-10.74115
▁presentation	-10.74116
▁chicken	-10.74150
▁Val	-10.74159
ably	-10.74166
▁magazine	-10.74170
▁Maybe	-10.74187
▁sauce	-10.74267
TC	-10.74289
▁exclusive	-10.74297
86	-10.74307
▁teeth	-10.74347
▁regularly	-10.74352
sed	-10.74382
gro	-10.74417
He	-10.74421
▁2017.	-10.74430
▁template	-10.74490
▁gleich	-10.74494
bal	-10.74506
▁African	-10.74511
în	-10.74523
▁rep	-10.74544
▁beat	-10.74588
▁deck	-10.74606
▁intended	-10.74622
▁para	-10.74651
▁IP	-10.74671
▁bra	-10.74688
▁forces	-10.74697
▁routine	-10.74718
▁Jahre	-10.74776
▁Bad	-10.74798
▁drivers	-10.74807
▁updates	-10.74810
▁elegant	-10.74828
▁external	-10.74844
▁engineering	-10.74882
ender	-10.74954
table	-10.74976
inter	-10.74988
▁Romania	-10.74995
▁zile	-10.75047
▁luxury	-10.75057
▁calling	-10.75075
▁cooking	-10.75101
▁component	-10.75115
wan	-10.75121
schen	-10.75121
▁birth	-10.75124
asupra	-10.75135
Co	-10.75147
▁opt	-10.75154
▁discovered	-10.75186
▁teach	-10.75208
▁Son	-10.75234
▁guest	-10.75238
▁dogs	-10.75270
▁2003	-10.75275
▁behavior	-10.75275
pé	-10.75299
63	-10.75316
▁Human	-10.75370
▁expression	-10.75480
▁nevoie	-10.75494
▁recherche	-10.75529
ging	-10.75577
related	-10.75595
▁discount	-10.75604
▁Brown	-10.75605
▁Such	-10.75611
▁Ve	-10.75715
▁height	-10.75727
clo	-10.75741
▁incredible	-10.75791
▁bas	-10.75792
▁mă	-10.75798
▁purchased	-10.75824
▁compte	-10.75831
▁instructions	-10.75854
▁Instead	-10.75867
▁output	-10.75871
▁mom	-10.75889
DR	-10.75983
89	-10.76017
▁reduced	-10.76062
98	-10.76068
▁constant	-10.76088
▁therapy	-10.76242
▁capable	-10.76276
mark	-10.76327
▁Sometimes	-10.76333
▁joy	-10.76342
▁perfectly	-10.76359
▁painting	-10.76370
avait	-10.76377
▁Sha	-10.76438
▁dat	-10.76446
▁produits	-10.76448
tric	-10.76456
ierte	-10.76515
▁Smith	-10.76584
▁trebui	-10.76626
▁beaucoup	-10.76663
▁chosen	-10.76719
▁cre	-10.76732
▁complet	-10.76734
▁Ltd	-10.76760
▁recovery	-10.76782
▁district	-10.76842
78	-10.76864
▁Unter	-10.76873
▁schnell	-10.76873
▁apart	-10.76894
▁phase	-10.76895
▁seeking	-10.76909
▁mark	-10.76915
▁pet	-10.76923
▁PDF	-10.76930
▁efficiency	-10.76958
▁buildings	-10.76961
69	-10.76972
▁sens	-10.76986
▁Video	-10.77012
▁destination	-10.77018
▁female	-10.77032
▁supporting	-10.77067
▁signs	-10.77078
▁appeal	-10.77078
76	-10.77110
▁favourite	-10.77161
ock	-10.77170
▁readers	-10.77176
▁Did	-10.77187
rou	-10.77205
PA	-10.77223
▁Jean	-10.77248
▁Em	-10.77259
pass	-10.77280
▁Zi	-10.77309
▁între	-10.77326
▁fly	-10.77343
mos	-10.77367
▁emotional	-10.77386
asse	-10.77477
▁sessions	-10.77509
▁symptoms	-10.77565
▁died	-10.77622
▁seconds	-10.77663
▁procedure	-10.77721
▁express	-10.77742
▁două	-10.77789
▁valid	-10.77839
▁euro	-10.77887
▁interests	-10.77903
Having	-10.77924
▁hundreds	-10.77967
grad	-10.78002
▁neuen	-10.78008
▁cook	-10.78055
▁pur	-10.78083
▁charges	-10.78102
sche	-10.78119
▁smile	-10.78147
▁festival	-10.78161
cho	-10.78167
▁£	-10.78194
cht	-10.78202
▁macht	-10.78202
▁Wasser	-10.78203
▁Cap	-10.78226
▁Learn	-10.78274
▁load	-10.78316
▁aici	-10.78323
▁Ch	-10.78414
▁cycle	-10.78422
▁carried	-10.78434
▁jusqu	-10.78452
stein	-10.78506
ski	-10.78513
cap	-10.78579
▁Bal	-10.78585
▁minor	-10.78605
77	-10.78618
▁considering	-10.78633
innen	-10.78645
▁greatest	-10.78706
▁Training	-10.78714
08	-10.78731
▁significantly	-10.78761
gé	-10.78773
▁dumpster	-10.78835
▁allem	-10.78893
▁bonus	-10.78894
▁guy	-10.78904
fel	-10.78905
▁lifestyle	-10.78924
▁Bro	-10.78961
▁implement	-10.78969
lock	-10.79005
▁Earth	-10.79014
kar	-10.79073
▁invest	-10.79083
▁river	-10.79093
▁accurate	-10.79149
▁mu	-10.79158
▁celebrate	-10.79212
▁ran	-10.79257
▁bigger	-10.79299
▁Mer	-10.79348
▁millions	-10.79349
▁partie	-10.79356
▁dazu	-10.79395
▁Full	-10.79413
gie	-10.79421
bot	-10.79437
roll	-10.79473
▁Women	-10.79530
▁compare	-10.79614
▁van	-10.79650
▁apps	-10.79652
PC	-10.79705
▁drei	-10.79736
▁maison	-10.79759
▁knows	-10.79771
rid	-10.79797
62	-10.79840
class	-10.79851
▁chez	-10.79867
char	-10.79883
88	-10.79899
▁cast	-10.79949
▁examples	-10.79973
▁Therefore	-10.79982
▁topics	-10.79994
with	-10.80014
▁Anti	-10.80056
how	-10.80062
▁whom	-10.80094
▁Deutschland	-10.80112
tine	-10.80114
▁CEO	-10.80122
▁truck	-10.80135
▁Which	-10.80157
erie	-10.80202
fect	-10.80207
bou	-10.80268
▁(1	-10.80282
sum	-10.80298
▁bonne	-10.80307
▁remaining	-10.80321
▁equal	-10.80354
▁engage	-10.80356
▁RE	-10.80385
style	-10.80418
▁urma	-10.80434
▁Grund	-10.80497
ür	-10.80512
▁font	-10.80535
▁assets	-10.80592
AL	-10.80610
▁rear	-10.80636
▁contemporary	-10.80647
▁occur	-10.80670
rated	-10.80694
▁tight	-10.80709
▁machines	-10.80792
▁0.	-10.80846
▁Aber	-10.80847
sol	-10.80852
rü	-10.80858
▁2007	-10.80948
gg	-10.80949
▁unul	-10.80969
▁était	-10.80991
▁capture	-10.80998
▁command	-10.81004
▁wire	-10.81043
▁shift	-10.81076
▁bread	-10.81084
▁causes	-10.81094
PI	-10.81094
SC	-10.81109
▁lights	-10.81119
▁lived	-10.81129
mul	-10.81145
▁Cur	-10.81192
▁Richard	-10.81197
37	-10.81264
▁cup	-10.81274
▁fields	-10.81298
▁crusher	-10.81339
65	-10.81377
avons	-10.81382
▁gear	-10.81384
▁standing	-10.81384
▁thick	-10.81445
aff	-10.81513
ments	-10.81543
▁conflict	-10.81573
ität	-10.81583
▁worse	-10.81630
SE	-10.81633
imi	-10.81646
▁dating	-10.81703
Do	-10.81707
▁flexible	-10.81709
ologie	-10.81713
SU	-10.81720
▁contribute	-10.81731
▁denn	-10.81743
▁appointment	-10.81747
▁ticket	-10.81752
bed	-10.81789
▁2019.	-10.81794
▁tasks	-10.81871
▁carbon	-10.81873
▁situations	-10.81940
MA	-10.81940
▁portion	-10.81950
▁urban	-10.81959
▁Canadian	-10.81981
▁Bur	-10.81994
▁pack	-10.81996
▁effet	-10.81999
▁Ball	-10.82008
▁timpul	-10.82014
▁owned	-10.82021
▁surprise	-10.82041
▁Mu	-10.82058
▁decades	-10.82100
▁affected	-10.82173
▁proven	-10.82173
▁Fe	-10.82199
zy	-10.82204
42	-10.82218
▁trend	-10.82239
▁autres	-10.82263
No	-10.82303
▁nine	-10.82357
ON	-10.82376
NE	-10.82395
oli	-10.82436
▁Daniel	-10.82443
▁spa	-10.82494
▁messages	-10.82508
PS	-10.82518
47	-10.82570
▁doch	-10.82603
▁improvement	-10.82619
▁mountain	-10.82635
▁Room	-10.82645
▁edition	-10.82655
▁musical	-10.82671
CP	-10.82702
▁Mill	-10.82703
▁steht	-10.82774
▁determined	-10.82808
you	-10.82839
weg	-10.82855
▁Digital	-10.82862
▁filter	-10.82890
▁youth	-10.82905
▁assessment	-10.82930
▁butter	-10.82937
▁Watch	-10.82943
▁zusammen	-10.82947
▁View	-10.82961
09	-10.82965
▁sole	-10.82982
.00	-10.83002
33	-10.83015
▁export	-10.83023
ery	-10.83037
▁zurück	-10.83043
▁walls	-10.83048
▁recognize	-10.83069
law	-10.83080
▁parent	-10.83086
ST	-10.83136
▁description	-10.83167
MS	-10.83189
SM	-10.83190
▁Finally	-10.83194
▁hardware	-10.83197
ident	-10.83246
▁brown	-10.83257
▁kinds	-10.83295
▁Arts	-10.83297
▁concert	-10.83341
▁sec	-10.83342
▁represent	-10.83351
▁institutions	-10.83360
▁fur	-10.83400
▁Support	-10.83403
87	-10.83408
▁ease	-10.83418
▁feels	-10.83422
▁sheet	-10.83434
▁Though	-10.83437
▁propose	-10.83438
▁personnel	-10.83441
bie	-10.83479
▁contest	-10.83484
▁successfully	-10.83515
▁direkt	-10.83540
bietet	-10.83560
▁submit	-10.83589
▁sicher	-10.83592
▁Personal	-10.83607
94	-10.83634
61	-10.83640
▁Very	-10.83654
bol	-10.83660
▁ha	-10.83709
▁channel	-10.83722
mut	-10.83729
▁mouth	-10.83734
▁vast	-10.83740
▁Ob	-10.83757
lit	-10.83763
▁poly	-10.83788
▁trained	-10.83810
▁specialist	-10.83812
UL	-10.83822
▁seiner	-10.83834
SS	-10.83863
▁vacation	-10.83867
▁resume	-10.83916
▁constantly	-10.83972
▁treated	-10.83987
▁150	-10.84094
▁native	-10.84125
▁Russian	-10.84133
▁patterns	-10.84137
▁knowing	-10.84167
▁Pan	-10.84168
peri	-10.84185
aci	-10.84186
▁answers	-10.84211
▁heute	-10.84299
93	-10.84306
▁Winter	-10.84408
▁yes	-10.84417
SP	-10.84419
].	-10.84439
▁kein	-10.84486
▁introduce	-10.84509
-4	-10.84555
▁shoot	-10.84576
AR	-10.84576
▁receiving	-10.84586
▁intre	-10.84702
▁appeared	-10.84708
▁brother	-10.84732
▁extend	-10.84777
▁fara	-10.84874
▁kommt	-10.84888
ali	-10.84891
▁numai	-10.84905
▁scientific	-10.84913
▁virtual	-10.84915
▁Ac	-10.84951
▁procedures	-10.84963
▁silver	-10.84982
▁leather	-10.84998
DA	-10.85015
▁executive	-10.85026
▁officials	-10.85050
▁agencies	-10.85050
▁Software	-10.85054
▁cor	-10.85069
Con	-10.85074
▁log	-10.85107
ț	-10.85115
02	-10.85120
▁7.	-10.85245
▁accepted	-10.85248
▁Berlin	-10.85254
ID	-10.85258
cot	-10.85279
▁employment	-10.85280
run	-10.85302
▁identified	-10.85318
96	-10.85389
▁déjà	-10.85394
▁cuisine	-10.85395
turi	-10.85407
▁Japanese	-10.85432
▁golf	-10.85451
▁Ki	-10.85479
▁carefully	-10.85486
▁remote	-10.85497
▁2018,	-10.85515
▁sus	-10.85515
tique	-10.85529
▁residential	-10.85570
97	-10.85581
▁Spring	-10.85591
▁Marketing	-10.85619
▁Control	-10.85631
var	-10.85634
▁historical	-10.85638
▁freedom	-10.85642
sure	-10.85643
▁broken	-10.85680
▁criminal	-10.85695
▁innovation	-10.85708
▁Italian	-10.85719
sper	-10.85728
▁cake	-10.85765
▁candidates	-10.85789
▁sizes	-10.85827
pel	-10.85837
▁frequently	-10.85890
▁planet	-10.85914
▁writer	-10.85952
1,	-10.85957
uvent	-10.85960
▁awareness	-10.85981
name	-10.85995
▁Children	-10.85998
▁relatively	-10.86031
▁pu	-10.86032
▁quiet	-10.86039
▁planned	-10.86072
▁election	-10.86142
▁6.	-10.86176
▁broad	-10.86177
▁skill	-10.86184
▁reasonable	-10.86204
▁Fort	-10.86228
▁aceea	-10.86241
▁arrived	-10.86263
▁payments	-10.86268
ack	-10.86270
▁Ort	-10.86335
▁investors	-10.86336
▁operate	-10.86351
ME	-10.86356
dic	-10.86368
▁foods	-10.86373
▁stick	-10.86383
▁agents	-10.86413
▁crowd	-10.86418
▁Students	-10.86448
▁concerned	-10.86461
test	-10.86474
▁designer	-10.86533
▁Conference	-10.86559
▁saving	-10.86611
▁recorded	-10.86642
▁proposed	-10.86656
▁ship	-10.86657
▁cred	-10.86727
▁Ci	-10.86744
RE	-10.86762
▁tradition	-10.86775
▁worldwide	-10.86778
64	-10.86794
▁television	-10.86799
▁projet	-10.86810
ency	-10.86849
▁struggle	-10.86851
▁twice	-10.86896
▁Off	-10.86923
▁begins	-10.86958
key	-10.86979
▁Table	-10.86996
▁demande	-10.87018
▁liquid	-10.87044
meter	-10.87068
▁2001	-10.87119
▁willing	-10.87166
▁medicine	-10.87171
▁expand	-10.87175
▁2004	-10.87180
▁2002	-10.87202
▁accord	-10.87229
▁Chris	-10.87245
▁prove	-10.87254
ston	-10.87274
mettre	-10.87280
▁moments	-10.87354
tik	-10.87368
such	-10.87406
2.	-10.87443
▁UN	-10.87456
▁jump	-10.87474
▁dish	-10.87539
▁Key	-10.87566
▁challenging	-10.87598
▁domestic	-10.87641
▁impressive	-10.87675
iger	-10.87702
▁Ram	-10.87716
▁doit	-10.87726
▁concrete	-10.87734
▁Unternehmen	-10.87740
▁LED	-10.87743
▁trouver	-10.87753
▁fundamental	-10.87788
▁implementation	-10.87812
85	-10.87825
▁hosting	-10.87856
▁Game	-10.87869
▁taught	-10.87898
tung	-10.87902
ront	-10.87941
▁shoes	-10.87964
79	-10.87976
▁stunning	-10.87978
▁Congress	-10.88014
▁Ent	-10.88028
▁Wer	-10.88061
▁alt	-10.88061
ör	-10.88070
▁calm	-10.88080
46	-10.88113
▁Daca	-10.88140
71	-10.88194
▁Dec	-10.88239
▁Fo	-10.88244
▁defense	-10.88313
▁expectations	-10.88317
▁Alle	-10.88319
▁brief	-10.88369
▁Hospital	-10.88398
▁sides	-10.88412
▁yellow	-10.88414
lei	-10.88452
▁speaking	-10.88459
▁crucial	-10.88520
▁Town	-10.88543
▁married	-10.88557
▁acesta	-10.88558
▁noted	-10.88561
▁Word	-10.88566
▁conducted	-10.88596
▁decor	-10.88625
kon	-10.88657
▁supplies	-10.88666
▁adventure	-10.88669
▁exhibition	-10.88716
heit	-10.88730
▁36	-10.88745
eria	-10.88751
ines	-10.88755
ological	-10.88758
quel	-10.88806
▁Van	-10.88826
-19	-10.88854
2,	-10.88857
▁Band	-10.88899
▁soil	-10.88918
▁Tim	-10.88960
▁NOT	-10.88969
▁pilot	-10.88975
▁Sh	-10.88977
Ho	-10.89036
CA	-10.89051
▁Eu	-10.89075
▁committee	-10.89083
▁Store	-10.89108
▁joint	-10.89112
▁Op	-10.89132
▁Jack	-10.89199
quality	-10.89216
▁Has	-10.89249
▁wenig	-10.89251
hood	-10.89255
▁Class	-10.89258
rus	-10.89277
▁grown	-10.89295
▁About	-10.89352
▁sum	-10.89394
▁Fair	-10.89395
SA	-10.89415
92	-10.89419
▁fourth	-10.89435
▁featured	-10.89438
▁Pen	-10.89445
▁natürlich	-10.89489
ched	-10.89490
▁ban	-10.89511
anne	-10.89523
▁theory	-10.89541
bin	-10.89544
iers	-10.89582
▁strategic	-10.89590
▁jours	-10.89596
▁communicate	-10.89612
▁pin	-10.89632
▁Bon	-10.89721
kom	-10.89729
-5	-10.89818
▁degrees	-10.89864
▁entertainment	-10.89901
ară	-10.89925
ales	-10.89943
▁pendant	-10.89955
▁Series	-10.89958
▁holds	-10.89959
▁Mini	-10.89983
▁Obama	-10.89990
▁conform	-10.90016
-10	-10.90022
▁preparation	-10.90094
▁autre	-10.90105
▁mortgage	-10.90116
▁Kan	-10.90151
▁typical	-10.90154
01	-10.90171
▁Review	-10.90186
▁laptop	-10.90213
CR	-10.90261
▁thread	-10.90266
BS	-10.90266
▁upper	-10.90270
▁searching	-10.90293
▁pen	-10.90321
▁Middle	-10.90333
73	-10.90336
▁leg	-10.90365
onic	-10.90427
IS	-10.90436
▁Kar	-10.90462
anz	-10.90466
▁circuit	-10.90490
▁Casino	-10.90538
07	-10.90585
▁petit	-10.90591
TV	-10.90598
level	-10.90631
▁Point	-10.90631
rau	-10.90647
▁cabinet	-10.90699
▁failed	-10.90704
▁stated	-10.90713
LA	-10.90746
▁privacy	-10.90760
vol	-10.90790
ativ	-10.90815
▁matters	-10.90821
▁Mor	-10.90856
▁Ur	-10.90861
view	-10.90897
▁consultation	-10.90922
TS	-10.90930
▁apartment	-10.90941
▁integrated	-10.90943
74	-10.90967
▁Through	-10.90971
▁kick	-10.90980
▁perioada	-10.90994
▁entirely	-10.90995
▁impossible	-10.91016
▁consideration	-10.91027
▁Alt	-10.91055
▁Come	-10.91109
▁outstanding	-10.91128
83	-10.91173
▁prezent	-10.91186
▁Local	-10.91199
▁Camp	-10.91206
▁bear	-10.91207
enden	-10.91226
life	-10.91237
▁Haus	-10.91252
▁William	-10.91264
“,	-10.91267
▁Instagram	-10.91286
▁solve	-10.91320
▁Ze	-10.91343
▁everyday	-10.91357
bla	-10.91362
eng	-10.91366
ough	-10.91425
84	-10.91448
?"	-10.91460
rely	-10.91477
TH	-10.91484
lang	-10.91511
82	-10.91582
▁removal	-10.91590
ală	-10.91596
▁circumstances	-10.91610
ente	-10.91622
▁lieu	-10.91645
▁2016.	-10.91710
▁ales	-10.91734
▁pure	-10.91748
▁choosing	-10.91759
▁Russia	-10.91770
amp	-10.91770
▁Santa	-10.91788
▁happening	-10.91820
▁crew	-10.91822
▁lei	-10.91855
IP	-10.91858
RO	-10.91943
▁resort	-10.91951
ened	-10.91969
MB	-10.92003
▁styles	-10.92005
▁dernier	-10.92053
uck	-10.92070
▁Guide	-10.92071
fic	-10.92097
▁fitness	-10.92198
▁healthcare	-10.92223
mol	-10.92238
▁vis	-10.92272
▁atmosphere	-10.92297
▁motion	-10.92299
▁closer	-10.92311
▁SA	-10.92335
▁default	-10.92337
▁architecture	-10.92347
iile	-10.92353
zel	-10.92368
cla	-10.92388
OP	-10.92438
▁west	-10.92497
▁Energy	-10.92561
▁positions	-10.92578
▁contrast	-10.92589
▁serves	-10.92606
cup	-10.92634
▁rose	-10.92649
pers	-10.92665
▁noise	-10.92685
mont	-10.92691
#	-10.92706
lies	-10.92733
pat	-10.92772
IC	-10.92796
arc	-10.92799
▁winner	-10.92852
tent	-10.92873
▁Preis	-10.92911
▁vin	-10.92925
blo	-10.92929
ție	-10.92952
▁OR	-10.93032
▁Buch	-10.93080
▁nearby	-10.93119
▁meetings	-10.93129
▁48	-10.93147
▁quand	-10.93153
▁usual	-10.93194
▁weitere	-10.93254
▁caught	-10.93257
▁issued	-10.93263
ști	-10.93290
upcoming	-10.93323
▁agreed	-10.93323
place	-10.93335
▁Brand	-10.93344
▁relation	-10.93397
▁atât	-10.93409
▁Tre	-10.93418
▁lors	-10.93444
▁adopt	-10.93445
▁celui	-10.93458
cken	-10.93506
▁partnership	-10.93528
?”	-10.93538
▁ba	-10.93575
▁ID	-10.93583
▁consistent	-10.93584
▁Ya	-10.93594
▁Academy	-10.93618
cial	-10.93623
1%	-10.93637
▁mise	-10.93668
▁gute	-10.93673
gli	-10.93694
▁Bu	-10.93768
▁reduction	-10.93792
acy	-10.93813
aga	-10.93816
▁Sc	-10.93827
▁Informationen	-10.93831
▁kommen	-10.93835
press	-10.93838
▁bridge	-10.93838
▁qualified	-10.93867
position	-10.93882
▁combat	-10.93893
!"	-10.93899
eva	-10.93922
oase	-10.93938
▁inner	-10.93941
▁loans	-10.93972
made	-10.93979
▁Mexico	-10.93993
▁formal	-10.94009
▁fell	-10.94022
91	-10.94052
▁campus	-10.94073
ienne	-10.94087
▁framework	-10.94105
ncing	-10.94116
▁Para	-10.94122
▁password	-10.94130
▁sei	-10.94142
▁Cross	-10.94153
▁Ten	-10.94187
bank	-10.94189
▁gun	-10.94200
ient	-10.94202
▁usage	-10.94218
▁(2	-10.94228
Gra	-10.94232
▁prea	-10.94253
▁Als	-10.94262
▁finance	-10.94264
tate	-10.94267
ition	-10.94270
▁regulations	-10.94274
▁Professional	-10.94300
▁pl	-10.94337
▁SEO	-10.94347
▁trecut	-10.94349
▁aller	-10.94351
▁violence	-10.94399
▁membership	-10.94412
▁picked	-10.94416
▁collected	-10.94434
▁extended	-10.94445
▁religious	-10.94466
▁salle	-10.94477
RA	-10.94478
▁blend	-10.94523
▁Min	-10.94532
kal	-10.94589
▁featuring	-10.94590
▁researchers	-10.94626
▁Search	-10.94656
CE	-10.94668
▁recognized	-10.94683
▁semi	-10.94693
▁exposure	-10.94718
grew	-10.94747
▁candidate	-10.94825
▁shares	-10.94891
▁edit	-10.94975
CS	-10.94991
▁Cl	-10.95024
▁Enjoy	-10.95144
▁hurt	-10.95148
▁bottle	-10.95159
▁Buy	-10.95160
▁superior	-10.95229
▁missed	-10.95242
▁workshop	-10.95243
action	-10.95244
ple	-10.95270
▁Schul	-10.95281
▁houses	-10.95308
▁2017,	-10.95357
▁killed	-10.95375
▁calendar	-10.95431
▁Mike	-10.95460
FA	-10.95463
nut	-10.95487
▁establish	-10.95514
▁alcohol	-10.95515
▁closely	-10.95517
▁MA	-10.95538
pul	-10.95539
▁defined	-10.95567
aires	-10.95569
▁Shi	-10.95570
▁plays	-10.95630
▁sister	-10.95691
▁cable	-10.95718
▁desk	-10.95722
▁apoi	-10.95774
▁identity	-10.95785
▁stars	-10.95793
▁fata	-10.95801
▁obvious	-10.95833
▁dental	-10.95844
AM	-10.95880
▁sharp	-10.95881
duc	-10.95905
▁manufacturer	-10.95914
!)	-10.95927
▁objects	-10.95972
▁Ag	-10.95999
referred	-10.96020
▁Ak	-10.96031
burg	-10.96036
▁nouveau	-10.96085
▁Pal	-10.96099
▁Arbeits	-10.96128
▁personally	-10.96129
▁Dé	-10.96129
▁import	-10.96169
▁justice	-10.96191
▁photography	-10.96271
▁portfolio	-10.96284
56	-10.96315
▁nouvelle	-10.96329
▁oven	-10.96420
▁400	-10.96427
▁mixed	-10.96440
▁relax	-10.96443
▁imp	-10.96470
▁».	-10.96473
▁mail	-10.96478
rage	-10.96486
nos	-10.96497
▁drugs	-10.96520
▁jede	-10.96521
▁einige	-10.96523
▁8.	-10.96533
ters	-10.96541
▁electrical	-10.96543
▁puis	-10.96584
▁films	-10.96590
41	-10.96604
▁moral	-10.96640
lage	-10.96640
▁spaces	-10.96642
▁Ed	-10.96646
▁classroom	-10.96659
▁große	-10.96659
▁baza	-10.96689
face	-10.96731
▁informed	-10.96733
▁improving	-10.96748
▁guidance	-10.96788
▁gallery	-10.96801
cular	-10.96805
53	-10.96809
Despite	-10.96824
▁forme	-10.96830
▁système	-10.96842
▁Win	-10.96849
▁Small	-10.96854
▁Mobile	-10.96856
▁tape	-10.96861
▁erhalten	-10.96891
▁movies	-10.96893
▁Unfortunately	-10.96896
▁Looking	-10.96946
▁guard	-10.96958
▁pr	-10.96982
▁confident	-10.96989
BA	-10.97023
bas	-10.97027
hum	-10.97051
ular	-10.97052
▁Still	-10.97059
▁flavor	-10.97066
▁boost	-10.97077
▁division	-10.97084
ising	-10.97101
▁monitoring	-10.97104
▁Sen	-10.97106
▁https	-10.97153
mainly	-10.97174
play	-10.97225
▁dynamic	-10.97236
▁coup	-10.97237
▁carpet	-10.97256
iner	-10.97285
ral	-10.97326
iser	-10.97332
RC	-10.97400
▁definition	-10.97476
▁Za	-10.97477
friendly	-10.97488
43	-10.97512
link	-10.97518
▁Multi	-10.97519
▁einmal	-10.97527
▁stopped	-10.97539
vel	-10.97546
▁ongoing	-10.97557
▁ancient	-10.97626
take	-10.97630
cia	-10.97643
▁USB	-10.97655
▁attorney	-10.97687
▁slot	-10.97687
▁Line	-10.97693
rice	-10.97709
ify	-10.97752
ó	-10.97826
▁flash	-10.97848
▁extension	-10.97856
▁Ende	-10.97902
▁powder	-10.97911
ească	-10.97914
03	-10.97933
▁normally	-10.97942
▁pun	-10.98011
viewed	-10.98014
ssen	-10.98090
ache	-10.98112
ește	-10.98123
▁PA	-10.98127
FI	-10.98195
▁Frank	-10.98198
▁apa	-10.98242
▁coast	-10.98261
▁boy	-10.98267
lim	-10.98290
▁putin	-10.98319
▁script	-10.98333
▁noticed	-10.98370
▁dealing	-10.98392
▁Trans	-10.98410
▁border	-10.98445
▁reputation	-10.98466
-2	-10.98466
HS	-10.98471
▁supports	-10.98472
▁horse	-10.98515
nik	-10.98521
▁clothes	-10.98523
▁Card	-10.98561
▁relief	-10.98596
▁Visit	-10.98626
▁luni	-10.98659
81	-10.98669
qua	-10.98695
▁Comp	-10.98697
▁investigation	-10.98714
▁depth	-10.98760
▁earned	-10.98771
▁Ren	-10.98809
▁Dumnezeu	-10.98811
▁Joe	-10.98821
▁goods	-10.98829
▁Vol	-10.98869
▁certified	-10.98912
▁favor	-10.98933
▁Scott	-10.98960
▁protest	-10.98980
▁pace	-10.98980
▁Angeles	-10.99037
inch	-10.99051
▁charged	-10.99053
code	-10.99097
▁convenient	-10.99138
▁Nord	-10.99156
▁yesterday	-10.99169
Dacă	-10.99170
▁Travel	-10.99179
▁kid	-10.99194
ction	-10.99199
▁groupe	-10.99277
pu	-10.99306
bzw	-10.99320
▁mixture	-10.99351
▁Farm	-10.99372
▁acces	-10.99394
matic	-10.99395
▁comparison	-10.99401
reich	-10.99410
pet	-10.99450
▁lit	-10.99469
▁organized	-10.99476
just	-10.99556
▁fellow	-10.99600
Ver	-10.99621
▁trends	-10.99623
▁evaluation	-10.99627
feld	-10.99640
▁Pu	-10.99671
▁equipped	-10.99728
▁catre	-10.99728
eck	-10.99737
▁facing	-10.99800
▁instrument	-10.99836
▁pleased	-10.99851
▁tap	-10.99882
dom	-10.99883
▁pump	-10.99938
▁functional	-10.99943
▁authority	-10.99946
▁experiment	-10.99948
LO	-10.99953
▁scheduled	-10.99955
halt	-10.99960
▁ceiling	-10.99976
▁Step	-11.00031
▁orders	-11.00033
▁speech	-11.00105
▁stands	-11.00112
▁disc	-11.00192
▁rec	-11.00194
▁Text	-11.00244
▁banks	-11.00294
▁oameni	-11.00305
▁communications	-11.00319
trag	-11.00331
▁trail	-11.00380
AN	-11.00426
▁Federal	-11.00447
▁quote	-11.00455
▁spus	-11.00462
▁managing	-11.00499
▁booking	-11.00505
▁Blog	-11.00567
▁tank	-11.00568
pon	-11.00580
GE	-11.00582
▁fiscal	-11.00587
▁satisfaction	-11.00604
cre	-11.00614
▁protected	-11.00649
▁enfants	-11.00678
▁dort	-11.00755
▁Mel	-11.00804
▁turns	-11.00805
▁savings	-11.00811
▁voir	-11.00836
▁Boston	-11.00839
▁debate	-11.00847
▁SO	-11.00886
▁tables	-11.00919
▁honest	-11.00921
mate	-11.00928
▁chart	-11.00946
decât	-11.00968
▁Radio	-11.00969
54	-11.00986
▁vol	-11.01001
last	-11.01015
▁tall	-11.01041
▁Should	-11.01049
▁sink	-11.01053
▁Right	-11.01053
▁male	-11.01072
▁Modern	-11.01075
▁indeed	-11.01089
▁Garden	-11.01114
▁Mod	-11.01131
▁turning	-11.01153
▁inches	-11.01156
▁Police	-11.01184
▁Pay	-11.01202
UE	-11.01264
mé	-11.01265
EE	-11.01305
▁cookies	-11.01312
rip	-11.01335
▁Motor	-11.01352
▁lung	-11.01380
▁Ap	-11.01400
▁sustainable	-11.01407
▁instant	-11.01424
▁Rose	-11.01446
▁Carolina	-11.01491
▁Help	-11.01497
IE	-11.01536
▁Jersey	-11.01552
▁Spanish	-11.01559
▁wheel	-11.01566
▁fishing	-11.01581
gram	-11.01594
▁ST	-11.01623
▁Nov	-11.01632
▁reporting	-11.01636
ked	-11.01647
▁Leben	-11.01656
▁organisation	-11.01684
▁tiny	-11.01714
▁Alex	-11.01724
▁obtained	-11.01726
▁Acest	-11.01737
▁dangerous	-11.01749
utter	-11.01762
▁rev	-11.01802
Un	-11.01824
▁revealed	-11.01836
▁decade	-11.01871
▁possibility	-11.01946
service	-11.01958
è	-11.01967
▁Chief	-11.01967
▁Durch	-11.01980
▁cadre	-11.01984
▁wearing	-11.01985
sized	-11.01988
LY	-11.01989
▁unser	-11.01996
▁2016,	-11.01999
▁fail	-11.02003
iques	-11.02012
▁Angel	-11.02032
▁transportation	-11.02036
▁dates	-11.02040
▁danger	-11.02073
▁forum	-11.02083
zug	-11.02089
▁filed	-11.02120
loc	-11.02120
éri	-11.02123
tribu	-11.02139
▁entered	-11.02164
▁porte	-11.02193
▁arts	-11.02198
▁reform	-11.02200
▁Main	-11.02210
▁dir	-11.02211
▁approval	-11.02247
▁juice	-11.02275
vier	-11.02277
▁nivel	-11.02318
▁returns	-11.02342
▁formed	-11.02372
▁combine	-11.02436
▁cours	-11.02439
▁Standard	-11.02446
▁certification	-11.02468
escu	-11.02500
▁achieved	-11.02528
▁Model	-11.02528
rul	-11.02540
▁Tage	-11.02553
▁injuries	-11.02561
▁Sal	-11.02567
▁expenses	-11.02589
▁cet	-11.02601
▁taxes	-11.02603
diesen	-11.02627
▁fairly	-11.02664
▁Access	-11.02687
wind	-11.02712
IM	-11.02725
ense	-11.02755
▁hang	-11.02796
▁citizens	-11.02802
3%	-11.02810
lum	-11.02827
▁discussed	-11.02833
AC	-11.02842
‘	-11.02869
▁Sol	-11.02870
06	-11.02882
stellen	-11.02917
▁participation	-11.02917
▁Box	-11.02920
▁bieten	-11.02969
▁Louis	-11.02973
▁lessons	-11.02979
▁visible	-11.02997
▁Cam	-11.03013
▁Ban	-11.03053
▁Far	-11.03060
▁travers	-11.03076
▁telling	-11.03081
▁magic	-11.03086
▁Night	-11.03132
▁judge	-11.03140
▁Pat	-11.03148
▁Southern	-11.03190
OL	-11.03193
fully	-11.03219
▁acestea	-11.03224
▁Order	-11.03238
▁facut	-11.03252
▁Matt	-11.03260
registr	-11.03279
▁Yet	-11.03281
ß	-11.03360
▁făcut	-11.03362
▁versions	-11.03378
▁Force	-11.03396
rick	-11.03415
▁rund	-11.03456
ike	-11.03466
▁Young	-11.03468
▁ski	-11.03493
CU	-11.03539
▁Second	-11.03551
▁graduate	-11.03555
▁Bible	-11.03605
▁vary	-11.03606
▁celebration	-11.03615
▁risks	-11.03621
erii	-11.03633
rance	-11.03658
▁MP	-11.03679
▁tale	-11.03679
▁Ford	-11.03704
▁attached	-11.03728
▁Sy	-11.03731
▁Ly	-11.03766
stellung	-11.03769
▁trop	-11.03772
▁années	-11.03774
▁linked	-11.03793
pit	-11.03835
So	-11.03835
ţe	-11.03847
▁origin	-11.03851
▁boys	-11.03926
holder	-11.03935
read	-11.03946
▁relative	-11.03950
▁industries	-11.03959
making	-11.03969
▁tun	-11.03992
▁forced	-11.04106
▁Welcome	-11.04109
▁explained	-11.04114
MP	-11.04139
▁Three	-11.04161
aza	-11.04177
▁1999	-11.04192
▁erst	-11.04224
RS	-11.04262
▁attractive	-11.04280
▁visited	-11.04281
▁nom	-11.04287
▁drum	-11.04293
cast	-11.04307
ogen	-11.04311
▁tech	-11.04360
▁Comment	-11.04366
▁Little	-11.04406
▁suggested	-11.04409
▁gar	-11.04421
▁crack	-11.04459
▁shooting	-11.04468
▁Try	-11.04476
▁Remember	-11.04501
▁folks	-11.04522
▁MS	-11.04551
▁Dia	-11.04585
3)	-11.04656
arbeit	-11.04697
▁pepper	-11.04707
zz	-11.04711
▁extreme	-11.04724
▁extrem	-11.04737
▁severe	-11.04777
▁networks	-11.04788
păr	-11.04791
sent	-11.04793
▁structures	-11.04805
▁Join	-11.04808
▁privind	-11.04826
▁marriage	-11.04866
▁liegt	-11.04892
eben	-11.04900
▁produse	-11.04908
▁tested	-11.04909
▁Queen	-11.04913
▁Tax	-11.04969
rian	-11.04971
▁Problem	-11.05015
izat	-11.05023
udi	-11.05032
▁LA	-11.05072
▁afford	-11.05111
▁percentage	-11.05122
▁cute	-11.05155
▁gorgeous	-11.05189
▁indoor	-11.05190
▁configuration	-11.05210
▁immediate	-11.05230
▁exemple	-11.05245
▁Being	-11.05255
▁introduction	-11.05259
ella	-11.05321
bare	-11.05352
▁besser	-11.05354
▁Put	-11.05374
gon	-11.05425
▁Italy	-11.05426
▁Thus	-11.05436
tari	-11.05444
0.000	-11.05446
▁Price	-11.05465
▁Trust	-11.05482
▁contra	-11.05486
▁layout	-11.05504
▁Ireland	-11.05519
ctor	-11.05534
atoare	-11.05554
pra	-11.05573
rent	-11.05589
▁Seite	-11.05605
▁ori	-11.05628
spiel	-11.05654
▁Times	-11.05688
primarily	-11.05697
nov	-11.05703
▁desired	-11.05706
▁Would	-11.05707
PL	-11.05723
▁originally	-11.05737
▁Ana	-11.05746
EN	-11.05755
▁occasion	-11.05756
▁grant	-11.05757
igkeit	-11.05798
▁scheme	-11.05815
▁2015.	-11.05862
izare	-11.05878
gate	-11.05879
▁poker	-11.05890
pping	-11.05900
▁Wild	-11.05951
▁YouTube	-11.06000
▁assume	-11.06028
с	-11.06061
▁rapport	-11.06062
▁labor	-11.06100
teur	-11.06104
▁genre	-11.06116
▁plat	-11.06175
▁listening	-11.06175
sky	-11.06178
▁neighborhood	-11.06178
▁3-	-11.06215
▁Library	-11.06216
agit	-11.06225
▁platforms	-11.06285
bei	-11.06288
AB	-11.06290
▁manufacturers	-11.06295
▁printing	-11.06314
▁crisis	-11.06333
▁Smart	-11.06335
▁drawing	-11.06341
MO	-11.06349
▁durable	-11.06357
chant	-11.06366
▁chemical	-11.06376
▁savoir	-11.06378
▁Max	-11.06380
gestellt	-11.06381
▁rural	-11.06385
52	-11.06411
▁invited	-11.06417
▁fil	-11.06427
▁Rob	-11.06428
▁Bell	-11.06439
▁neck	-11.06483
pac	-11.06488
wal	-11.06491
▁là	-11.06492
▁Virginia	-11.06508
▁applicable	-11.06509
▁abuse	-11.06515
aide	-11.06532
▁increases	-11.06540
▁moi	-11.06557
▁Non	-11.06558
▁Produkt	-11.06563
FC	-11.06564
▁shops	-11.06568
▁prendre	-11.06592
atul	-11.06599
▁sal	-11.06614
▁société	-11.06627
▁Hot	-11.06633
rim	-11.06659
gue	-11.06662
▁enterprise	-11.06662
▁33	-11.06733
mittel	-11.06740
ged	-11.06744
▁formula	-11.06777
▁spin	-11.06778
als	-11.06783
2%	-11.06786
bon	-11.06819
▁Executive	-11.06832
▁wirklich	-11.06843
îl	-11.06861
1.	-11.06892
▁Arm	-11.06916
▁rid	-11.06936
aries	-11.06973
▁incident	-11.06982
▁copii	-11.07001
▁Charles	-11.07014
▁meals	-11.07015
▁wireless	-11.07024
Ex	-11.07036
▁Financial	-11.07054
▁AM	-11.07062
▁fest	-11.07065
▁Ol	-11.07141
oir	-11.07145
300	-11.07189
▁punct	-11.07214
▁Mad	-11.07284
▁Ali	-11.07291
lag	-11.07321
▁ocean	-11.07331
▁mirror	-11.07333
▁Additionally	-11.07387
alia	-11.07388
▁county	-11.07390
▁hip	-11.07431
dale	-11.07440
▁Stra	-11.07443
▁drag	-11.07458
▁Sand	-11.07485
▁historic	-11.07498
ière	-11.07543
▁examine	-11.07562
soci	-11.07563
ime	-11.07609
▁Insurance	-11.07622
▁crime	-11.07674
▁pare	-11.07695
▁craft	-11.07711
▁Building	-11.07728
mission	-11.07753
▁Americans	-11.07757
▁mg	-11.07780
▁passage	-11.07794
▁deposit	-11.07835
▁widely	-11.07844
nch	-11.07845
▁Coast	-11.07876
▁recipes	-11.07878
▁Ziel	-11.07952
▁duty	-11.07965
▁gerne	-11.07970
most	-11.08003
▁argument	-11.08016
▁root	-11.08021
▁consult	-11.08025
▁muscle	-11.08026
▁spoke	-11.08038
▁Cum	-11.08095
▁orange	-11.08103
▁reader	-11.08112
schw	-11.08115
▁commission	-11.08133
histoire	-11.08181
▁represents	-11.08206
▁meilleur	-11.08234
▁10.	-11.08236
HA	-11.08243
▁Systems	-11.08257
▁blind	-11.08260
▁HP	-11.08322
▁doi	-11.08331
▁signature	-11.08340
▁invite	-11.08351
▁Samsung	-11.08380
▁liber	-11.08394
▁letters	-11.08405
▁primul	-11.08419
▁losing	-11.08433
resulting	-11.08447
▁Computer	-11.08474
▁poll	-11.08477
rile	-11.08510
TI	-11.08514
▁cur	-11.08567
▁fonction	-11.08583
gat	-11.08636
AA	-11.08648
tiv	-11.08669
▁Str	-11.08708
ești	-11.08768
▁officer	-11.08770
reducing	-11.08772
▁gifts	-11.08780
▁performing	-11.08789
▁»,	-11.08835
▁guitar	-11.08839
▁segment	-11.08858
▁Tar	-11.08861
▁ultimately	-11.08881
▁cam	-11.08896
▁Arbeit	-11.08908
▁accessories	-11.08942
bad	-11.08982
home	-11.08990
▁clip	-11.08996
range	-11.09043
CM	-11.09087
▁printed	-11.09088
▁Pet	-11.09118
▁attract	-11.09133
date	-11.09150
▁Senior	-11.09150
▁genau	-11.09218
num	-11.09244
▁attended	-11.09267
▁Turn	-11.09282
▁History	-11.09283
some	-11.09285
▁describe	-11.09309
▁Lee	-11.09314
▁Fre	-11.09331
▁league	-11.09335
new	-11.09351
tors	-11.09354
▁storm	-11.09401
▁Beispiel	-11.09420
▁index	-11.09434
▁awarded	-11.09461
state	-11.09463
▁1990	-11.09487
▁ends	-11.09490
kor	-11.09507
far	-11.09542
▁Page	-11.09554
▁promotion	-11.09561
▁weekly	-11.09573
400	-11.09597
iuni	-11.09637
▁Summer	-11.09638
▁thin	-11.09663
▁dafür	-11.09669
51	-11.09677
PR	-11.09698
▁Hy	-11.09700
gas	-11.09701
▁atat	-11.09717
▁mining	-11.09735
▁principles	-11.09741
gent	-11.09755
ika	-11.09769
▁religion	-11.09779
▁ordered	-11.09828
▁developers	-11.09830
▁pleasure	-11.09846
vit	-11.09851
mers	-11.09881
▁Section	-11.09887
▁por	-11.09896
▁Name	-11.09920
▁pink	-11.09926
dig	-11.09934
▁eligible	-11.09940
▁Happy	-11.09942
▁fo	-11.09948
▁availability	-11.09954
GO	-11.09958
▁Europa	-11.09964
▁Unit	-11.09966
▁1000	-11.09984
▁Berg	-11.09985
fini	-11.09985
▁$3	-11.10057
iza	-11.10075
▁promo	-11.10083
▁Low	-11.10123
abord	-11.10133
äh	-11.10149
▁Professor	-11.10157
▁array	-11.10158
▁hate	-11.10159
▁recording	-11.10160
RI	-11.10165
▁proof	-11.10171
lay	-11.10186
DE	-11.10201
▁surprised	-11.10207
▁boxes	-11.10219
▁noastre	-11.10239
zie	-11.10239
▁însă	-11.10254
▁ajuta	-11.10278
▁weil	-11.10284
▁whenever	-11.10303
shi	-11.10319
satz	-11.10361
▁remind	-11.10402
▁consist	-11.10412
▁motiv	-11.10424
▁PS	-11.10431
▁trois	-11.10454
pad	-11.10477
▁besten	-11.10490
▁Stone	-11.10514
itz	-11.10516
fit	-11.10516
▁Mountain	-11.10518
OC	-11.10519
▁depends	-11.10523
▁Cover	-11.10539
▁bags	-11.10606
▁Bel	-11.10620
▁Engineering	-11.10630
▁flower	-11.10665
▁gratuit	-11.10667
▁smartphone	-11.10678
stan	-11.10720
spect	-11.10726
SL	-11.10728
sho	-11.10739
▁Ser	-11.10791
▁Perhaps	-11.10825
▁codes	-11.10834
▁Wind	-11.10850
aient	-11.10876
▁Prin	-11.10880
▁(1)	-11.10909
▁figures	-11.10945
▁ausge	-11.10973
▁episode	-11.11005
▁Spa	-11.11037
▁Silver	-11.11039
▁Sky	-11.11040
▁capabilities	-11.11072
▁Uni	-11.11073
▁încă	-11.11088
TO	-11.11129
▁Hal	-11.11136
ghi	-11.11141
▁sofa	-11.11144
hard	-11.11150
▁FOR	-11.11159
▁Ber	-11.11182
▁firms	-11.11188
▁memories	-11.11188
▁lift	-11.11215
▁sending	-11.11215
▁narrow	-11.11265
▁Steve	-11.11278
▁integration	-11.11291
known	-11.11312
▁nostru	-11.11324
iţi	-11.11342
▁Georgia	-11.11376
▁slowly	-11.11403
iere	-11.11403
aka	-11.11426
PE	-11.11432
▁venue	-11.11469
jar	-11.11475
buch	-11.11476
rad	-11.11486
▁resistance	-11.11490
▁stehen	-11.11491
chin	-11.11504
▁weak	-11.11535
▁DVD	-11.11560
▁bodies	-11.11586
▁split	-11.11588
What	-11.11623
setzen	-11.11647
▁loves	-11.11656
▁kleine	-11.11708
▁increasingly	-11.11747
▁alert	-11.11758
▁AC	-11.11765
▁partir	-11.11797
▁ratio	-11.11808
▁keeps	-11.11854
▁Area	-11.11854
▁données	-11.11907
▁flag	-11.11925
▁NO	-11.11928
▁hotels	-11.11934
▁debut	-11.11937
▁suffer	-11.11937
▁hidden	-11.11981
▁clothing	-11.12007
▁household	-11.12024
medi	-11.12027
▁reste	-11.12027
bro	-11.12038
▁Bus	-11.12041
▁Ken	-11.12057
IR	-11.12076
▁suffering	-11.12121
▁publication	-11.12125
▁Mat	-11.12136
▁impression	-11.12151
▁founded	-11.12156
▁stable	-11.12157
▁promise	-11.12172
▁Cloud	-11.12177
▁prison	-11.12210
cor	-11.12236
▁Sports	-11.12272
▁erste	-11.12275
shire	-11.12276
▁recommendations	-11.12292
▁permit	-11.12310
▁tomorrow	-11.12313
▁lucky	-11.12342
▁realized	-11.12345
▁famille	-11.12347
▁Zealand	-11.12354
▁wooden	-11.12360
▁east	-11.12427
▁Bereich	-11.12458
während	-11.12465
rite	-11.12484
▁fla	-11.12490
platz	-11.12499
▁zero	-11.12529
▁priority	-11.12536
▁Airport	-11.12551
▁Kauf	-11.12559
▁ultimate	-11.12601
▁chest	-11.12618
▁tone	-11.12638
▁Kal	-11.12643
▁supposed	-11.12670
▁vedere	-11.12685
▁50%	-11.12687
▁Ger	-11.12779
pack	-11.12785
▁priv	-11.12824
▁Kit	-11.12826
▁tent	-11.12846
▁guidelines	-11.12846
▁Republic	-11.12882
including	-11.12924
▁chief	-11.12962
▁Living	-11.12977
keit	-11.12982
▁convert	-11.12983
tail	-11.12993
orient	-11.12996
eigenen	-11.13025
▁soup	-11.13059
▁zona	-11.13066
▁composition	-11.13069
▁Bob	-11.13083
▁exception	-11.13117
▁cr	-11.13129
▁str	-11.13148
▁Fl	-11.13179
AT	-11.13191
kel	-11.13200
▁pricing	-11.13219
▁Mass	-11.13226
vir	-11.13233
leg	-11.13245
▁rating	-11.13246
▁Sale	-11.13263
▁somewhere	-11.13287
▁submitted	-11.13308
▁Pop	-11.13330
▁papers	-11.13330
▁authorities	-11.13333
▁Person	-11.13338
▁kill	-11.13351
▁suggestions	-11.13355
-6	-11.13364
▁dust	-11.13375
taire	-11.13381
▁recognition	-11.13387
3.	-11.13405
▁Mont	-11.13423
▁produit	-11.13430
▁transmission	-11.13434
▁Th	-11.13476
▁passing	-11.13493
▁Partner	-11.13516
▁dire	-11.13521
▁DC	-11.13543
▁sky	-11.13566
▁Kitchen	-11.13589
▁fluid	-11.13593
▁scored	-11.13601
▁chapter	-11.13610
If	-11.13623
letzten	-11.13628
▁officers	-11.13641
▁avem	-11.13663
ister	-11.13667
▁involves	-11.13669
ico	-11.13690
bur	-11.13706
▁mieux	-11.13706
▁Photo	-11.13714
▁Cro	-11.13723
▁professor	-11.13725
▁besonders	-11.13731
д	-11.13737
▁alongside	-11.13738
▁stored	-11.13771
▁activ	-11.13785
▁setup	-11.13817
▁extract	-11.13863
▁accent	-11.13863
▁replaced	-11.13864
tec	-11.13880
▁Natur	-11.13885
▁Pacific	-11.13889
▁NY	-11.13949
▁Capital	-11.13958
▁forest	-11.13970
incredibly	-11.14006
▁choix	-11.14021
▁seriously	-11.14028
▁konnte	-11.14031
▁2014.	-11.14044
ensuring	-11.14053
▁handling	-11.14066
▁9.	-11.14072
▁relations	-11.14088
▁Kom	-11.14105
▁Hol	-11.14128
▁none	-11.14152
rob	-11.14172
▁Forum	-11.14176
hour	-11.14178
ème	-11.14181
▁Space	-11.14199
▁Ham	-11.14299
rap	-11.14317
▁Michigan	-11.14318
km	-11.14320
▁utilize	-11.14355
lov	-11.14378
▁luck	-11.14439
lä	-11.14482
▁healing	-11.14501
▁neu	-11.14518
aging	-11.14525
▁compliance	-11.14558
▁vertical	-11.14568
▁FREE	-11.14573
▁differences	-11.14601
▁Server	-11.14625
▁estimated	-11.14638
schutz	-11.14669
▁notamment	-11.14674
▁120	-11.14692
72	-11.14728
▁heating	-11.14735
late	-11.14757
▁younger	-11.14783
▁Intel	-11.14817
▁salad	-11.14836
▁commonly	-11.14856
▁treatments	-11.14868
▁speaker	-11.14877
▁producing	-11.14912
▁eggs	-11.14937
▁Spirit	-11.14989
▁beide	-11.14992
▁transaction	-11.15028
▁Machine	-11.15046
▁Games	-11.15053
▁niveau	-11.15069
▁Need	-11.15083
radi	-11.15096
mir	-11.15097
causing	-11.15100
▁début	-11.15104
▁rencontre	-11.15106
▁threat	-11.15115
▁enjoying	-11.15132
Com	-11.15139
▁Johnson	-11.15156
▁tournament	-11.15156
▁Micro	-11.15158
▁Drive	-11.15167
▁Cre	-11.15187
▁Lebens	-11.15193
▁categories	-11.15236
5,000	-11.15261
▁confirmed	-11.15262
pli	-11.15276
▁Francisco	-11.15314
▁raw	-11.15316
▁managers	-11.15322
ţie	-11.15337
UR	-11.15337
▁aproape	-11.15407
via	-11.15461
▁engaged	-11.15465
▁parti	-11.15474
▁posting	-11.15518
CO	-11.15548
▁bois	-11.15582
▁inch	-11.15591
vie	-11.15607
▁aside	-11.15631
▁exceptional	-11.15659
▁vintage	-11.15667
▁Him	-11.15680
▁expansion	-11.15681
▁Weg	-11.15712
▁authors	-11.15754
▁deine	-11.15764
▁Prime	-11.15802
▁scan	-11.15806
▁reg	-11.15811
ția	-11.15814
riv	-11.15826
selon	-11.15844
▁Studio	-11.15857
▁dich	-11.15866
▁vi	-11.15875
▁sequence	-11.15902
▁Four	-11.15905
RT	-11.15905
▁ihn	-11.15907
▁employ	-11.15922
umb	-11.15966
ită	-11.15982
▁Station	-11.15995
▁upload	-11.15997
▁upgrade	-11.16045
▁exterior	-11.16053
▁writers	-11.16053
▁plot	-11.16054
▁Gen	-11.16068
TER	-11.16082
-12	-11.16093
http	-11.16217
▁smell	-11.16217
post	-11.16252
von	-11.16279
mili	-11.16281
8%	-11.16297
▁Andrew	-11.16307
▁spun	-11.16321
▁grass	-11.16344
unter	-11.16347
▁burn	-11.16356
▁Gegen	-11.16360
fest	-11.16372
▁Northern	-11.16374
▁consumption	-11.16378
▁bird	-11.16407
▁Miss	-11.16437
anti	-11.16448
▁viata	-11.16458
bereich	-11.16460
▁Change	-11.16487
▁pouvoir	-11.16526
▁demonstrate	-11.16544
▁requirement	-11.16548
BI	-11.16577
ied	-11.16610
▁spray	-11.16636
▁calitate	-11.16638
▁souvent	-11.16656
▁samples	-11.16668
▁compete	-11.16693
ank	-11.16695
année	-11.16704
wick	-11.16718
iff	-11.16725
noi	-11.16726
ography	-11.16745
▁SE	-11.16751
▁250	-11.16780
▁wealth	-11.16788
4%	-11.16824
▁swimming	-11.16827
enne	-11.16834
Qu	-11.16840
▁connections	-11.16848
onne	-11.16853
▁Way	-11.16868
voll	-11.16879
▁extent	-11.16904
▁objective	-11.16957
▁clinic	-11.16958
NA	-11.16985
▁Hope	-11.17010
▁coat	-11.17033
▁depend	-11.17039
▁tine	-11.17046
acc	-11.17049
▁editor	-11.17060
▁Jim	-11.17069
600	-11.17126
▁module	-11.17130
▁deja	-11.17182
atur	-11.17184
▁maintaining	-11.17192
▁hoch	-11.17206
▁covering	-11.17240
vielen	-11.17245
hem	-11.17253
▁illegal	-11.17266
▁certificate	-11.17329
▁collective	-11.17336
▁blow	-11.17344
▁programming	-11.17344
HE	-11.17373
▁Division	-11.17384
▁ceux	-11.17408
▁saved	-11.17420
▁worst	-11.17427
▁arms	-11.17430
▁Officer	-11.17463
▁association	-11.17484
ington	-11.17499
▁belle	-11.17502
tting	-11.17538
▁attacks	-11.17545
▁vei	-11.17547
▁gerade	-11.17547
▁strain	-11.17575
▁offices	-11.17597
EM	-11.17627
EST	-11.17651
-8	-11.17676
▁faculty	-11.17700
▁Plant	-11.17705
pla	-11.17730
card	-11.17762
▁loose	-11.17798
▁PR	-11.17804
profit	-11.17807
▁channels	-11.17812
ATE	-11.17826
atic	-11.17830
wegen	-11.17840
word	-11.17862
▁sehen	-11.17866
▁nombre	-11.17874
▁DO	-11.17876
▁hoping	-11.17895
▁wollen	-11.17909
▁decat	-11.17924
IF	-11.17939
▁permission	-11.17940
▁Williams	-11.17994
▁beer	-11.17996
▁dernière	-11.18005
▁purchasing	-11.18025
▁pride	-11.18042
solv	-11.18060
ego	-11.18069
▁Oil	-11.18080
▁dishes	-11.18103
▁Baby	-11.18111
▁Roll	-11.18114
vez	-11.18135
▁drept	-11.18137
lly	-11.18148
▁potrivit	-11.18150
person	-11.18196
▁interactive	-11.18227
▁brilliant	-11.18230
▁000	-11.18236
▁giant	-11.18266
▁plain	-11.18295
▁lock	-11.18320
▁inspection	-11.18376
▁symbol	-11.18392
▁Gal	-11.18395
▁concepts	-11.18402
▁venture	-11.18412
▁Tr	-11.18440
▁Color	-11.18447
▁behalf	-11.18464
ink	-11.18472
atii	-11.18487
wie	-11.18491
▁stream	-11.18514
▁buyers	-11.18519
legen	-11.18553
iness	-11.18579
▁absolute	-11.18595
▁council	-11.18607
▁displayed	-11.18617
▁Bun	-11.18641
▁darauf	-11.18659
▁rod	-11.18683
▁repeat	-11.18690
quelle	-11.18702
lation	-11.18743
gul	-11.18775
▁compensation	-11.18806
▁string	-11.18817
▁joining	-11.18825
▁Pra	-11.18843
hab	-11.18894
▁plane	-11.18902
▁conversion	-11.18908
▁lesson	-11.18936
bound	-11.18939
▁seats	-11.18946
voc	-11.18990
▁Disney	-11.19012
esse	-11.19028
▁awards	-11.19028
▁initiative	-11.19048
UM	-11.19050
▁intelligence	-11.19076
▁laser	-11.19113
än	-11.19123
▁generated	-11.19123
▁allen	-11.19187
▁Aug	-11.19261
lini	-11.19297
▁Update	-11.19302
▁grab	-11.19310
▁Bridge	-11.19322
rock	-11.19329
hold	-11.19346
seinen	-11.19364
▁false	-11.19376
type	-11.19379
▁outcome	-11.19391
▁crazy	-11.19416
▁Platz	-11.19428
▁believed	-11.19443
▁adjust	-11.19450
▁entrance	-11.19464
▁Colorado	-11.19475
▁concentration	-11.19487
aid	-11.19496
▁regardless	-11.19504
▁mici	-11.19506
▁potentially	-11.19511
▁Custom	-11.19587
rag	-11.19601
▁employer	-11.19604
tagged	-11.19616
▁34	-11.19627
fro	-11.19690
▁Pas	-11.19701
▁AS	-11.19701
PP	-11.19703
stru	-11.19741
grâce	-11.19804
▁anyway	-11.19824
▁streets	-11.19861
▁Region	-11.19919
▁newly	-11.19928
▁assistant	-11.19946
▁requests	-11.19962
▁Ohio	-11.19971
▁continuing	-11.20007
▁îm	-11.20014
7%	-11.20031
▁basically	-11.20033
gabe	-11.20033
▁ultra	-11.20036
pic	-11.20057
▁jeder	-11.20094
▁Cook	-11.20123
▁tie	-11.20123
▁yard	-11.20151
▁wash	-11.20153
▁3,	-11.20194
▁exista	-11.20213
▁egg	-11.20234
▁marché	-11.20262
kommen	-11.20263
▁Select	-11.20300
geben	-11.20313
▁Joseph	-11.20353
▁Ces	-11.20364
▁hundred	-11.20368
even	-11.20379
gal	-11.20423
800	-11.20443
▁Jones	-11.20460
ova	-11.20468
▁careful	-11.20473
▁alarm	-11.20507
NI	-11.20511
▁residence	-11.20533
▁wäre	-11.20591
▁Dor	-11.20599
▁amounts	-11.20637
▁mistake	-11.20669
ates	-11.20680
▁bune	-11.20695
▁vegetables	-11.20712
▁Ann	-11.20720
logical	-11.20776
stadt	-11.20781
▁chances	-11.20792
%)	-11.20803
▁minimal	-11.20811
▁naturally	-11.20818
▁Geld	-11.20823
▁Yu	-11.20836
▁wrap	-11.20840
rest	-11.20867
▁legs	-11.20876
PM	-11.20881
▁Heart	-11.20889
▁suspect	-11.20902
Go	-11.20910
▁Fil	-11.20918
▁YOU	-11.20918
▁victory	-11.20925
pun	-11.20961
▁Zo	-11.20963
CT	-11.20964
▁trim	-11.20969
▁stuck	-11.20984
ators	-11.20988
▁Ideas	-11.21002
▁voyage	-11.21017
▁Restaurant	-11.21021
▁pat	-11.21023
▁bond	-11.21052
▁Del	-11.21055
▁fighting	-11.21071
▁concerning	-11.21087
▁etwa	-11.21114
▁Thema	-11.21124
▁preferred	-11.21142
▁pitch	-11.21147
▁Singapore	-11.21197
▁tub	-11.21202
FT	-11.21205
▁Product	-11.21212
▁applying	-11.21229
▁Fr	-11.21234
ţa	-11.21260
▁iPad	-11.21286
PD	-11.21295
▁comun	-11.21300
▁pie	-11.21329
rank	-11.21365
tron	-11.21368
▁pest	-11.21391
▁herself	-11.21394
▁intense	-11.21396
foot	-11.21414
▁1998	-11.21417
▁anxiety	-11.21462
▁portable	-11.21467
▁harm	-11.21474
▁admit	-11.21489
sted	-11.21490
▁regions	-11.21545
cie	-11.21556
▁robust	-11.21577
▁stem	-11.21598
▁roles	-11.21602
▁Latin	-11.21622
▁Ré	-11.21638
▁ref	-11.21638
isme	-11.21643
▁contribution	-11.21678
▁forever	-11.21745
▁frei	-11.21754
▁mont	-11.21782
that	-11.21800
▁sensitive	-11.21812
▁wider	-11.21818
AF	-11.21823
▁liability	-11.21875
ţiei	-11.21904
▁Cho	-11.21926
aria	-11.21961
rang	-11.21978
▁Account	-11.21986
▁III	-11.21994
▁tooth	-11.22022
▁factory	-11.22024
▁dropped	-11.22050
horn	-11.22078
RP	-11.22111
▁container	-11.22118
fran	-11.22147
▁lawyer	-11.22184
▁Image	-11.22191
HO	-11.22196
▁incorporate	-11.22199
▁lume	-11.22226
GA	-11.22233
itati	-11.22237
autre	-11.22267
ierten	-11.22269
[	-11.22275
▁packages	-11.22276
▁Simon	-11.22290
▁somewhat	-11.22373
mbo	-11.22374
lite	-11.22384
▁eliminate	-11.22395
▁decrease	-11.22412
▁geben	-11.22421
▁approaches	-11.22448
▁tissue	-11.22494
▁personne	-11.22519
ional	-11.22559
unable	-11.22565
▁Case	-11.22574
hill	-11.22574
och	-11.22586
▁minister	-11.22592
▁Rad	-11.22629
▁yoga	-11.22639
▁encounter	-11.22661
text	-11.22671
▁OS	-11.22672
▁opera	-11.22673
▁loving	-11.22698
▁birds	-11.22736
▁prim	-11.22739
easca	-11.22743
park	-11.22745
fü	-11.22780
▁champion	-11.22782
▁warning	-11.22825
DC	-11.22827
▁yield	-11.22831
raum	-11.22833
▁Student	-11.22843
▁Rev	-11.22849
▁Fu	-11.22850
▁intra	-11.22854
▁proces	-11.22859
▁margin	-11.22862
lands	-11.22882
04	-11.22895
▁Steel	-11.22990
▁besoin	-11.23008
şti	-11.23056
▁39	-11.23064
▁outcomes	-11.23068
wert	-11.23072
3,	-11.23080
▁hole	-11.23089
▁Create	-11.23097
▁hall	-11.23127
nach	-11.23160
▁indicate	-11.23231
cum	-11.23260
▁Mann	-11.23269
▁reaction	-11.23283
▁empty	-11.23290
▁Sign	-11.23294
▁pm	-11.23301
erung	-11.23323
▁würde	-11.23359
▁declarat	-11.23360
6%	-11.23371
▁Client	-11.23378
vil	-11.23430
▁electricity	-11.23447
▁75	-11.23451
▁buna	-11.23451
eşte	-11.23474
▁prop	-11.23479
▁journal	-11.23488
▁meu	-11.23495
▁chef	-11.23503
▁Ever	-11.23510
▁feelings	-11.23547
PT	-11.23551
▁proposal	-11.23565
▁Its	-11.23571
▁2013.	-11.23580
▁Bundes	-11.23595
▁droit	-11.23633
▁10%	-11.23667
gard	-11.23677
information	-11.23681
FE	-11.23731
▁Dun	-11.23734
▁Stock	-11.23747
ație	-11.23748
▁mag	-11.23760
▁br	-11.23767
▁sight	-11.23777
phone	-11.23780
▁Cy	-11.23781
▁opposite	-11.23804
ically	-11.23824
großen	-11.23839
▁Without	-11.23845
espace	-11.23852
▁chairs	-11.23860
▁matches	-11.23869
ateur	-11.23870
▁Cost	-11.23870
▁WordPress	-11.23888
▁Opera	-11.23920
walked	-11.23923
▁transactions	-11.23952
▁nuclear	-11.23958
ways	-11.23959
▁Oct	-11.23974
▁bomb	-11.23984
▁tracking	-11.23988
▁photograph	-11.24007
bio	-11.24031
▁branch	-11.24036
▁$5	-11.24068
▁diagram	-11.24099
▁Hard	-11.24122
bach	-11.24123
▁42	-11.24125
logy	-11.24147
▁tile	-11.24159
▁API	-11.24183
seront	-11.24204
ENT	-11.24216
▁accommodation	-11.24241
▁fiber	-11.24244
▁Give	-11.24279
▁Gas	-11.24292
▁Spain	-11.24309
▁listing	-11.24313
▁blocks	-11.24349
▁constitu	-11.24376
▁convenience	-11.24380
▁prize	-11.24382
▁aircraft	-11.24404
containing	-11.24412
▁vice	-11.24425
▁organisations	-11.24430
▁complicated	-11.24459
rons	-11.24465
▁bars	-11.24467
était	-11.24471
▁checking	-11.24529
vant	-11.24554
▁couch	-11.24566
▁brush	-11.24587
▁printer	-11.24592
▁Rat	-11.24605
▁announce	-11.24606
▁salari	-11.24620
▁Sk	-11.24636
pal	-11.24638
▁yards	-11.24658
▁flexibility	-11.24665
▁jamais	-11.24671
UC	-11.24674
▁4,	-11.24679
▁Made	-11.24708
▁solche	-11.24711
▁tri	-11.24724
▁outfit	-11.24724
м	-11.24727
▁encouraged	-11.24748
trac	-11.24755
▁genetic	-11.24756
▁beneficial	-11.24775
mă	-11.24785
involving	-11.24788
▁knee	-11.24788
▁respective	-11.24832
▁controlled	-11.24835
▁Rück	-11.24838
LC	-11.24859
▁highlight	-11.24863
chem	-11.24880
▁Bis	-11.24956
▁graphics	-11.24959
▁posibil	-11.24967
orul	-11.24968
imagin	-11.24984
▁draft	-11.25001
shaped	-11.25022
▁suggests	-11.25022
uvre	-11.25051
page	-11.25055
▁sentiment	-11.25069
▁loop	-11.25102
▁Quality	-11.25184
▁volunteers	-11.25187
▁representation	-11.25192
▁examination	-11.25213
▁(2)	-11.25223
assi	-11.25244
▁till	-11.25249
▁Catholic	-11.25262
▁2020	-11.25273
▁random	-11.25276
tage	-11.25315
▁baking	-11.25369
▁Musik	-11.25385
▁SC	-11.25387
▁möchte	-11.25439
▁gene	-11.25441
▁kam	-11.25493
▁inspire	-11.25497
unk	-11.25510
▁Final	-11.25548
▁jeden	-11.25550
▁LLC	-11.25596
▁sistem	-11.25614
▁stages	-11.25644
▁texture	-11.25661
rib	-11.25674
lung	-11.25678
▁breath	-11.25681
▁hosted	-11.25684
▁Kingdom	-11.25708
▁politics	-11.25712
▁mood	-11.25712
cam	-11.25729
▁liked	-11.25729
▁Credit	-11.25730
tisch	-11.25753
▁everywhere	-11.25769
▁poti	-11.25792
▁fruits	-11.25826
oire	-11.25832
▁mesure	-11.25859
▁Studies	-11.25884
▁provision	-11.25889
▁Maria	-11.25893
▁necessarily	-11.25910
▁Net	-11.25921
▁scar	-11.25931
▁tracks	-11.25942
▁ads	-11.25986
termin	-11.25986
▁Yo	-11.26023
atory	-11.26025
itoare	-11.26026
▁colours	-11.26056
▁correctly	-11.26082
▁Trade	-11.26090
▁Week	-11.26105
▁Premier	-11.26150
▁designers	-11.26160
▁BE	-11.26188
▁desktop	-11.26193
▁lifetime	-11.26205
▁Kind	-11.26213
▁divers	-11.26225
rain	-11.26226
▁Von	-11.26226
▁bal	-11.26257
▁shots	-11.26262
▁accommodate	-11.26277
▁Paper	-11.26300
▁interaction	-11.26319
▁acquisition	-11.26323
▁neuro	-11.26378
▁institution	-11.26392
▁automatic	-11.26404
▁assess	-11.26418
▁manifest	-11.26420
▁audit	-11.26420
▁câte	-11.26441
▁insight	-11.26453
▁lange	-11.26478
▁retirement	-11.26480
sons	-11.26486
▁Asian	-11.26493
▁rail	-11.26498
▁Awards	-11.26498
Avec	-11.26504
SO	-11.26511
para	-11.26530
▁tant	-11.26556
▁strike	-11.26569
▁transformation	-11.26574
▁leicht	-11.26587
л	-11.26600
fat	-11.26630
▁Qui	-11.26663
▁chip	-11.26664
titude	-11.26664
▁Projekt	-11.26700
▁statt	-11.26701
▁findet	-11.26718
▁telephone	-11.26725
▁staying	-11.26727
▁Mess	-11.26735
▁patio	-11.26738
▁afla	-11.26789
▁administrative	-11.26791
▁gemeinsam	-11.26813
▁suppliers	-11.26814
ark	-11.26818
▁rice	-11.26840
▁stretch	-11.26844
▁compact	-11.26865
fire	-11.26876
в	-11.26896
vision	-11.26904
▁Mag	-11.26937
▁dreams	-11.26947
▁funny	-11.26969
▁lässt	-11.27022
cade	-11.27045
▁drama	-11.27048
▁schimb	-11.27077
PO	-11.27079
▁Sim	-11.27081
▁motivation	-11.27105
▁presents	-11.27139
▁1997	-11.27183
agi	-11.27188
▁optimal	-11.27198
▁folder	-11.27200
stro	-11.27203
▁Han	-11.27207
▁Ei	-11.27220
▁pus	-11.27236
▁Learning	-11.27253
oop	-11.27260
▁Type	-11.27266
space	-11.27267
▁define	-11.27310
▁plug	-11.27310
yard	-11.27319
▁utility	-11.27330
über	-11.27356
▁commun	-11.27363
▁directed	-11.27384
▁consent	-11.27389
▁DNA	-11.27407
▁statements	-11.27413
real	-11.27430
active	-11.27443
school	-11.27497
▁mic	-11.27536
▁acestui	-11.27547
scale	-11.27550
▁Mid	-11.27563
▁Chair	-11.27587
к	-11.27594
▁Bas	-11.27631
▁38	-11.27638
erin	-11.27646
▁Everyone	-11.27687
COM	-11.27691
▁chronic	-11.27708
▁doctors	-11.27722
▁sh	-11.27728
sport	-11.27740
▁volunteer	-11.27751
▁drinking	-11.27784
▁Mas	-11.27787
▁pursue	-11.27801
▁exposed	-11.27854
exe	-11.27866
hung	-11.27884
▁Tier	-11.27892
▁plac	-11.27912
▁proiect	-11.27914
▁literally	-11.27929
▁acolo	-11.27941
▁User	-11.27949
UT	-11.27960
▁hyper	-11.27962
▁seed	-11.27979
▁literature	-11.28027
▁Holy	-11.28037
▁jeu	-11.28040
▁licensed	-11.28090
station	-11.28090
▁criteria	-11.28129
▁sufficient	-11.28129
▁gestion	-11.28151
▁pic	-11.28155
▁64	-11.28170
▁facts	-11.28191
▁Bild	-11.28210
obi	-11.28213
▁nie	-11.28236
▁Jewish	-11.28276
bor	-11.28281
▁1980	-11.28286
▁Fach	-11.28292
craft	-11.28305
▁Pakistan	-11.28341
▁Mos	-11.28362
▁toilet	-11.28384
partea	-11.28391
case	-11.28422
▁clock	-11.28430
▁parc	-11.28460
▁legislation	-11.28469
▁icon	-11.28493
etz	-11.28518
ept	-11.28527
▁Corporation	-11.28585
▁requested	-11.28598
▁column	-11.28609
rier	-11.28612
uß	-11.28620
▁wohl	-11.28642
tell	-11.28657
gno	-11.28661
▁diseases	-11.28673
Sch	-11.28676
▁colon	-11.28708
▁Based	-11.28710
▁flu	-11.28726
▁vocal	-11.28741
▁virus	-11.28769
▁traveling	-11.28775
bul	-11.28784
т	-11.28794
city	-11.28796
AU	-11.28799
wide	-11.28804
▁solo	-11.28806
▁functionality	-11.28821
▁reveal	-11.28832
sign	-11.28895
▁closing	-11.28897
▁peak	-11.28909
▁practic	-11.28940
than	-11.28947
▁driven	-11.28948
êtes	-11.28955
high	-11.29002
power	-11.29023
▁Lin	-11.29029
▁dose	-11.29034
▁pocket	-11.29065
▁Classic	-11.29068
▁packaging	-11.29079
▁distinct	-11.29080
▁côté	-11.29109
▁breast	-11.29127
▁folosit	-11.29133
▁drinks	-11.29135
▁Dog	-11.29153
ailleurs	-11.29166
▁caz	-11.29180
▁escape	-11.29188
▁warranty	-11.29190
▁pulled	-11.29200
data	-11.29209
▁facilitate	-11.29221
É	-11.29234
▁SP	-11.29240
lant	-11.29256
AD	-11.29257
▁Print	-11.29280
mond	-11.29286
▁strange	-11.29288
▁Hor	-11.29323
▁Collection	-11.29333
arm	-11.29347
cas	-11.29369
arrow	-11.29380
▁carrying	-11.29393
▁wave	-11.29466
setzt	-11.29491
▁construct	-11.29514
▁acts	-11.29527
▁Action	-11.29534
▁Kim	-11.29535
oxid	-11.29546
fish	-11.29552
▁damaged	-11.29566
▁Greek	-11.29575
▁belt	-11.29577
▁Prior	-11.29578
▁marks	-11.29594
▁lumea	-11.29618
▁twenty	-11.29620
▁locul	-11.29636
▁Army	-11.29652
apt	-11.29660
▁limits	-11.29673
▁cruise	-11.29697
▁List	-11.29700
utilisation	-11.29754
▁personality	-11.29762
▁sections	-11.29776
▁drawn	-11.29798
▁mold	-11.29828
▁Think	-11.29833
▁holidays	-11.29836
▁critic	-11.29855
grade	-11.29866
▁sick	-11.29907
▁characteristics	-11.29924
▁echipa	-11.29927
▁Fast	-11.29929
▁Br	-11.29960
▁Reise	-11.29973
teen	-11.29975
uci	-11.29995
!”	-11.30018
ppe	-11.30053
▁talked	-11.30116
▁gap	-11.30147
homme	-11.30178
▁interact	-11.30193
▁dollar	-11.30228
▁bone	-11.30231
▁Einsatz	-11.30234
▁sad	-11.30243
any	-11.30245
tation	-11.30267
▁Haupt	-11.30275
iva	-11.30278
▁Schu	-11.30292
▁evaluate	-11.30365
▁variant	-11.30381
▁IS	-11.30388
▁PRO	-11.30395
▁vine	-11.30396
rut	-11.30406
▁existence	-11.30443
-7	-11.30453
ancy	-11.30470
▁Want	-11.30502
alism	-11.30513
ranging	-11.30551
preis	-11.30555
All	-11.30562
▁reception	-11.30565
mai	-11.30573
▁lease	-11.30577
▁finest	-11.30579
▁evident	-11.30587
▁Easy	-11.30608
▁gilt	-11.30609
▁trips	-11.30634
▁skilled	-11.30637
consists	-11.30646
front	-11.30664
rati	-11.30665
▁Following	-11.30679
▁Medicine	-11.30716
▁pune	-11.30730
▁errors	-11.30735
arian	-11.30761
lib	-11.30812
SR	-11.30835
ML	-11.30857
▁Safety	-11.30882
▁clar	-11.30936
New	-11.30976
▁37	-11.30977
▁Administration	-11.30982
▁2.0	-11.31012
▁obviously	-11.31020
▁Mitarbeiter	-11.31025
▁improvements	-11.31044
▁Cut	-11.31063
▁Natural	-11.31067
▁arrival	-11.31118
▁pizza	-11.31134
eşti	-11.31157
cept	-11.31165
▁livre	-11.31169
▁nombreux	-11.31220
▁authentic	-11.31223
▁gemacht	-11.31247
▁broadcast	-11.31248
▁stronger	-11.31255
UP	-11.31257
▁centers	-11.31261
▁petite	-11.31262
▁spots	-11.31263
▁crystal	-11.31276
▁salon	-11.31304
▁gained	-11.31310
▁Mus	-11.31322
▁lens	-11.31322
▁ihm	-11.31323
minute	-11.31357
▁greatly	-11.31359
LP	-11.31361
rait	-11.31403
▁bid	-11.31415
▁cit	-11.31420
entreprise	-11.31436
▁55	-11.31453
▁respectively	-11.31454
▁lo	-11.31464
▁cons	-11.31474
▁Energie	-11.31517
▁OK	-11.31521
▁grill	-11.31534
▁heading	-11.31549
▁sollten	-11.31549
▁Fragen	-11.31553
▁Poli	-11.31556
▁studying	-11.31572
▁développement	-11.31588
▁foam	-11.31604
▁1996	-11.31651
▁disaster	-11.31663
▁cafe	-11.31726
▁moves	-11.31727
focuses	-11.31771
▁Avenue	-11.31783
▁humans	-11.31784
▁(3	-11.31802
▁région	-11.31835
▁DJ	-11.31861
shop	-11.31882
▁acting	-11.31884
▁Justice	-11.31897
▁trouve	-11.31901
▁Estate	-11.31904
▁strict	-11.31923
▁talks	-11.31928
▁mat	-11.31929
▁completion	-11.31933
delivering	-11.31943
CD	-11.31974
0%	-11.31996
▁creativity	-11.32025
BR	-11.32027
▁occurred	-11.32036
Car	-11.32059
▁rising	-11.32076
gger	-11.32086
▁Gene	-11.32090
▁workplace	-11.32091
phy	-11.32107
▁Bla	-11.32107
▁trailer	-11.32120
▁Forest	-11.32121
▁profession	-11.32125
▁Father	-11.32138
flu	-11.32149
tone	-11.32149
▁sexual	-11.32174
▁Map	-11.32181
OT	-11.32184
▁Us	-11.32188
tôt	-11.32189
▁Wert	-11.32190
preparing	-11.32212
isé	-11.32224
▁lake	-11.32246
eed	-11.32270
jun	-11.32289
▁implemented	-11.32301
vid	-11.32312
igne	-11.32320
▁follows	-11.32321
▁Eric	-11.32343
body	-11.32353
▁contained	-11.32359
▁massage	-11.32372
AV	-11.32373
▁insa	-11.32385
▁observed	-11.32389
▁marque	-11.32414
lines	-11.32445
▁Frage	-11.32448
largely	-11.32465
gegeben	-11.32473
▁colleagues	-11.32476
pha	-11.32494
▁representative	-11.32522
▁shut	-11.32565
▁secondary	-11.32578
▁exhibit	-11.32593
1)	-11.32593
mid	-11.32611
▁Due	-11.32623
▁initiatives	-11.32646
▁occurs	-11.32646
lent	-11.32648
▁façon	-11.32678
▁iOS	-11.32680
▁exploring	-11.32700
▁stations	-11.32710
nton	-11.32723
▁Country	-11.32730
▁shouldn	-11.32741
▁casual	-11.32761
-18	-11.32770
▁maintained	-11.32772
▁cart	-11.32779
▁propre	-11.32784
▁asset	-11.32795
firm	-11.32804
gla	-11.32823
viv	-11.32825
▁scientists	-11.32887
▁Nor	-11.32894
ites	-11.32932
▁engaging	-11.32993
My	-11.33018
▁workshops	-11.33028
ffer	-11.33038
activité	-11.33047
▁tension	-11.33057
▁dual	-11.33067
uer	-11.33085
900	-11.33094
SF	-11.33108
▁kannst	-11.33115
▁bur	-11.33115
▁visitor	-11.33116
▁granted	-11.33118
▁union	-11.33136
▁tablet	-11.33146
▁Choose	-11.33147
ibil	-11.33155
▁settlement	-11.33183
genommen	-11.33189
▁marked	-11.33296
▁diagnostic	-11.33337
▁prayer	-11.33353
▁Toronto	-11.33404
trans	-11.33415
▁respectiv	-11.33416
▁2012.	-11.33421
icul	-11.33439
▁satisfied	-11.33453
▁Fla	-11.33460
▁estimate	-11.33464
▁Agency	-11.33467
OD	-11.33471
▁McC	-11.33475
bert	-11.33475
▁seal	-11.33477
aine	-11.33484
▁cauza	-11.33485
▁wallpaper	-11.33508
▁alb	-11.33536
▁Sound	-11.33568
worth	-11.33573
chten	-11.33586
programm	-11.33590
▁pounds	-11.33622
▁coaching	-11.33628
▁Furthermore	-11.33645
▁Korea	-11.33647
▁flour	-11.33653
▁sommes	-11.33657
▁Repair	-11.33662
”)	-11.33664
itch	-11.33668
blu	-11.33679
zar	-11.33688
▁diferite	-11.33745
▁Golf	-11.33769
arch	-11.33772
▁panels	-11.33780
jan	-11.33796
“.	-11.33824
izarea	-11.33832
▁golden	-11.33855
▁flying	-11.33855
▁museum	-11.33870
▁equivalent	-11.33876
▁Lang	-11.33903
schi	-11.33954
MI	-11.33960
▁faci	-11.33984
▁Rahmen	-11.33999
▁attending	-11.34013
′′	-11.34048
▁Tro	-11.34107
▁gaming	-11.34145
▁aujourd	-11.34148
▁Wochen	-11.34153
▁entering	-11.34154
its	-11.34156
▁Private	-11.34187
▁Ocean	-11.34188
▁01	-11.34210
▁coloring	-11.34219
ător	-11.34253
▁flooring	-11.34255
▁downtown	-11.34276
rab	-11.34300
HI	-11.34322
▁illness	-11.34323
▁whil	-11.34331
▁diamond	-11.34333
Mail	-11.34342
▁Dream	-11.34344
▁Golden	-11.34410
▁rein	-11.34422
▁hi	-11.34428
▁expressed	-11.34449
▁luat	-11.34451
▁Share	-11.34453
▁Programm	-11.34471
▁Sales	-11.34471
▁prof	-11.34489
▁MO	-11.34506
▁Short	-11.34509
▁charm	-11.34529
▁Cer	-11.34537
▁Run	-11.34553
▁tutorial	-11.34559
oul	-11.34562
▁Fest	-11.34579
▁uniform	-11.34593
aß	-11.34601
▁pipe	-11.34608
▁Square	-11.34628
▁Kosten	-11.34637
▁checked	-11.34659
▁65	-11.34663
▁Adam	-11.34669
cel	-11.34670
ello	-11.34697
▁Res	-11.34702
▁drain	-11.34708
ză	-11.34713
▁Tech	-11.34740
▁strive	-11.34750
cycl	-11.34751
▁stark	-11.34754
load	-11.34755
▁Stat	-11.34759
▁Rec	-11.34762
ians	-11.34772
▁Tin	-11.34774
▁Agreement	-11.34784
▁pret	-11.34803
-9	-11.34833
▁sentence	-11.34838
▁Direct	-11.34843
▁Rep	-11.34847
▁Prozent	-11.34880
▁invitation	-11.34883
▁refund	-11.34911
▁Kids	-11.34929
stock	-11.34938
TP	-11.34940
▁tau	-11.34941
from	-11.34942
▁Ash	-11.34945
store	-11.34954
▁Common	-11.34959
▁Qualität	-11.34968
▁strongly	-11.34973
▁importante	-11.34979
ome	-11.34991
▁surtout	-11.34995
enables	-11.35021
▁decent	-11.35022
▁neutral	-11.35024
▁produs	-11.35036
bury	-11.35045
▁Level	-11.35062
▁interes	-11.35070
mov	-11.35080
▁backup	-11.35094
même	-11.35109
doc	-11.35112
▁#1	-11.35131
▁specified	-11.35150
▁founder	-11.35166
And	-11.35209
isten	-11.35215
▁lecture	-11.35273
▁wake	-11.35290
▁vraiment	-11.35298
▁swing	-11.35319
▁addresses	-11.35328
▁Verfügung	-11.35350
▁deadline	-11.35376
н	-11.35379
▁Content	-11.35397
▁Gre	-11.35411
▁Experience	-11.35438
tura	-11.35446
▁exit	-11.35464
▁Britain	-11.35465
▁Sunt	-11.35468
▁documentation	-11.35469
▁showcase	-11.35479
▁photographs	-11.35482
qué	-11.35483
zin	-11.35491
pres	-11.35493
▁decline	-11.35496
▁Large	-11.35503
▁bills	-11.35514
▁entitled	-11.35522
▁passionate	-11.35539
▁workout	-11.35541
▁Again	-11.35560
▁Haut	-11.35582
▁guaranteed	-11.35599
▁vue	-11.35600
▁farmers	-11.35622
▁admission	-11.35650
▁manière	-11.35708
▁reverse	-11.35712
▁FL	-11.35714
▁terminal	-11.35721
GI	-11.35731
▁speakers	-11.35740
▁responses	-11.35740
▁Doch	-11.35746
▁2013,	-11.35772
▁phones	-11.35779
ential	-11.35785
▁operator	-11.35792
▁steam	-11.35804
burn	-11.35809
▁seul	-11.35816
▁unusual	-11.35832
▁educate	-11.35840
▁Que	-11.35868
▁believes	-11.35914
▁succeed	-11.35934
▁delay	-11.35953
▁deeper	-11.35963
▁reaching	-11.35989
▁objectives	-11.36009
▁temporary	-11.36028
▁artistic	-11.36042
▁sou	-11.36047
▁transparent	-11.36062
There	-11.36080
ception	-11.36084
▁excess	-11.36094
▁gathering	-11.36101
▁Save	-11.36110
ază	-11.36117
▁français	-11.36120
▁laid	-11.36121
▁modul	-11.36139
avoir	-11.36147
under	-11.36211
dding	-11.36223
▁falls	-11.36223
▁Möglichkeit	-11.36237
▁ceremony	-11.36237
rai	-11.36238
▁Bor	-11.36271
▁Below	-11.36275
4)	-11.36276
▁Field	-11.36283
wear	-11.36294
motion	-11.36295
print	-11.36331
game	-11.36336
▁Irish	-11.36346
▁Las	-11.36346
Among	-11.36357
atori	-11.36358
▁ajuns	-11.36384
▁alive	-11.36386
▁retour	-11.36390
▁smoke	-11.36408
▁math	-11.36429
▁Ye	-11.36434
▁Denn	-11.36437
▁1995	-11.36441
▁bani	-11.36464
raz	-11.36500
world	-11.36503
▁engines	-11.36514
nehmen	-11.36519
stor	-11.36533
▁interpret	-11.36540
▁Ven	-11.36549
▁cotton	-11.36562
▁represented	-11.36600
▁fabulous	-11.36617
▁gender	-11.36630
Mar	-11.36667
vic	-11.36699
▁newsletter	-11.36743
sburg	-11.36757
pond	-11.36838
▁Carl	-11.36845
▁bunch	-11.36871
▁tower	-11.36885
▁trigger	-11.36898
▁explanation	-11.36909
Man	-11.36911
iunea	-11.36917
▁announcement	-11.36949
▁seeds	-11.36952
▁shell	-11.36987
▁Working	-11.36990
viz	-11.37027
▁Simply	-11.37033
sub	-11.37037
▁Village	-11.37061
▁falling	-11.37074
▁fits	-11.37085
▁wichtig	-11.37088
▁Down	-11.37108
bble	-11.37157
▁Orange	-11.37166
promoting	-11.37193
▁rapidly	-11.37218
▁translation	-11.37233
nig	-11.37237
fusion	-11.37241
kosten	-11.37261
2)	-11.37278
▁Express	-11.37296
▁Sw	-11.37300
▁frequency	-11.37309
▁diversity	-11.37335
MT	-11.37345
▁bekannt	-11.37353
lion	-11.37387
▁cop	-11.37394
▁Customer	-11.37407
▁demands	-11.37443
▁corn	-11.37452
▁Hamburg	-11.37455
SD	-11.37463
▁Rome	-11.37468
▁Pur	-11.37475
▁stamp	-11.37489
▁grateful	-11.37497
RM	-11.37511
▁Pl	-11.37512
▁Tele	-11.37515
▁plugin	-11.37549
▁maxim	-11.37568
▁Hoch	-11.37575
igung	-11.37582
▁Entwicklung	-11.37586
▁File	-11.37593
▁Eastern	-11.37607
▁scrap	-11.37633
▁acquired	-11.37634
sau	-11.37636
▁Klein	-11.37645
▁milioane	-11.37649
▁Stand	-11.37669
▁childhood	-11.37671
▁artificial	-11.37675
▁substantial	-11.37685
druck	-11.37732
▁Kra	-11.37756
▁performances	-11.37765
▁row	-11.37782
NT	-11.37790
mod	-11.37790
remained	-11.37840
▁nimic	-11.37846
▁Limited	-11.37856
▁cookie	-11.37872
▁retain	-11.37882
▁600	-11.37914
▁eigene	-11.37916
▁tune	-11.37921
NS	-11.37926
▁dad	-11.37928
Moreover	-11.37942
ès	-11.37943
▁worship	-11.37944
▁Material	-11.37946
▁verb	-11.37953
ziehen	-11.37958
lton	-11.37965
▁boot	-11.37998
plo	-11.38012
CF	-11.38021
GM	-11.38022
▁Mix	-11.38047
▁Front	-11.38047
▁repairs	-11.38066
▁proportion	-11.38107
▁habit	-11.38113
▁hide	-11.38157
focusing	-11.38171
▁Annual	-11.38172
▁twin	-11.38178
▁acord	-11.38178
ehr	-11.38181
month	-11.38230
venir	-11.38254
Or	-11.38254
awa	-11.38260
lass	-11.38274
ffe	-11.38305
iți	-11.38307
NO	-11.38311
▁scope	-11.38330
▁lowest	-11.38353
▁afraid	-11.38357
▁subjects	-11.38358
▁templates	-11.38359
▁jos	-11.38360
DM	-11.38369
ensemble	-11.38379
▁Ski	-11.38394
DP	-11.38410
▁grip	-11.38417
2-	-11.38436
▁sécurité	-11.38474
▁mono	-11.38475
▁controls	-11.38485
SV	-11.38488
install	-11.38497
berry	-11.38504
nial	-11.38512
shed	-11.38546
▁celle	-11.38583
FR	-11.38594
äng	-11.38595
▁gaz	-11.38598
êt	-11.38618
▁viewing	-11.38641
▁asigura	-11.38652
bling	-11.38653
master	-11.38692
▁Fin	-11.38716
VC	-11.38737
▁patent	-11.38772
▁Clean	-11.38773
▁1970	-11.38779
▁Char	-11.38797
thi	-11.38801
bli	-11.38814
▁haut	-11.38831
tica	-11.38837
▁venit	-11.38858
▁compatible	-11.38868
▁hanging	-11.38869
UN	-11.38884
▁forth	-11.38891
▁painted	-11.38891
lip	-11.38903
▁deeply	-11.38909
▁participating	-11.38924
▁Iran	-11.38968
▁conventional	-11.38977
ARE	-11.38986
▁accuracy	-11.38990
▁Familie	-11.38996
▁Dir	-11.39001
▁gehen	-11.39013
▁moderne	-11.39022
▁Iraq	-11.39051
▁vente	-11.39058
▁Donald	-11.39100
▁passer	-11.39105
▁mehrere	-11.39127
▁Everything	-11.39129
▁studied	-11.39131
▁acquire	-11.39131
für	-11.39148
▁gal	-11.39150
▁headed	-11.39181
▁screening	-11.39187
▁findings	-11.39230
▁nutrition	-11.39231
▁Secretary	-11.39231
duct	-11.39243
born	-11.39244
«	-11.39262
▁statistics	-11.39262
▁Sydney	-11.39280
▁Prof	-11.39283
▁dialogue	-11.39328
▁gather	-11.39343
valu	-11.39375
▁currency	-11.39407
▁Kat	-11.39409
gotten	-11.39419
main	-11.39432
▁coin	-11.39434
▁Nick	-11.39438
vă	-11.39466
▁Victoria	-11.39483
▁conclusion	-11.39496
▁lemon	-11.39500
▁Article	-11.39517
▁necesar	-11.39517
mag	-11.39518
▁riding	-11.39537
▁Eli	-11.39560
▁cord	-11.39564
wä	-11.39573
ußerdem	-11.39574
▁Bed	-11.39576
▁layers	-11.39583
▁harder	-11.39598
▁processor	-11.39604
▁Ils	-11.39613
▁Edition	-11.39616
▁Link	-11.39639
éré	-11.39646
▁nume	-11.39658
▁Boy	-11.39660
▁equally	-11.39665
▁Regel	-11.39712
▁hopes	-11.39719
odor	-11.39731
▁initially	-11.39743
▁$4	-11.39746
▁exemplu	-11.39754
▁vari	-11.39757
schl	-11.39770
▁southern	-11.39810
▁mein	-11.39818
▁1994	-11.39830
▁importantly	-11.39840
▁succes	-11.39853
▁developer	-11.39860
▁lips	-11.39889
▁attitude	-11.39900
▁Age	-11.39954
▁corps	-11.39971
▁clicking	-11.39977
▁putem	-11.39983
▁journée	-11.40004
boy	-11.40021
▁injured	-11.40028
▁watched	-11.40043
▁flights	-11.40079
turn	-11.40098
▁stainless	-11.40156
▁besondere	-11.40156
▁Tur	-11.40160
▁hiring	-11.40165
▁roads	-11.40173
ificat	-11.40179
▁Flor	-11.40205
▁puternic	-11.40222
▁unexpected	-11.40224
▁Est	-11.40238
▁adopted	-11.40254
▁Fox	-11.40265
▁contributions	-11.40287
sec	-11.40297
IO	-11.40306
▁santé	-11.40343
▁Tree	-11.40376
▁scurt	-11.40382
▁Products	-11.40385
▁forecast	-11.40400
▁actor	-11.40414
▁Gallery	-11.40415
▁continuous	-11.40416
▁Hat	-11.40429
▁slip	-11.40450
9%	-11.40496
▁depression	-11.40504
UI	-11.40523
abile	-11.40565
▁merit	-11.40567
▁Fer	-11.40581
▁robot	-11.40589
▁gel	-11.40589
▁gentle	-11.40602
▁wanting	-11.40607
▁understood	-11.40616
▁terrain	-11.40616
▁associate	-11.40618
▁discussions	-11.40632
▁Job	-11.40637
spec	-11.40644
Dabei	-11.40648
etic	-11.40652
gol	-11.40654
▁20%	-11.40658
▁grup	-11.40661
▁Doctor	-11.40681
verse	-11.40725
▁victim	-11.40726
ță	-11.40730
▁scores	-11.40754
▁Policy	-11.40763
▁Anna	-11.40774
IV	-11.40780
▁mineral	-11.40820
live	-11.40822
▁grey	-11.40837
struct	-11.40852
▁emails	-11.40874
▁anymore	-11.40911
▁productivity	-11.40939
▁Dark	-11.40946
▁neither	-11.40948
▁quotes	-11.40961
LS	-11.41037
▁Arizona	-11.41040
night	-11.41050
élé	-11.41102
▁assigned	-11.41115
▁satellite	-11.41133
▁stability	-11.41167
▁networking	-11.41173
▁Transport	-11.41185
▁persons	-11.41186
fund	-11.41204
▁pratique	-11.41213
▁inca	-11.41213
iller	-11.41235
▁packed	-11.41239
▁Vegas	-11.41248
▁offre	-11.41249
▁Bin	-11.41252
stop	-11.41261
mini	-11.41286
▁jam	-11.41288
cord	-11.41289
▁Beautiful	-11.41300
▁trash	-11.41301
▁wise	-11.41309
▁accounting	-11.41318
▁différents	-11.41318
▁stil	-11.41321
suit	-11.41395
▁vier	-11.41421
▁permis	-11.41422
flow	-11.41424
▁col	-11.41475
ected	-11.41496
▁singer	-11.41500
▁GmbH	-11.41504
tics	-11.41509
▁ser	-11.41516
On	-11.41532
▁insights	-11.41561
BB	-11.41595
▁differ	-11.41596
▁Glass	-11.41613
▁Six	-11.41648
▁subscription	-11.41658
BC	-11.41661
▁returning	-11.41666
kleinen	-11.41669
▁advantages	-11.41675
omme	-11.41685
lus	-11.41707
now	-11.41714
▁Pack	-11.41725
▁leak	-11.41733
▁muscles	-11.41748
▁davon	-11.41749
mph	-11.41786
▁temple	-11.41787
▁Après	-11.41790
▁Illinois	-11.41802
▁variable	-11.41807
▁judgment	-11.41839
gran	-11.41862
▁pose	-11.41862
das	-11.41865
ures	-11.41867
▁Championship	-11.41869
ebenfalls	-11.41873
▁hydro	-11.41875
▁angle	-11.41927
▁5-	-11.41941
▁gest	-11.41955
▁Frau	-11.42023
▁knock	-11.42028
FS	-11.42044
spi	-11.42058
▁Regional	-11.42072
lets	-11.42110
▁Date	-11.42116
▁Finance	-11.42121
▁Dann	-11.42132
Star	-11.42138
▁Creek	-11.42139
▁fu	-11.42165
wohn	-11.42214
▁anniversary	-11.42222
▁investments	-11.42229
▁universal	-11.42260
▁pit	-11.42275
ște	-11.42278
▁lab	-11.42282
dienst	-11.42288
▁pal	-11.42289
▁graphic	-11.42290
▁bearing	-11.42290
▁stylish	-11.42309
▁mé	-11.42319
▁există	-11.42327
▁découvrir	-11.42348
comp	-11.42361
ridge	-11.42367
▁heads	-11.42377
▁consequences	-11.42384
self	-11.42384
fried	-11.42387
▁inventory	-11.42420
▁strip	-11.42423
▁Civil	-11.42424
bell	-11.42431
▁neben	-11.42444
▁Perfect	-11.42447
▁Notre	-11.42448
▁fraud	-11.42463
▁employers	-11.42466
▁Jackson	-11.42471
▁probleme	-11.42492
▁richtig	-11.42496
▁Method	-11.42501
▁tired	-11.42501
dies	-11.42503
▁Number	-11.42532
rland	-11.42565
▁latter	-11.42603
rendre	-11.42606
▁cameras	-11.42610
▁euch	-11.42663
▁Description	-11.42704
Spec	-11.42706
▁mile	-11.42744
▁Challenge	-11.42747
▁Solutions	-11.42750
▁trusted	-11.42751
▁einge	-11.42752
rück	-11.42753
▁Ober	-11.42764
kes	-11.42765
▁Log	-11.42768
▁dessert	-11.42778
▁murder	-11.42803
▁1/2	-11.42831
▁Provide	-11.42872
nivelul	-11.42880
nici	-11.42882
▁observe	-11.42889
▁prescription	-11.42916
▁Sau	-11.42917
▁genuine	-11.42920
▁operated	-11.42923
▁generous	-11.42927
▁weapons	-11.42946
▁belief	-11.42950
▁consum	-11.42958
▁unknown	-11.43012
deoarece	-11.43014
Art	-11.43015
▁kurz	-11.43018
▁Gut	-11.43026
▁medication	-11.43052
▁Mau	-11.43059
▁divorce	-11.43068
▁claimed	-11.43081
halten	-11.43085
▁Cons	-11.43089
▁operational	-11.43098
▁Hong	-11.43108
VI	-11.43114
▁Blick	-11.43149
▁lamp	-11.43171
pati	-11.43185
▁4-	-11.43192
▁interven	-11.43196
ques	-11.43202
▁Talk	-11.43210
▁zeigt	-11.43232
▁targeted	-11.43239
round	-11.43264
enfant	-11.43275
▁Reg	-11.43284
▁instruments	-11.43287
▁calcul	-11.43336
▁Henry	-11.43353
▁Cla	-11.43362
▁rack	-11.43366
sehen	-11.43375
▁ending	-11.43375
▁resolve	-11.43413
▁advise	-11.43418
▁sociale	-11.43439
▁cabin	-11.43454
▁involve	-11.43480
gă	-11.43489
▁automat	-11.43513
▁consultant	-11.43526
Bu	-11.43537
▁safely	-11.43547
état	-11.43548
▁pros	-11.43566
▁lies	-11.43566
▁Brian	-11.43591
▁talented	-11.43595
pus	-11.43600
▁hub	-11.43606
▁Ji	-11.43607
▁sought	-11.43610
▁energie	-11.43621
▁möchten	-11.43634
▁11.	-11.43656
▁Kong	-11.43666
▁grave	-11.43667
▁lists	-11.43680
tati	-11.43681
verschiedenen	-11.43692
dam	-11.43706
▁charity	-11.43725
▁breaking	-11.43735
kins	-11.43747
▁könnte	-11.43752
▁appointed	-11.43753
roc	-11.43769
▁Senate	-11.43798
wit	-11.43800
▁emerging	-11.43816
▁année	-11.43829
▁Cool	-11.43837
▁sensor	-11.43843
How	-11.43849
▁Ryan	-11.43863
▁computers	-11.43872
▁fault	-11.43884
▁présent	-11.43884
ulation	-11.43915
▁stir	-11.43935
lauf	-11.43970
▁AI	-11.44039
▁Bri	-11.44044
▁bain	-11.44101
▁5,	-11.44129
schein	-11.44158
▁weiß	-11.44160
▁possibilities	-11.44236
gur	-11.44241
▁hinter	-11.44265
Innen	-11.44276
▁vorba	-11.44299
fahren	-11.44301
▁Cell	-11.44307
univers	-11.44314
▁Follow	-11.44342
▁emotions	-11.44361
▁Ministry	-11.44369
▁curriculum	-11.44369
Je	-11.44376
▁gab	-11.44408
▁sigur	-11.44427
rise	-11.44442
Pri	-11.44466
▁stabil	-11.44478
▁superb	-11.44510
▁Oak	-11.44510
▁rubber	-11.44529
▁tag	-11.44531
PG	-11.44536
▁Heat	-11.44548
▁thousand	-11.44550
▁meets	-11.44552
▁faced	-11.44558
▁reserve	-11.44564
cateva	-11.44577
▁gym	-11.44577
▁vitamin	-11.44596
▁Rest	-11.44646
▁Single	-11.44654
▁Stephen	-11.44662
▁trick	-11.44682
DU	-11.44695
▁telefon	-11.44712
▁gând	-11.44712
▁primit	-11.44735
▁Connect	-11.44735
▁führt	-11.44744
▁Info	-11.44750
▁recall	-11.44785
▁restore	-11.44789
lege	-11.44793
▁franchise	-11.44819
▁seulement	-11.44856
reci	-11.44860
▁2019,	-11.44864
▁Ring	-11.44866
▁assembly	-11.44868
intérieur	-11.44878
▁shade	-11.44888
▁meaningful	-11.44888
bag	-11.44899
ONE	-11.44925
▁globe	-11.44929
▁WA	-11.44941
▁intervention	-11.44950
öl	-11.44953
▁Marine	-11.45029
▁Angebot	-11.45051
▁align	-11.45062
▁temperatures	-11.45063
ifier	-11.45092
▁Nigeria	-11.45119
▁survive	-11.45122
ounce	-11.45128
▁placement	-11.45142
▁deci	-11.45153
▁Taylor	-11.45176
step	-11.45191
▁Geschichte	-11.45205
▁Bet	-11.45217
▁Nature	-11.45224
▁FC	-11.45226
▁ownership	-11.45229
▁behaviour	-11.45247
▁deutlich	-11.45253
▁wondering	-11.45280
▁cleaner	-11.45330
uring	-11.45349
rä	-11.45350
▁ga	-11.45430
ador	-11.45448
▁artwork	-11.45456
ologic	-11.45458
▁eigentlich	-11.45485
▁hell	-11.45522
source	-11.45525
▁gem	-11.45527
▁boss	-11.45531
▁arise	-11.45546
about	-11.45571
▁SI	-11.45595
▁ME	-11.45610
akt	-11.45619
▁Style	-11.45626
▁Körper	-11.45649
gui	-11.45680
▁navigate	-11.45682
▁Meanwhile	-11.45698
▁așa	-11.45711
▁bulk	-11.45730
▁directions	-11.45731
▁brick	-11.45775
▁Poly	-11.45775
▁politique	-11.45777
▁patch	-11.45778
ра	-11.45782
commerce	-11.45784
▁înainte	-11.45788
▁intelligent	-11.45824
▁infection	-11.45843
▁Tru	-11.45849
▁raising	-11.45850
tragen	-11.45854
▁portrait	-11.45858
▁meisten	-11.45878
▁organize	-11.45894
metric	-11.45896
▁Season	-11.45904
▁enforcement	-11.45926
origine	-11.45984
▁Ros	-11.46007
▁Mount	-11.46008
have	-11.46024
▁romantic	-11.46026
▁comic	-11.46081
▁greu	-11.46112
ET	-11.46133
▁hook	-11.46141
▁mort	-11.46141
▁indicated	-11.46158
▁7,	-11.46198
▁Neben	-11.46205
yer	-11.46214
▁momentul	-11.46215
note	-11.46231
▁baz	-11.46231
▁abroad	-11.46232
nite	-11.46246
▁bass	-11.46270
▁norm	-11.46271
▁É	-11.46279
4.	-11.46288
▁province	-11.46300
▁merge	-11.46342
arbeiten	-11.46344
-20	-11.46357
▁Nicht	-11.46367
spo	-11.46378
size	-11.46382
▁assure	-11.46385
charge	-11.46399
▁olive	-11.46402
▁Pot	-11.46408
▁Figure	-11.46423
clair	-11.46434
▁discipline	-11.46460
elli	-11.46464
▁tackle	-11.46517
▁buyer	-11.46524
▁loud	-11.46548
▁180	-11.46553
▁căt	-11.46559
▁Palm	-11.46574
away	-11.46593
▁Mother	-11.46607
onia	-11.46624
▁Protection	-11.46642
auto	-11.46655
▁Version	-11.46658
▁Nice	-11.46671
▁12.	-11.46682
▁0,	-11.46684
ATION	-11.46691
▁Produkte	-11.46696
▁tube	-11.46708
▁Houston	-11.46711
chu	-11.46750
pas	-11.46772
▁Ele	-11.46780
▁mountains	-11.46784
PH	-11.46794
▁languages	-11.46867
▁servicii	-11.46872
▁Stay	-11.46900
fil	-11.46914
▁propos	-11.46980
▁coll	-11.46983
▁mor	-11.47020
▁arrange	-11.47041
▁sorry	-11.47048
▁instruction	-11.47072
▁holes	-11.47077
letting	-11.47105
▁wa	-11.47107
▁Feb	-11.47123
omb	-11.47123
▁prise	-11.47129
VO	-11.47131
week	-11.47135
▁Event	-11.47143
▁AT	-11.47149
ket	-11.47149
haft	-11.47158
▁hits	-11.47159
foli	-11.47168
this	-11.47195
GP	-11.47197
▁Pin	-11.47233
▁Stein	-11.47250
thing	-11.47251
▁emphasis	-11.47256
▁Mur	-11.47263
▁Bag	-11.47265
cons	-11.47273
tons	-11.47284
lash	-11.47299
▁Grant	-11.47310
▁pris	-11.47318
▁bună	-11.47324
▁buc	-11.47370
▁passe	-11.47375
▁jewelry	-11.47421
iens	-11.47434
▁forma	-11.47454
▁Med	-11.47465
laufen	-11.47478
▁hunt	-11.47498
stayed	-11.47509
party	-11.47515
▁fra	-11.47529
▁scenes	-11.47531
▁absorb	-11.47535
▁abilities	-11.47538
lug	-11.47551
▁Sarah	-11.47569
mpf	-11.47571
▁fle	-11.47571
accès	-11.47587
▁solicit	-11.47593
pie	-11.47628
▁Zum	-11.47630
▁universe	-11.47639
▁exists	-11.47645
oane	-11.47660
IVE	-11.47669
▁2011.	-11.47691
▁specialists	-11.47707
▁mess	-11.47731
fach	-11.47740
▁Recht	-11.47740
▁hack	-11.47755
▁jacket	-11.47756
HC	-11.47770
▁substance	-11.47773
▁signing	-11.47778
▁allerdings	-11.47803
▁publish	-11.47814
▁Lab	-11.47816
▁agenda	-11.47825
lane	-11.47830
stream	-11.47862
schau	-11.47879
▁realizat	-11.47897
▁supplier	-11.47902
▁moderate	-11.47903
▁tours	-11.47921
▁narrative	-11.47922
ația	-11.47928
▁maps	-11.47942
treten	-11.47945
▁mars	-11.47971
▁moon	-11.47975
rose	-11.47975
▁exp	-11.47977
zahl	-11.48015
psych	-11.48020
▁gehört	-11.48025
▁bound	-11.48035
▁submission	-11.48045
▁clubs	-11.48072
Am	-11.48076
tenir	-11.48078
▁boast	-11.48085
▁boards	-11.48108
▁Geschäfts	-11.48122
zing	-11.48126
wort	-11.48137
lid	-11.48142
▁contractor	-11.48153
▁donner	-11.48167
▁coupon	-11.48197
adresse	-11.48200
colo	-11.48210
▁perception	-11.48212
NC	-11.48223
▁abge	-11.48225
▁cheaper	-11.48227
▁grace	-11.48231
▁resident	-11.48272
kla	-11.48285
▁bug	-11.48285
▁Available	-11.48289
▁BA	-11.48332
▁Met	-11.48360
▁climb	-11.48366
▁expanded	-11.48435
ying	-11.48443
▁matching	-11.48447
▁suffered	-11.48473
▁employed	-11.48476
pper	-11.48484
▁experiencing	-11.48488
ddy	-11.48495
▁philosophy	-11.48496
▁utilisé	-11.48501
▁Jane	-11.48508
LI	-11.48509
▁elected	-11.48519
▁MI	-11.48526
▁ISO	-11.48534
winning	-11.48538
▁vot	-11.48542
▁generic	-11.48552
▁Bol	-11.48565
▁copies	-11.48568
▁mechanical	-11.48568
günstig	-11.48568
roy	-11.48577
Astfel	-11.48581
media	-11.48587
▁shoulder	-11.48590
▁directory	-11.48600
▁banking	-11.48602
▁mistakes	-11.48604
▁Fran	-11.48643
▁Jon	-11.48654
▁spare	-11.48658
metri	-11.48667
▁mask	-11.48688
▁consistently	-11.48695
▁Columbia	-11.48728
roid	-11.48774
essen	-11.48794
▁(“	-11.48799
▁série	-11.48821
▁Phil	-11.48825
▁usor	-11.48825
▁stood	-11.48828
▁racing	-11.48834
▁Comme	-11.48856
▁exceed	-11.48857
на	-11.48862
▁activate	-11.48873
▁circle	-11.48884
▁bold	-11.48896
▁handy	-11.48910
merely	-11.48911
▁Edward	-11.48915
▁contracts	-11.48953
ê	-11.48960
▁campaigns	-11.48967
▁ought	-11.48973
▁nursing	-11.48978
▁Jr	-11.48992
▁rarely	-11.49003
▁Mir	-11.49005
▁diagnosis	-11.49038
▁Theatre	-11.49039
▁producer	-11.49041
Currently	-11.49049
▁fitting	-11.49058
▁ajunge	-11.49062
minte	-11.49075
▁termen	-11.49084
▁Linux	-11.49101
▁1-	-11.49107
▁hätte	-11.49120
▁Resort	-11.49130
image	-11.49153
▁Rod	-11.49189
▁Fly	-11.49192
try	-11.49232
▁expense	-11.49246
▁Interior	-11.49280
▁fence	-11.49292
▁Kontakt	-11.49306
▁ALL	-11.49314
VA	-11.49323
▁Exchange	-11.49332
ranked	-11.49356
▁Performance	-11.49362
prim	-11.49364
▁basket	-11.49369
▁Vice	-11.49370
phan	-11.49371
▁broke	-11.49400
voir	-11.49431
arg	-11.49451
ART	-11.49453
▁floors	-11.49486
pression	-11.49503
▁possession	-11.49508
▁domaine	-11.49511
▁valeur	-11.49513
▁suddenly	-11.49528
▁mild	-11.49530
▁aflat	-11.49543
▁Tea	-11.49573
tritt	-11.49577
▁Mittel	-11.49577
▁regulatory	-11.49580
▁spectacular	-11.49591
fahrt	-11.49595
GS	-11.49603
MM	-11.49616
▁environments	-11.49620
▁Raum	-11.49638
▁lay	-11.49666
▁cré	-11.49671
▁Selbst	-11.49673
▁opposition	-11.49682
two	-11.49729
▁Clark	-11.49782
▁Netz	-11.49785
bald	-11.49798
▁Innovation	-11.49823
▁overcome	-11.49825
quot	-11.49901
▁Sin	-11.49911
▁Sto	-11.49932
▁grain	-11.49956
▁collections	-11.49972
▁applies	-11.49987
mach	-11.49993
▁wheels	-11.49996
▁universities	-11.50005
▁Ray	-11.50018
lina	-11.50024
▁arrangements	-11.50039
▁western	-11.50073
rous	-11.50077
aise	-11.50078
▁highlights	-11.50113
▁intend	-11.50127
aimed	-11.50136
▁Scotland	-11.50136
▁acestei	-11.50147
graf	-11.50150
duction	-11.50152
path	-11.50156
▁evil	-11.50163
▁scris	-11.50179
▁disposition	-11.50193
▁designing	-11.50208
zwar	-11.50217
▁Retrieve	-11.50217
▁aggressive	-11.50237
▁Glen	-11.50241
▁daher	-11.50247
▁Quick	-11.50249
▁recover	-11.50263
▁prominent	-11.50288
▁visits	-11.50320
▁Mis	-11.50338
▁edited	-11.50346
▁distributed	-11.50356
▁dés	-11.50358
▁alter	-11.50360
▁cooked	-11.50370
embl	-11.50371
Univers	-11.50372
▁Minuten	-11.50416
▁compris	-11.50418
rais	-11.50418
essentially	-11.50420
▁rel	-11.50434
▁appel	-11.50457
▁trace	-11.50479
relating	-11.50483
dès	-11.50494
aste	-11.50496
▁raison	-11.50496
▁frequent	-11.50528
▁beds	-11.50532
▁Miami	-11.50551
▁vibrant	-11.50564
▁Kam	-11.50572
▁klar	-11.50586
▁Tan	-11.50598
▁vidéo	-11.50603
▁Kur	-11.50612
▁themes	-11.50613
▁struggling	-11.50644
▁Magazine	-11.50644
maker	-11.50648
veni	-11.50656
▁Groß	-11.50673
▁streaming	-11.50677
▁analyze	-11.50688
▁titles	-11.50698
pier	-11.50732
▁participant	-11.50735
aims	-11.50761
▁convention	-11.50764
▁flood	-11.50778
▁nights	-11.50784
▁titre	-11.50792
▁voul	-11.50801
weit	-11.50817
where	-11.50821
▁Seiten	-11.50829
▁relaxing	-11.50863
▁piano	-11.50884
▁Pick	-11.50884
▁Sony	-11.50896
▁enhanced	-11.50902
▁visa	-11.50915
CH	-11.50930
▁instantly	-11.50930
▁Fan	-11.50972
▁diabetes	-11.50999
▁popul	-11.51000
Ang	-11.51023
▁Ask	-11.51030
cate	-11.51065
▁simplu	-11.51067
nahme	-11.51069
▁dentist	-11.51084
ubi	-11.51092
article	-11.51103
▁graph	-11.51109
▁rival	-11.51122
jahr	-11.51135
▁bloc	-11.51137
fern	-11.51143
▁dispar	-11.51152
▁servers	-11.51158
▁patru	-11.51161
▁Within	-11.51163
▁situated	-11.51190
▁HR	-11.51198
▁leaf	-11.51198
▁curs	-11.51205
antes	-11.51233
lux	-11.51241
▁1993	-11.51246
stance	-11.51265
▁northern	-11.51268
lves	-11.51272
▁contractors	-11.51288
▁dimensions	-11.51292
▁rolling	-11.51307
▁automobile	-11.51321
▁cru	-11.51342
▁displays	-11.51357
web	-11.51381
had	-11.51385
▁Never	-11.51389
▁2-	-11.51393
vine	-11.51394
▁Wahl	-11.51398
▁Markt	-11.51417
▁Double	-11.51423
▁acknowledge	-11.51423
stal	-11.51429
▁equity	-11.51462
▁ministry	-11.51482
▁Lor	-11.51488
▁sud	-11.51497
idée	-11.51504
▁measured	-11.51545
▁editing	-11.51561
▁singur	-11.51562
▁coal	-11.51562
▁dramatic	-11.51621
AG	-11.51625
asca	-11.51628
▁crash	-11.51632
ischer	-11.51660
▁Pla	-11.51687
▁psycho	-11.51705
piece	-11.51712
▁finger	-11.51712
▁Hollywood	-11.51712
▁Cr	-11.51735
▁locally	-11.51762
▁mouse	-11.51779
▁Base	-11.51787
uite	-11.51810
▁detect	-11.51810
cea	-11.51815
▁bull	-11.51819
▁curve	-11.51821
été	-11.51822
ddle	-11.51840
▁span	-11.51852
WS	-11.51888
CL	-11.51902
▁officially	-11.51904
▁corect	-11.51917
▁Artikel	-11.51935
▁customized	-11.52010
▁intellectual	-11.52019
▁heures	-11.52033
schule	-11.52044
▁investing	-11.52059
▁parallel	-11.52123
▁loi	-11.52126
ările	-11.52157
р	-11.52168
▁bench	-11.52172
▁principle	-11.52176
▁Galaxy	-11.52183
ța	-11.52224
▁(4	-11.52242
▁bedrooms	-11.52258
née	-11.52274
▁surely	-11.52275
very	-11.52293
stelle	-11.52320
activ	-11.52322
cite	-11.52355
▁Original	-11.52355
▁palm	-11.52367
▁losses	-11.52393
▁newspaper	-11.52415
ciu	-11.52436
▁Hold	-11.52439
BO	-11.52442
▁CON	-11.52460
▁modified	-11.52462
▁stake	-11.52474
▁Ton	-11.52480
▁luna	-11.52497
▁Mind	-11.52509
lap	-11.52515
▁opinions	-11.52525
▁Jordan	-11.52535
div	-11.52538
indi	-11.52542
▁Story	-11.52548
▁affiliate	-11.52586
▁matière	-11.52592
▁fifth	-11.52640
▁sheets	-11.52645
▁puțin	-11.52691
ush	-11.52695
geführt	-11.52699
▁Falls	-11.52717
legi	-11.52730
▁auction	-11.52733
▁cooperation	-11.52735
▁Fee	-11.52747
▁Daily	-11.52775
pies	-11.52785
▁basketball	-11.52798
removing	-11.52806
Besides	-11.52829
▁Body	-11.52836
▁AD	-11.52837
RU	-11.52844
ţia	-11.52894
▁Extra	-11.52899
▁Practice	-11.52900
▁Jeff	-11.52902
▁început	-11.52925
ching	-11.52927
▁Gift	-11.52928
kk	-11.52930
")	-11.52935
▁Austin	-11.52965
thro	-11.52977
▁camping	-11.52981
▁theatre	-11.52985
école	-11.52992
vient	-11.53016
▁faces	-11.53023
▁constructed	-11.53044
▁overnight	-11.53047
▁locale	-11.53057
▁roots	-11.53061
▁bu	-11.53066
4,	-11.53068
▁Enterprise	-11.53087
screen	-11.53094
▁Chef	-11.53097
▁Along	-11.53130
▁MD	-11.53143
▁Supreme	-11.53160
En	-11.53166
▁verwendet	-11.53202
▁processed	-11.53243
▁vendors	-11.53255
▁FA	-11.53265
▁44	-11.53272
▁beautifully	-11.53293
▁eficient	-11.53309
▁Wil	-11.53312
▁Member	-11.53312
▁damages	-11.53327
▁mutual	-11.53329
SN	-11.53351
▁Dave	-11.53367
??	-11.53400
stat	-11.53409
▁tourist	-11.53437
fie	-11.53443
şte	-11.53475
▁donne	-11.53476
▁shadow	-11.53494
▁dough	-11.53499
▁Gro	-11.53500
▁Mah	-11.53507
RF	-11.53513
▁mechanism	-11.53516
▁2011,	-11.53518
▁Alter	-11.53531
▁opposed	-11.53539
▁Fri	-11.53550
▁remarkable	-11.53557
oral	-11.53564
▁verschiedene	-11.53565
▁difficulty	-11.53569
▁Application	-11.53584
▁Hay	-11.53589
▁continua	-11.53594
EP	-11.53610
▁Pr	-11.53617
▁Lady	-11.53632
▁interval	-11.53646
▁Mil	-11.53650
▁2010.	-11.53704
VE	-11.53707
integr	-11.53736
▁création	-11.53742
weed	-11.53746
EG	-11.53760
▁6,	-11.53778
▁god	-11.53787
▁accomplish	-11.53795
▁thoroughly	-11.53802
2019	-11.53823
izer	-11.53825
▁Wal	-11.53830
ifying	-11.53870
▁Wohn	-11.53923
▁Holz	-11.53947
▁Advanced	-11.53953
▁honey	-11.53963
proof	-11.53963
▁saison	-11.54003
ându	-11.54004
▁Kevin	-11.54012
▁shelter	-11.54020
▁discut	-11.54026
▁hike	-11.54026
ités	-11.54046
▁boutique	-11.54067
▁Email	-11.54068
▁cosmetic	-11.54083
dian	-11.54092
▁hohe	-11.54094
▁absence	-11.54107
axi	-11.54114
nah	-11.54118
▁Frauen	-11.54124
▁actively	-11.54128
bind	-11.54147
▁everybody	-11.54174
▁controller	-11.54180
▁1.5	-11.54181
erau	-11.54184
gehen	-11.54199
▁scenario	-11.54204
▁odd	-11.54208
▁Ultra	-11.54209
▁finishing	-11.54237
▁cuts	-11.54238
▁financing	-11.54252
▁Chance	-11.54258
surrounded	-11.54282
▁joc	-11.54290
▁shelf	-11.54300
tief	-11.54308
▁Sir	-11.54315
▁Agent	-11.54320
▁scratch	-11.54356
2,000	-11.54360
nutri	-11.54365
nier	-11.54406
▁Dur	-11.54418
▁grid	-11.54427
road	-11.54441
▁pets	-11.54443
stud	-11.54448
OM	-11.54457
Die	-11.54488
▁800	-11.54497
▁arrangement	-11.54509
▁Sri	-11.54519
▁Patrick	-11.54519
ava	-11.54521
▁pension	-11.54524
dung	-11.54535
▁Chapter	-11.54548
▁Property	-11.54548
▁structural	-11.54557
▁overview	-11.54573
2015	-11.54592
▁lawn	-11.54592
▁Vin	-11.54622
lik	-11.54640
dus	-11.54642
Several	-11.54655
▁Bou	-11.54667
▁copper	-11.54670
▁duration	-11.54687
inate	-11.54698
▁podcast	-11.54720
▁Self	-11.54721
▁Construction	-11.54749
achat	-11.54768
???	-11.54768
▁Electric	-11.54797
▁Mrs	-11.54800
▁CT	-11.54802
▁proceed	-11.54832
▁Course	-11.54833
▁Frei	-11.54870
▁heavily	-11.54887
rique	-11.54887
version	-11.54902
▁representatives	-11.54912
▁tourism	-11.54918
▁shirt	-11.54950
▁rough	-11.54951
▁weniger	-11.54974
▁keyboard	-11.55006
▁heritage	-11.55015
kat	-11.55054
assez	-11.55057
▁cabinets	-11.55059
▁Komm	-11.55076
▁impressed	-11.55078
▁Oregon	-11.55079
▁Davis	-11.55082
specialized	-11.55098
▁gross	-11.55100
Located	-11.55104
ttle	-11.55104
▁2010,	-11.55122
chan	-11.55125
mine	-11.55131
▁aduce	-11.55164
▁subsequent	-11.55173
▁demo	-11.55185
aba	-11.55221
▁shock	-11.55239
▁theater	-11.55285
▁engineers	-11.55294
▁feu	-11.55304
▁Rot	-11.55306
▁addressed	-11.55316
▁Letter	-11.55343
gré	-11.55345
▁quantity	-11.55345
▁Seit	-11.55364
▁bacteria	-11.55368
kg	-11.55408
▁conservation	-11.55419
▁entreprises	-11.55420
▁pleasant	-11.55421
armed	-11.55423
dorf	-11.55429
fact	-11.55432
▁Much	-11.55439
▁laugh	-11.55482
▁blade	-11.55484
amine	-11.55484
▁insert	-11.55493
▁toys	-11.55533
▁в	-11.55573
cell	-11.55575
▁strengthen	-11.55586
GR	-11.55588
▁autor	-11.55611
▁LI	-11.55615
▁oamenii	-11.55618
▁Modell	-11.55622
▁sophisticated	-11.55623
▁Write	-11.55628
eți	-11.55630
say	-11.55664
▁nutzen	-11.55678
▁amenities	-11.55698
chel	-11.55707
Unlike	-11.55720
▁Bilder	-11.55721
fertig	-11.55723
PER	-11.55724
▁apparently	-11.55728
▁pointed	-11.55733
lop	-11.55744
▁commande	-11.55785
▁NEW	-11.55792
▁primi	-11.55799
▁aluminum	-11.55805
ificare	-11.55806
open	-11.55815
▁establishment	-11.55831
▁blanc	-11.55835
▁1960	-11.55845
▁parameters	-11.55857
schluss	-11.55869
▁jet	-11.55879
gam	-11.55902
▁oral	-11.55929
▁tons	-11.55935
▁AL	-11.55935
▁intention	-11.55947
ives	-11.55974
▁BMW	-11.55984
gun	-11.55997
leben	-11.56005
▁Fresh	-11.56011
▁tuturor	-11.56019
▁marine	-11.56021
mile	-11.56026
▁alta	-11.56027
nnen	-11.56051
▁courts	-11.56053
▁Hello	-11.56079
BL	-11.56090
▁reply	-11.56096
environnement	-11.56098
American	-11.56100
▁Tell	-11.56104
▁chic	-11.56149
bir	-11.56154
▁singing	-11.56179
▁earnings	-11.56182
▁ensemble	-11.56208
▁($	-11.56217
▁Tout	-11.56219
▁Abs	-11.56226
▁describes	-11.56232
▁navigation	-11.56250
▁destul	-11.56253
legate	-11.56259
tral	-11.56260
aţie	-11.56275
▁supplied	-11.56278
▁paar	-11.56291
ionat	-11.56324
9.	-11.56326
▁41	-11.56335
▁Track	-11.56345
▁happiness	-11.56364
▁Personen	-11.56368
▁sac	-11.56373
▁shapes	-11.56377
eld	-11.56393
bett	-11.56396
tile	-11.56400
▁divided	-11.56404
▁13.	-11.56404
market	-11.56411
crafted	-11.56412
▁periods	-11.56412
uş	-11.56457
▁trainer	-11.56461
▁Licht	-11.56487
▁advisor	-11.56495
▁Herr	-11.56498
▁Halloween	-11.56515
alter	-11.56515
▁radical	-11.56516
▁nose	-11.56527
▁Sat	-11.56532
▁Mom	-11.56537
moni	-11.56538
▁semn	-11.56540
vé	-11.56567
identifie	-11.56570
▁hatten	-11.56596
completing	-11.56596
▁gust	-11.56596
▁creat	-11.56601
ché	-11.56608
pay	-11.56622
▁Money	-11.56623
IG	-11.56624
▁Cash	-11.56633
altă	-11.56642
▁bekommen	-11.56662
▁43	-11.56663
▁supplement	-11.56664
▁Early	-11.56675
▁mattress	-11.56692
▁worn	-11.56718
rov	-11.56720
▁pray	-11.56733
▁beans	-11.56767
▁passé	-11.56778
▁facilit	-11.56782
▁meters	-11.56784
cke	-11.56816
▁Villa	-11.56820
▁Diego	-11.56822
▁chips	-11.56824
▁mes	-11.56835
▁Seattle	-11.56842
BU	-11.56862
▁nevoi	-11.56871
▁lets	-11.56874
▁hopefully	-11.56894
▁AG	-11.56895
liable	-11.56900
pound	-11.56907
près	-11.56909
arul	-11.56920
isiert	-11.56928
▁Expert	-11.56930
▁particulier	-11.56937
stoff	-11.56995
▁interpretation	-11.56999
După	-11.57008
sait	-11.57012
▁nouvelles	-11.57017
▁Ok	-11.57018
tap	-11.57030
▁targets	-11.57033
rung	-11.57052
▁stare	-11.57058
▁efficiently	-11.57091
EV	-11.57100
évit	-11.57131
▁Moldova	-11.57154
▁Face	-11.57166
▁flo	-11.57169
▁acestora	-11.57171
▁Victor	-11.57184
▁breed	-11.57198
morph	-11.57223
sley	-11.57227
mot	-11.57234
▁URL	-11.57240
ellen	-11.57250
▁resist	-11.57278
zon	-11.57283
ndel	-11.57297
will	-11.57299
▁alege	-11.57308
▁Easter	-11.57311
▁Bat	-11.57319
▁Höhe	-11.57322
▁fascinating	-11.57339
▁Know	-11.57354
illon	-11.57360
flex	-11.57363
who	-11.57370
▁Always	-11.57373
▁Bush	-11.57378
ICE	-11.57401
verein	-11.57449
▁später	-11.57449
▁cherch	-11.57458
makers	-11.57475
versus	-11.57479
▁Clear	-11.57485
▁Pennsylvania	-11.57491
Dieser	-11.57504
▁picking	-11.57507
▁restoration	-11.57513
▁interviews	-11.57520
pressed	-11.57521
nnerhalb	-11.57567
▁connecting	-11.57583
jou	-11.57594
▁react	-11.57619
▁Merci	-11.57622
▁Phone	-11.57636
▁1)	-11.57652
▁victims	-11.57662
▁Spo	-11.57669
atului	-11.57674
▁Harry	-11.57684
▁Sala	-11.57688
Pol	-11.57708
▁Clo	-11.57717
▁Erfolg	-11.57721
autour	-11.57731
▁Template	-11.57731
▁invention	-11.57755
▁schwer	-11.57761
vac	-11.57763
▁Trail	-11.57763
▁Vietnam	-11.57764
▁Size	-11.57769
▁Bern	-11.57778
▁emp	-11.57785
▁shake	-11.57788
▁Ave	-11.57794
▁productive	-11.57801
▁apple	-11.57802
▁portal	-11.57805
▁ceramic	-11.57808
▁pad	-11.57811
▁Syn	-11.57832
Ab	-11.57845
▁syn	-11.57876
find	-11.57889
▁settle	-11.57891
▁général	-11.57897
▁okay	-11.57903
▁receipt	-11.57906
orii	-11.57912
▁Mission	-11.57912
entrée	-11.57930
▁besteht	-11.57939
▁wisdom	-11.57950
▁heraus	-11.57965
▁balanced	-11.57975
▁habits	-11.57977
tang	-11.57989
ură	-11.58015
▁winners	-11.58018
ç	-11.58022
▁folosi	-11.58024
aliment	-11.58026
▁fiction	-11.58037
▁Spe	-11.58053
▁elsewhere	-11.58066
▁dependent	-11.58081
▁Anne	-11.58117
▁excellence	-11.58170
▁Feel	-11.58175
lieb	-11.58181
▁sectors	-11.58187
▁expir	-11.58189
▁surfaces	-11.58191
▁minim	-11.58194
▁tumor	-11.58204
▁paragraph	-11.58229
▁disk	-11.58232
▁tonight	-11.58238
▁precious	-11.58279
▁console	-11.58288
Th	-11.58294
neu	-11.58302
effective	-11.58393
▁Republican	-11.58394
format	-11.58430
▁preserve	-11.58436
▁wiring	-11.58460
▁exercises	-11.58476
▁pregnancy	-11.58477
tries	-11.58482
▁jeunes	-11.58488
▁publishing	-11.58493
▁nehmen	-11.58494
▁capability	-11.58496
▁prompt	-11.58497
▁Further	-11.58497
▁semaine	-11.58517
abo	-11.58522
▁evolution	-11.58532
▁Sud	-11.58540
▁frais	-11.58553
LT	-11.58562
▁stack	-11.58582
▁Inside	-11.58585
▁programmes	-11.58600
▁passes	-11.58620
mü	-11.58647
▁progressive	-11.58652
▁calculator	-11.58658
▁Core	-11.58666
BT	-11.58696
core	-11.58700
▁Moon	-11.58700
▁tender	-11.58704
durch	-11.58722
▁commune	-11.58745
▁Prince	-11.58759
▁demonstrated	-11.58769
▁conversations	-11.58789
▁fri	-11.58798
igh	-11.58799
being	-11.58833
pause	-11.58854
▁Bear	-11.58872
ayant	-11.58888
▁Industry	-11.58897
▁sponsor	-11.58901
▁numele	-11.58910
▁VA	-11.58917
▁Sommer	-11.58937
TB	-11.58938
▁optional	-11.58951
▁Landes	-11.58981
coli	-11.58996
empt	-11.59018
▁Iron	-11.59062
▁1992	-11.59091
▁attempts	-11.59091
halb	-11.59096
▁photographer	-11.59098
▁witness	-11.59098
bru	-11.59107
▁Ras	-11.59108
▁burden	-11.59114
▁kaufen	-11.59126
▁vu	-11.59136
▁Wedding	-11.59160
▁Kla	-11.59160
occasion	-11.59192
▁keys	-11.59213
▁oferi	-11.59228
▁puzzle	-11.59230
eaux	-11.59254
▁Eco	-11.59281
▁52	-11.59282
▁Elizabeth	-11.59284
▁dispose	-11.59314
▁cluster	-11.59326
iki	-11.59328
▁Guys	-11.59360
▁Economic	-11.59363
▁apar	-11.59368
▁ziua	-11.59369
▁integral	-11.59374
▁tac	-11.59376
▁restrictions	-11.59378
▁nerve	-11.59379
▁Stop	-11.59386
burger	-11.59390
explo	-11.59394
lö	-11.59396
NP	-11.59408
▁Brook	-11.59419
▁Close	-11.59428
▁representing	-11.59447
▁certaine	-11.59477
▁discovery	-11.59484
▁rece	-11.59496
FF	-11.59497
▁salary	-11.59507
▁Wolf	-11.59514
▁deserve	-11.59517
ţele	-11.59542
gathered	-11.59593
▁comply	-11.59599
lagen	-11.59603
ătoare	-11.59619
▁relate	-11.59641
▁Roger	-11.59657
▁blame	-11.59658
▁Jen	-11.59691
▁army	-11.59694
▁$10	-11.59713
▁Cabinet	-11.59719
Gu	-11.59737
▁wildlife	-11.59745
▁Memorial	-11.59764
▁Holiday	-11.59774
▁curat	-11.59829
iilor	-11.59830
▁fleet	-11.59841
▁reviewed	-11.59844
cet	-11.59845
▁virtually	-11.59849
▁Crusher	-11.59852
▁slide	-11.59858
▁générale	-11.59860
▁sensation	-11.59863
▁garlic	-11.59864
5)	-11.59866
▁batteries	-11.59876
SH	-11.59877
▁seller	-11.59883
design	-11.59887
5.	-11.59894
▁Overall	-11.59897
▁investigate	-11.59906
max	-11.59906
▁attach	-11.59917
▁Future	-11.59921
OUR	-11.59928
▁LE	-11.59968
▁bite	-11.59981
tige	-11.59987
▁twist	-11.59988
hole	-11.60018
▁Tony	-11.60051
LU	-11.60060
▁Organization	-11.60062
▁invit	-11.60063
▁Ant	-11.60074
NR	-11.60079
sorgt	-11.60085
▁Lan	-11.60086
▁Manchester	-11.60091
schrift	-11.60107
▁kg	-11.60115
▁aroma	-11.60133
▁Source	-11.60139
▁permite	-11.60145
▁Consider	-11.60146
▁Artist	-11.60163
▁transmit	-11.60178
oasa	-11.60183
▁Zen	-11.60199
ANT	-11.60224
▁consulting	-11.60240
▁commence	-11.60254
▁quilt	-11.60261
owned	-11.60264
▁bro	-11.60269
▁integrate	-11.60272
▁Ontario	-11.60278
TF	-11.60283
▁Study	-11.60289
▁ensuite	-11.60316
itatii	-11.60318
Mon	-11.60324
-11	-11.60330
what	-11.60338
▁Things	-11.60361
▁Eye	-11.60382
▁présente	-11.60383
tention	-11.60392
|	-11.60396
stall	-11.60396
▁beef	-11.60399
figur	-11.60401
▁cancel	-11.60415
▁domeniul	-11.60425
▁360	-11.60429
▁sleeping	-11.60456
▁traitement	-11.60458
ühl	-11.60477
▁Environmental	-11.60484
cier	-11.60489
▁NC	-11.60491
pub	-11.60493
▁addiction	-11.60507
▁nest	-11.60513
▁ON	-11.60540
▁discrimin	-11.60540
▁proved	-11.60552
▁occasions	-11.60586
OH	-11.60618
▁lawyers	-11.60620
own	-11.60629
▁Meeting	-11.60660
▁Industrial	-11.60670
owed	-11.60674
▁Cel	-11.60679
legt	-11.60707
ily	-11.60709
▁wins	-11.60716
▁strap	-11.60737
digit	-11.60744
▁hinaus	-11.60750
mple	-11.60771
▁(5	-11.60780
▁pdf	-11.60789
▁eco	-11.60792
▁junior	-11.60817
DB	-11.60856
gelegt	-11.60864
ION	-11.60868
▁competitors	-11.60880
▁Arab	-11.60898
▁Secret	-11.60915
▁Kunst	-11.60928
▁worried	-11.60930
meiner	-11.60938
▁Magic	-11.60945
▁groß	-11.60954
▁travaux	-11.60975
▁sollen	-11.60977
▁Sciences	-11.60985
▁athletes	-11.61006
▁discounts	-11.61008
kit	-11.61021
lind	-11.61031
▁enjoyable	-11.61042
ground	-11.61049
▁Tat	-11.61053
▁passengers	-11.61058
▁Dami	-11.61068
▁Major	-11.61071
watch	-11.61080
working	-11.61091
arrêt	-11.61092
▁subtle	-11.61107
▁epi	-11.61120
▁Jahres	-11.61128
▁cooling	-11.61142
▁makeup	-11.61143
jet	-11.61150
▁Given	-11.61152
plex	-11.61158
▁exploit	-11.61159
rine	-11.61160
▁delivers	-11.61212
▁summary	-11.61224
▁beaches	-11.61246
lift	-11.61255
▁Suite	-11.61255
▁Assistant	-11.61269
▁taxi	-11.61273
▁peaceful	-11.61281
▁Mode	-11.61298
▁Fun	-11.61306
▁diameter	-11.61314
▁phrase	-11.61315
ACT	-11.61327
▁différentes	-11.61332
▁14.	-11.61342
▁CE	-11.61353
▁2)	-11.61374
▁Nat	-11.61379
▁delete	-11.61388
other	-11.61393
hang	-11.61399
▁sujet	-11.61412
▁precise	-11.61421
▁Total	-11.61429
▁chambre	-11.61448
sati	-11.61467
▁Metal	-11.61500
rust	-11.61504
▁Brazil	-11.61551
▁hybrid	-11.61564
ops	-11.61569
▁electro	-11.61579
utz	-11.61609
▁quoi	-11.61625
▁adoption	-11.61633
3.5	-11.61652
50,000	-11.61660
veti	-11.61663
hir	-11.61696
▁adequate	-11.61707
ologist	-11.61711
torii	-11.61730
wasser	-11.61736
▁Authority	-11.61736
▁donation	-11.61736
700	-11.61738
▁somehow	-11.61738
▁kostenlos	-11.61743
▁generations	-11.61754
▁Turkey	-11.61771
rata	-11.61782
▁animation	-11.61821
▁CH	-11.61828
ending	-11.61832
welt	-11.61838
bac	-11.61838
MG	-11.61846
▁parks	-11.61847
▁placing	-11.61887
sort	-11.61915
▁Bitcoin	-11.61916
▁disorder	-11.61928
MAN	-11.61930
aught	-11.61941
▁guides	-11.61957
▁circul	-11.61965
▁Steven	-11.61995
rrière	-11.61998
▁Arch	-11.61999
▁plates	-11.62009
MR	-11.62012
▁cow	-11.62014
▁integrity	-11.62021
▁(18	-11.62022
▁totul	-11.62024
jack	-11.62037
▁privire	-11.62059
▁terme	-11.62075
▁execution	-11.62078
▁organism	-11.62084
▁führen	-11.62085
▁patron	-11.62094
▁appreciated	-11.62097
liant	-11.62101
▁Solar	-11.62106
▁vinyl	-11.62113
▁treasure	-11.62114
▁retro	-11.62117
▁bout	-11.62117
lab	-11.62118
▁dimension	-11.62139
called	-11.62146
▁intern	-11.62148
issement	-11.62174
▁Erst	-11.62184
▁stellen	-11.62192
▁familia	-11.62207
▁notion	-11.62218
▁Could	-11.62232
Getting	-11.62232
▁drives	-11.62240
▁Israeli	-11.62252
▁nations	-11.62255
▁duties	-11.62270
▁personalized	-11.62279
▁weren	-11.62283
▁chemicals	-11.62285
▁killing	-11.62291
▁masa	-11.62299
▁parce	-11.62303
▁lady	-11.62318
ides	-11.62322
▁execut	-11.62340
▁floral	-11.62342
▁Child	-11.62343
▁medal	-11.62350
▁casa	-11.62360
▁enabled	-11.62365
12.	-11.62424
nger	-11.62427
▁vent	-11.62430
▁urmă	-11.62473
▁Herz	-11.62484
▁Jay	-11.62492
.....	-11.62494
▁Kris	-11.62500
kenn	-11.62500
ress	-11.62503
weight	-11.62519
▁indicates	-11.62520
▁mentor	-11.62533
using	-11.62539
▁femmes	-11.62546
▁Jung	-11.62553
▁Send	-11.62557
▁seasons	-11.62591
▁aesthetic	-11.62596
▁Block	-11.62609
▁babies	-11.62615
zig	-11.62624
edge	-11.62643
▁alike	-11.62646
▁immune	-11.62661
▁magical	-11.62671
▁Snow	-11.62675
▁spacious	-11.62706
▁Melbourne	-11.62706
order	-11.62708
▁timing	-11.62718
▁inainte	-11.62722
▁width	-11.62733
bild	-11.62739
Tra	-11.62743
▁appliances	-11.62745
▁dirt	-11.62750
▁Rent	-11.62769
responsibilities	-11.62775
▁blogs	-11.62778
nächsten	-11.62780
▁argue	-11.62793
▁Resume	-11.62799
▁Michel	-11.62804
▁terrible	-11.62809
graph	-11.62815
bird	-11.62820
▁Simple	-11.62846
nning	-11.62866
▁coconut	-11.62868
▁comprise	-11.62879
heure	-11.62892
▁nichts	-11.62892
▁manufacture	-11.62897
▁Sar	-11.62901
green	-11.62901
lining	-11.62910
▁tremendous	-11.62913
▁Wine	-11.62916
gir	-11.62929
▁Nothing	-11.62956
▁Miller	-11.62958
▁Schwe	-11.62971
zone	-11.62994
▁cunoscut	-11.62996
rupt	-11.63017
kle	-11.63019
▁Bucuresti	-11.63051
▁Abend	-11.63057
▁aura	-11.63058
▁Dance	-11.63073
▁Wilson	-11.63087
icide	-11.63090
bai	-11.63091
oriented	-11.63103
▁celebrated	-11.63142
schlag	-11.63153
▁10-	-11.63160
Unsere	-11.63168
énergie	-11.63201
▁qualify	-11.63206
▁contenu	-11.63218
▁Lauf	-11.63221
▁einzelne	-11.63236
▁Youth	-11.63242
explains	-11.63260
grat	-11.63278
▁72	-11.63280
labor	-11.63289
2018	-11.63294
▁Dank	-11.63315
▁Hey	-11.63352
▁refuse	-11.63354
▁graduated	-11.63360
▁României	-11.63363
punkt	-11.63381
▁regulation	-11.63383
Bru	-11.63384
▁Side	-11.63389
▁sol	-11.63397
▁extraordinary	-11.63418
▁ging	-11.63425
▁Creative	-11.63430
▁expanding	-11.63435
▁problème	-11.63445
▁Reserve	-11.63459
auteur	-11.63464
sphere	-11.63466
season	-11.63472
frei	-11.63476
▁8,	-11.63477
▁filing	-11.63481
▁Complete	-11.63502
▁revolution	-11.63504
▁unele	-11.63521
/8	-11.63527
istes	-11.63531
backed	-11.63540
shirt	-11.63555
▁Details	-11.63567
rod	-11.63570
▁pod	-11.63583
▁operators	-11.63592
was	-11.63593
hou	-11.63595
▁Coach	-11.63608
irii	-11.63614
▁ordinary	-11.63619
Institut	-11.63621
▁Flash	-11.63634
0-	-11.63654
▁flavour	-11.63678
specific	-11.63691
▁landing	-11.63693
▁geo	-11.63694
▁legend	-11.63698
vari	-11.63703
rop	-11.63708
▁Excel	-11.63708
▁Flu	-11.63720
▁intent	-11.63758
▁Deep	-11.63759
▁Kor	-11.63763
▁Philadelphia	-11.63791
▁rând	-11.63800
▁USD	-11.63803
laden	-11.63803
▁Hin	-11.63805
hap	-11.63820
▁thorough	-11.63823
▁oferit	-11.63827
kind	-11.63832
▁Cancer	-11.63843
apo	-11.63860
▁valve	-11.63865
▁encouraging	-11.63884
▁sûr	-11.63890
shing	-11.63898
▁49	-11.63913
gov	-11.63914
▁Five	-11.63933
▁stroke	-11.63934
▁apă	-11.63940
▁gambling	-11.63954
▁nord	-11.63964
onal	-11.63969
▁captured	-11.63980
▁lucruri	-11.64007
serait	-11.64019
▁Members	-11.64027
ital	-11.64028
▁mounted	-11.64048
▁opens	-11.64079
▁Marie	-11.64086
Tech	-11.64090
▁wishes	-11.64102
▁regards	-11.64107
going	-11.64116
Opti	-11.64125
▁femei	-11.64133
▁Fish	-11.64143
▁mount	-11.64180
▁Hunt	-11.64189
▁probabil	-11.64205
▁assured	-11.64219
pho	-11.64223
▁manufactured	-11.64231
▁realistic	-11.64244
ații	-11.64258
▁Planning	-11.64260
▁român	-11.64265
ggy	-11.64267
▁produces	-11.64270
▁reminder	-11.64285
TION	-11.64287
▁brake	-11.64291
▁pla	-11.64317
▁Premium	-11.64327
▁carb	-11.64331
▁shine	-11.64339
▁carrier	-11.64349
▁poverty	-11.64350
▁effectiveness	-11.64361
administr	-11.64366
▁Chamber	-11.64366
▁suntem	-11.64376
▁noastră	-11.64386
▁sofort	-11.64388
▁moisture	-11.64406
limb	-11.64410
entre	-11.64433
▁SD	-11.64433
▁BC	-11.64454
▁selecting	-11.64460
achieving	-11.64467
info	-11.64474
▁membres	-11.64498
▁shoe	-11.64501
▁locate	-11.64507
▁assignment	-11.64509
lern	-11.64528
▁defeat	-11.64541
▁endless	-11.64546
▁Stunden	-11.64552
то	-11.64556
▁mur	-11.64559
▁wissen	-11.64584
aime	-11.64592
1-2	-11.64606
▁femme	-11.64621
robe	-11.64647
▁embrace	-11.64647
▁baseball	-11.64661
▁hunting	-11.64663
betrieb	-11.64679
▁gardens	-11.64705
▁risc	-11.64710
▁Cri	-11.64726
best	-11.64751
▁Audio	-11.64762
▁intens	-11.64766
▁Round	-11.64774
▁fireplace	-11.64783
▁dozen	-11.64791
▁hospitals	-11.64802
▁profits	-11.64808
▁Mail	-11.64812
obtenir	-11.64819
▁Ross	-11.64824
bun	-11.64857
polar	-11.64869
▁reflection	-11.64887
▁fut	-11.64899
phon	-11.64902
deck	-11.64909
renowned	-11.64919
▁cate	-11.64931
▁decorative	-11.64947
ieri	-11.64957
▁Tap	-11.64958
▁Dallas	-11.64960
rik	-11.64967
▁pied	-11.64973
rés	-11.64982
ppy	-11.65014
▁bitte	-11.65019
▁cave	-11.65026
▁rescue	-11.65056
▁Hilfe	-11.65071
▁Jason	-11.65079
▁Nations	-11.65084
▁profil	-11.65094
▁Atlantic	-11.65111
▁rub	-11.65113
▁collaborative	-11.65113
étude	-11.65115
▁Workshop	-11.65139
nez	-11.65163
▁chacun	-11.65171
▁Too	-11.65211
App	-11.65231
▁conseil	-11.65240
▁signals	-11.65247
▁Dead	-11.65250
▁Austria	-11.65252
▁slots	-11.65258
▁Dies	-11.65262
raj	-11.65263
stick	-11.65283
▁jaw	-11.65303
▁lounge	-11.65306
curi	-11.65336
nem	-11.65346
▁Cluj	-11.65351
▁rapide	-11.65358
▁companion	-11.65372
▁WE	-11.65388
▁bord	-11.65389
ody	-11.65405
gru	-11.65406
▁46	-11.65441
kra	-11.65472
eller	-11.65477
naire	-11.65512
hose	-11.65525
▁Atlanta	-11.65525
▁violent	-11.65531
▁imagination	-11.65535
▁reward	-11.65539
▁Korean	-11.65544
▁branches	-11.65550
▁GPS	-11.65563
glo	-11.65563
▁condo	-11.65571
▁Investment	-11.65577
▁involvement	-11.65581
▁trap	-11.65583
▁schön	-11.65587
▁ofera	-11.65593
▁unterschiedlich	-11.65597
Net	-11.65599
▁predict	-11.65611
identifying	-11.65631
▁noir	-11.65662
kos	-11.65682
poz	-11.65682
▁11,	-11.65699
▁fitted	-11.65738
MU	-11.65747
TT	-11.65765
▁vrea	-11.65785
▁wound	-11.65786
lac	-11.65797
▁purchases	-11.65841
▁Cape	-11.65844
▁Foto	-11.65854
▁acres	-11.65866
▁nec	-11.65868
▁burning	-11.65905
conf	-11.65946
▁browse	-11.65949
ural	-11.65976
▁Ah	-11.65984
▁stellt	-11.65992
▁ratings	-11.66001
▁Bowl	-11.66003
▁grav	-11.66029
titi	-11.66049
▁prêt	-11.66075
▁fallen	-11.66082
▁nombreuses	-11.66094
train	-11.66095
ène	-11.66101
Aceasta	-11.66109
▁drill	-11.66142
▁Exam	-11.66148
▁Furniture	-11.66165
eanu	-11.66192
étant	-11.66230
sville	-11.66239
▁swim	-11.66280
▁routes	-11.66283
INE	-11.66286
▁Por	-11.66298
ither	-11.66317
▁optim	-11.66318
▁lua	-11.66332
▁myth	-11.66349
▁Bett	-11.66351
chim	-11.66355
▁cyber	-11.66355
▁engineer	-11.66383
▁exploration	-11.66392
arranged	-11.66397
▁aged	-11.66399
▁beau	-11.66402
OUT	-11.66403
▁Minnesota	-11.66403
tress	-11.66441
▁Commercial	-11.66451
▁inspiring	-11.66463
▁Mare	-11.66473
apa	-11.66514
▁ignore	-11.66516
▁gros	-11.66519
▁measurement	-11.66532
ager	-11.66540
intele	-11.66597
▁suspension	-11.66618
▁cultures	-11.66621
▁Wow	-11.66623
▁pushing	-11.66636
▁bands	-11.66644
nage	-11.66645
▁Math	-11.66652
comb	-11.66659
▁créer	-11.66659
▁Lewis	-11.66669
▁VI	-11.66679
emploi	-11.66679
▁elections	-11.66689
▁logic	-11.66698
▁unlike	-11.66712
▁Matthew	-11.66743
▁pă	-11.66749
oxy	-11.66762
équipe	-11.66772
▁worden	-11.66809
dev	-11.66826
▁Massachusetts	-11.66869
▁Return	-11.66870
▁Friends	-11.66891
▁movements	-11.66894
chie	-11.66896
rak	-11.66902
▁Fit	-11.66904
▁copil	-11.66911
iunii	-11.66919
▁intensive	-11.66923
▁rug	-11.66945
lichkeit	-11.66969
kov	-11.66972
▁pense	-11.66979
pop	-11.66979
▁closet	-11.66987
▁prevention	-11.66992
▁Deb	-11.67026
▁devant	-11.67043
▁construit	-11.67044
▁breaks	-11.67082
otic	-11.67089
▁dig	-11.67089
▁près	-11.67093
chte	-11.67103
▁Chat	-11.67103
wel	-11.67122
▁edges	-11.67127
▁keen	-11.67142
▁infant	-11.67172
▁Hills	-11.67194
▁grounds	-11.67197
▁hab	-11.67204
▁Mun	-11.67215
▁references	-11.67222
▁hearts	-11.67245
exprim	-11.67249
▁tratament	-11.67255
LD	-11.67258
ssel	-11.67275
cover	-11.67278
bridge	-11.67284
▁Wein	-11.67292
▁voiture	-11.67304
▁Gemeinde	-11.67313
AI	-11.67317
▁renovation	-11.67326
bid	-11.67329
▁Reading	-11.67348
▁Gor	-11.67349
fur	-11.67353
▁Yoga	-11.67354
▁exclusively	-11.67363
▁emissions	-11.67385
ète	-11.67391
▁glasses	-11.67406
▁organizat	-11.67414
▁washing	-11.67416
▁Audi	-11.67417
▁Labor	-11.67433
▁legacy	-11.67438
▁abstract	-11.67452
▁knowledgeable	-11.67460
▁Glo	-11.67480
▁pregnant	-11.67482
liter	-11.67485
▁paintings	-11.67522
▁tête	-11.67524
voy	-11.67563
▁Jacob	-11.67567
▁dressing	-11.67568
▁provisions	-11.67577
bahn	-11.67587
▁depict	-11.67588
AW	-11.67607
▁bleibt	-11.67616
AND	-11.67629
▁fünf	-11.67639
▁hosts	-11.67643
vas	-11.67671
DO	-11.67675
▁max	-11.67675
▁contributed	-11.67677
roz	-11.67680
▁deschis	-11.67680
itaire	-11.67681
tube	-11.67696
▁Beck	-11.67696
▁curious	-11.67713
▁waves	-11.67718
▁regret	-11.67725
FO	-11.67733
droit	-11.67734
rö	-11.67757
▁Panel	-11.67762
▁pile	-11.67766
▁installing	-11.67767
▁Intr	-11.67780
nung	-11.67782
▁Outdoor	-11.67786
▁generator	-11.67787
▁zahlreiche	-11.67787
▁Third	-11.67813
frac	-11.67818
ovi	-11.67824
▁Casa	-11.67837
▁stomach	-11.67839
▁Lincoln	-11.67844
▁Electronic	-11.67858
coding	-11.67895
2017	-11.67900
▁friendship	-11.67924
ried	-11.67925
но	-11.67927
▁tail	-11.67927
▁petits	-11.67931
▁réseau	-11.67970
▁churches	-11.68000
▁marketplace	-11.68006
▁Pool	-11.68032
▁popularity	-11.68046
▁sprijin	-11.68050
▁Od	-11.68053
▁Transfer	-11.68056
▁fake	-11.68079
▁9,	-11.68101
▁weit	-11.68126
▁relaxed	-11.68142
pig	-11.68162
▁Lauren	-11.68167
gesetzt	-11.68167
▁Clar	-11.68169
▁unlikely	-11.68173
color	-11.68183
▁spouse	-11.68184
▁facile	-11.68186
▁Speed	-11.68187
KE	-11.68223
▁PO	-11.68231
▁Channel	-11.68232
argent	-11.68236
▁Making	-11.68243
▁Coll	-11.68259
cci	-11.68272
corresponding	-11.68301
▁heaven	-11.68316
ţă	-11.68319
▁darüber	-11.68324
acted	-11.68342
only	-11.68346
▁slight	-11.68347
lian	-11.68349
flă	-11.68351
▁vulnerable	-11.68353
▁creator	-11.68357
▁protecting	-11.68360
writing	-11.68361
▁Ter	-11.68387
▁barb	-11.68399
▁dată	-11.68400
▁Screen	-11.68405
▁BBC	-11.68408
Col	-11.68421
fung	-11.68445
▁dreptul	-11.68449
derived	-11.68454
▁designated	-11.68455
▁interactions	-11.68462
SG	-11.68462
▁häufig	-11.68463
▁Mega	-11.68464
▁jazz	-11.68466
lbs	-11.68480
▁Manual	-11.68484
pushed	-11.68502
▁analytics	-11.68523
▁lawsuit	-11.68534
▁gray	-11.68536
shirts	-11.68540
▁hill	-11.68551
▁1991	-11.68551
▁obligations	-11.68557
▁Dubai	-11.68580
()	-11.68581
▁acceptable	-11.68581
therapist	-11.68588
inger	-11.68610
▁territory	-11.68621
▁sang	-11.68622
ät	-11.68622
▁Zukunft	-11.68624
TU	-11.68657
▁horizontal	-11.68666
▁entrepreneurs	-11.68671
▁Eltern	-11.68702
▁presentations	-11.68713
▁confirmation	-11.68717
▁technological	-11.68743
▁1989	-11.68753
EF	-11.68764
ponent	-11.68766
NET	-11.68770
750	-11.68777
▁desert	-11.68789
▁contribu	-11.68793
▁Gun	-11.68794
▁Juli	-11.68809
ERS	-11.68826
▁inceput	-11.68826
▁answered	-11.68837
▁basement	-11.68841
film	-11.68843
▁taille	-11.68859
▁survival	-11.68866
ihnen	-11.68869
▁Bird	-11.68884
speed	-11.68934
▁journalist	-11.68942
▁Indonesia	-11.68963
▁15.	-11.68997
▁19.	-11.69003
étaient	-11.69011
▁tennis	-11.69025
▁aproximativ	-11.69039
▁Hans	-11.69065
▁Remove	-11.69067
▁cats	-11.69102
▁calories	-11.69105
▁limitations	-11.69120
▁subscribe	-11.69120
▁Dem	-11.69134
lust	-11.69137
▁adresa	-11.69139
▁sais	-11.69141
..."	-11.69147
▁Luft	-11.69149
DL	-11.69160
▁estimates	-11.69160
▁protocol	-11.69160
▁Namen	-11.69178
▁grands	-11.69190
▁voter	-11.69197
▁vacuum	-11.69208
▁versch	-11.69210
▁Democratic	-11.69211
▁Books	-11.69217
▁frames	-11.69273
▁Bee	-11.69286
▁helfen	-11.69293
▁dive	-11.69296
▁physician	-11.69304
▁powered	-11.69313
▁zones	-11.69334
▁regime	-11.69345
check	-11.69358
11.	-11.69379
▁plaisir	-11.69379
▁physically	-11.69381
▁Pul	-11.69425
▁jardin	-11.69429
▁Nur	-11.69442
WC	-11.69443
▁Lock	-11.69451
▁économique	-11.69453
user	-11.69454
▁commit	-11.69473
▁oldest	-11.69476
▁fulfill	-11.69478
▁nervous	-11.69482
▁SH	-11.69501
SK	-11.69515
▁plein	-11.69529
show	-11.69535
▁disability	-11.69536
papier	-11.69545
▁Corp	-11.69561
ători	-11.69568
nţă	-11.69581
▁overseas	-11.69601
▁struck	-11.69603
astic	-11.69607
▁advised	-11.69609
BE	-11.69616
▁UV	-11.69622
patient	-11.69626
▁texte	-11.69634
▁timely	-11.69644
used	-11.69647
▁occasionally	-11.69652
▁entries	-11.69655
underlying	-11.69672
01.	-11.69675
▁automated	-11.69679
yes	-11.69683
▁Staff	-11.69706
▁Einzel	-11.69755
quit	-11.69769
▁Cela	-11.69795
▁snap	-11.69830
▁followers	-11.69833
CN	-11.69871
▁Cooper	-11.69889
ô	-11.69892
▁memorable	-11.69897
▁jur	-11.69900
▁ajutorul	-11.69906
▁Enter	-11.69915
Often	-11.69929
▁dintr	-11.69934
-30	-11.69942
ESS	-11.69945
▁weird	-11.69946
▁Animal	-11.69971
▁complement	-11.69972
▁Bot	-11.69976
▁darf	-11.69976
yed	-11.69981
▁Mul	-11.69987
lick	-11.70008
▁Cambridge	-11.70022
adore	-11.70041
▁Dutch	-11.70042
▁Castle	-11.70043
igi	-11.70056
▁enemy	-11.70071
accompanied	-11.70073
▁teren	-11.70110
▁ET	-11.70150
ffle	-11.70156
-15	-11.70165
▁Geo	-11.70168
▁attractions	-11.70173
iker	-11.70186
▁bă	-11.70199
▁heal	-11.70200
weisen	-11.70214
▁spectrum	-11.70219
meld	-11.70239
▁eveniment	-11.70248
arra	-11.70248
rete	-11.70250
▁Had	-11.70250
looking	-11.70269
isierung	-11.70281
▁moyen	-11.70313
▁gesamte	-11.70320
▁destroy	-11.70341
125	-11.70352
▁suivant	-11.70391
▁declared	-11.70393
▁Urban	-11.70413
▁16.	-11.70417
▁Beg	-11.70417
▁canal	-11.70423
▁Pres	-11.70431
▁geeignet	-11.70434
▁strat	-11.70437
UB	-11.70440
▁Alexander	-11.70442
cycle	-11.70467
▁Var	-11.70480
▁domin	-11.70481
▁lasting	-11.70494
terio	-11.70526
▁Battle	-11.70534
▁publications	-11.70565
▁implica	-11.70589
▁NA	-11.70596
▁stocks	-11.70604
Plat	-11.70612
▁excitement	-11.70615
▁Muslim	-11.70652
▁Mari	-11.70653
▁Ul	-11.70665
nächst	-11.70676
▁trait	-11.70683
▁(3)	-11.70685
▁Attorney	-11.70689
▁Malaysia	-11.70690
▁slab	-11.70696
▁dam	-11.70711
▁Bir	-11.70723
▁sing	-11.70738
▁Culture	-11.70740
UD	-11.70742
▁Mes	-11.70744
ități	-11.70762
▁possess	-11.70817
enabling	-11.70820
▁settled	-11.70834
▁sagen	-11.70849
▁erfolgt	-11.70856
dog	-11.70860
ndu	-11.70873
ității	-11.70875
▁Islam	-11.70893
▁catalog	-11.70893
▁simt	-11.70910
tische	-11.70915
▁Mach	-11.70933
▁EP	-11.70936
▁Certified	-11.70939
▁Resources	-11.70946
▁Past	-11.70961
▁Termin	-11.70976
▁lightweight	-11.70976
▁championship	-11.70995
gebiet	-11.71012
▁jurisdiction	-11.71014
▁euros	-11.71017
▁Familien	-11.71055
▁GT	-11.71068
▁dvs	-11.71081
▁nouveaux	-11.71084
▁chill	-11.71092
▁ridicat	-11.71092
his	-11.71108
▁Indi	-11.71116
▁arrested	-11.71117
ităţii	-11.71117
onul	-11.71127
appar	-11.71130
▁Bachelor	-11.71130
▁erfolgreich	-11.71143
▁versatile	-11.71164
▁nécessaire	-11.71176
▁facial	-11.71216
▁Bull	-11.71223
Comm	-11.71224
atte	-11.71231
hom	-11.71234
start	-11.71258
▁roughly	-11.71294
▁bay	-11.71298
▁american	-11.71299
▁Wisconsin	-11.71314
▁Clinton	-11.71314
appareil	-11.71315
▁liberal	-11.71346
▁dau	-11.71352
ech	-11.71352
2014	-11.71362
▁lip	-11.71365
▁maintenant	-11.71376
▁Sil	-11.71381
rben	-11.71389
▁contents	-11.71398
▁magnetic	-11.71411
▁terre	-11.71415
▁Rights	-11.71448
lose	-11.71457
▁crown	-11.71468
▁oils	-11.71472
▁entertaining	-11.71484
▁Option	-11.71485
▁Previous	-11.71492
▁vrai	-11.71493
▁Auswahl	-11.71506
▁horses	-11.71511
▁Author	-11.71533
▁Writing	-11.71546
▁travelling	-11.71552
▁350	-11.71557
daten	-11.71560
zan	-11.71577
▁sweat	-11.71592
▁Junior	-11.71597
markt	-11.71610
after	-11.71611
▁admitted	-11.71626
▁1950	-11.71635
▁Sche	-11.71648
▁dorit	-11.71682
▁transferred	-11.71696
utilise	-11.71719
sitz	-11.71730
gio	-11.71732
▁bisher	-11.71747
RD	-11.71749
▁Wales	-11.71775
▁smoking	-11.71790
dire	-11.71794
▁seating	-11.71798
▁constat	-11.71806
▁Hub	-11.71832
▁sieht	-11.71835
▁prospect	-11.71838
▁RO	-11.71841
▁Wars	-11.71842
eek	-11.71850
▁Bring	-11.71865
▁bleiben	-11.71870
arri	-11.71883
inal	-11.71890
▁Maryland	-11.71893
▁Process	-11.71915
They	-11.71915
▁Oxford	-11.71918
▁neat	-11.71933
▁cinema	-11.71960
▁Ist	-11.71962
▁vegan	-11.71968
wall	-11.71971
▁motive	-11.72011
▁mature	-11.72054
▁Dragon	-11.72065
▁google	-11.72068
blick	-11.72111
▁Cod	-11.72122
▁suffi	-11.72132
▁terrorist	-11.72148
Posted	-11.72148
▁Schi	-11.72157
▁Marc	-11.72160
▁operates	-11.72166
gress	-11.72181
has	-11.72190
sole	-11.72211
▁Buck	-11.72212
impl	-11.72216
▁Ron	-11.72217
▁handled	-11.72235
▁Apr	-11.72235
▁Storage	-11.72247
▁temp	-11.72251
▁differently	-11.72261
▁wherever	-11.72267
matched	-11.72270
rios	-11.72276
▁surprising	-11.72285
teilen	-11.72287
▁difficulties	-11.72295
tab	-11.72306
▁Leader	-11.72313
implementing	-11.72337
▁workforce	-11.72338
▁bereit	-11.72350
vig	-11.72352
▁LOVE	-11.72358
▁instances	-11.72395
▁frumos	-11.72396
▁Java	-11.72397
▁arrest	-11.72398
▁apparent	-11.72415
▁hence	-11.72420
▁entwickelt	-11.72438
▁Fra	-11.72447
▁prend	-11.72449
ließ	-11.72452
▁drawer	-11.72467
ARD	-11.72493
▁caring	-11.72500
▁wollte	-11.72502
▁vielleicht	-11.72511
▁iconic	-11.72532
äch	-11.72552
abel	-11.72564
▁génér	-11.72571
ault	-11.72573
▁alternatives	-11.72591
think	-11.72603
ро	-11.72606
whereas	-11.72606
erei	-11.72637
▁Eagle	-11.72677
situé	-11.72705
▁laboratory	-11.72716
▁Nutzung	-11.72726
▁Bathroom	-11.72728
▁loaded	-11.72729
niste	-11.72741
som	-11.72743
▁aucun	-11.72767
gebracht	-11.72768
▁tomb	-11.72777
▁Ty	-11.72779
▁afaceri	-11.72797
tex	-11.72804
ality	-11.72815
▁identification	-11.72815
▁cultiv	-11.72826
Not	-11.72833
▁acestor	-11.72847
▁PhD	-11.72847
nell	-11.72847
▁dial	-11.72859
chro	-11.72867
▁specifications	-11.72868
anii	-11.72877
▁cloth	-11.72884
▁highway	-11.72891
▁Vitamin	-11.72912
▁indication	-11.72935
80%	-11.72959
▁Lion	-11.72968
▁10,	-11.72969
▁Werk	-11.72975
▁combin	-11.72980
▁releases	-11.72986
LL	-11.73001
ktor	-11.73019
ufgrund	-11.73019
calc	-11.73034
▁accomplished	-11.73061
▁los	-11.73062
▁distant	-11.73069
▁secteur	-11.73069
logue	-11.73078
▁betting	-11.73079
elf	-11.73118
puteti	-11.73124
▁Moment	-11.73124
▁scoring	-11.73155
▁freuen	-11.73157
▁fastest	-11.73187
▁directors	-11.73208
▁fame	-11.73223
▁complaint	-11.73224
▁Ep	-11.73231
▁delicate	-11.73233
annonce	-11.73241
ext	-11.73245
▁quit	-11.73247
▁Cop	-11.73253
prop	-11.73257
365	-11.73274
▁Say	-11.73288
▁internationale	-11.73306
cott	-11.73321
▁Whatever	-11.73326
▁admir	-11.73326
▁bucur	-11.73355
▁entity	-11.73378
▁dancing	-11.73384
▁printre	-11.73389
▁meditation	-11.73440
▁avis	-11.73442
▁1988	-11.73447
10.	-11.73451
▁worker	-11.73464
▁$100	-11.73478
▁contrôle	-11.73499
▁insist	-11.73500
ements	-11.73506
izate	-11.73516
▁tied	-11.73533
▁correspond	-11.73540
▁apartments	-11.73555
▁2009.	-11.73560
▁tiles	-11.73562
▁boots	-11.73564
▁laundry	-11.73567
▁Coffee	-11.73567
▁CV	-11.73573
▁composed	-11.73604
atom	-11.73623
▁shore	-11.73627
▁marijuana	-11.73631
plic	-11.73648
▁Zahl	-11.73665
depth	-11.73683
▁Egypt	-11.73685
▁NFL	-11.73691
▁12,	-11.73692
▁pollution	-11.73696
▁Vergleich	-11.73705
û	-11.73711
▁nurse	-11.73715
▁Susan	-11.73717
▁verify	-11.73739
▁kon	-11.73750
▁ulei	-11.73761
▁Sept	-11.73770
▁Location	-11.73791
▁frozen	-11.73799
good	-11.73803
▁cine	-11.73807
forming	-11.73818
▁Near	-11.73839
▁Tab	-11.73855
▁Alexandr	-11.73860
ст	-11.73864
CK	-11.73866
▁loads	-11.73895
▁disorders	-11.73896
hip	-11.73960
▁blessing	-11.73987
▁vechi	-11.73998
▁Bookmark	-11.74030
SON	-11.74037
books	-11.74043
▁tropical	-11.74044
▁Garten	-11.74045
ôt	-11.74076
tures	-11.74083
▁obligation	-11.74101
▁admin	-11.74101
▁sélection	-11.74111
disp	-11.74117
▁Anyone	-11.74123
keeper	-11.74138
▁konnten	-11.74152
▁existe	-11.74162
▁Rund	-11.74180
▁retailers	-11.74185
folg	-11.74195
▁urmare	-11.74202
▁Liebe	-11.74232
▁actors	-11.74242
▁Druck	-11.74262
lien	-11.74275
sian	-11.74285
▁partid	-11.74304
▁loin	-11.74311
AZ	-11.74312
oasă	-11.74350
▁inclusiv	-11.74366
TD	-11.74368
▁anului	-11.74377
poc	-11.74384
▁musique	-11.74397
▁Hart	-11.74400
Sh	-11.74428
html	-11.74429
▁serial	-11.74432
țele	-11.74437
inning	-11.74454
▁Bureau	-11.74456
▁rush	-11.74463
▁deosebit	-11.74464
▁Wort	-11.74465
▁Thailand	-11.74469
▁Language	-11.74519
▁Governor	-11.74521
▁Later	-11.74525
rilor	-11.74528
▁activités	-11.74537
schaffen	-11.74560
▁harvest	-11.74568
▁municipal	-11.74578
einander	-11.74601
▁fingers	-11.74638
▁sculpture	-11.74639
▁Bien	-11.74639
▁departments	-11.74656
▁période	-11.74675
▁jeune	-11.74696
▁governments	-11.74711
uter	-11.74718
Aceste	-11.74722
▁Deal	-11.74724
▁Equipment	-11.74726
nous	-11.74730
▁gate	-11.74732
▁meta	-11.74745
▁stiu	-11.74747
fold	-11.74749
▁seule	-11.74752
▁varied	-11.74754
hit	-11.74764
▁DIY	-11.74768
▁lemn	-11.74769
OB	-11.74787
▁colorful	-11.74810
▁câ	-11.74826
▁semester	-11.74830
▁dealer	-11.74858
nett	-11.74879
▁shortly	-11.74893
▁Driver	-11.74898
culture	-11.74905
▁permitted	-11.74907
▁sorts	-11.74943
▁crop	-11.75000
▁valoare	-11.75046
▁analog	-11.75058
▁excuse	-11.75059
▁modèle	-11.75066
When	-11.75068
▁march	-11.75074
haz	-11.75098
▁minimize	-11.75099
traction	-11.75103
▁caracter	-11.75238
▁modules	-11.75238
clu	-11.75244
ţional	-11.75248
▁breach	-11.75256
▁priced	-11.75261
▁attorneys	-11.75264
▁implant	-11.75265
▁ANY	-11.75266
dition	-11.75271
▁trials	-11.75284
▁Nas	-11.75293
Pre	-11.75297
lorsque	-11.75298
plin	-11.75305
Er	-11.75306
▁Dom	-11.75307
▁tire	-11.75319
sili	-11.75323
▁coins	-11.75335
▁rend	-11.75347
▁reliability	-11.75350
▁Analysis	-11.75351
▁trails	-11.75369
trägt	-11.75376
▁Kansas	-11.75391
▁responsive	-11.75391
▁disappear	-11.75399
▁stakeholders	-11.75402
▁aplica	-11.75416
▁imi	-11.75418
▁Laura	-11.75437
▁Terms	-11.75441
450	-11.75446
▁voltage	-11.75448
▁Gel	-11.75454
▁qualities	-11.75455
▁qualifi	-11.75460
▁Mé	-11.75474
bereit	-11.75483
gleich	-11.75488
▁voting	-11.75496
▁trademark	-11.75513
▁2.5	-11.75515
ND	-11.75544
▁Kelly	-11.75547
▁weiteren	-11.75556
▁filters	-11.75563
▁coût	-11.75563
jur	-11.75577
acre	-11.75580
▁retired	-11.75602
▁Engine	-11.75621
▁président	-11.75626
ajul	-11.75631
▁GA	-11.75643
rät	-11.75666
▁instructor	-11.75667
▁Allen	-11.75669
▁Delhi	-11.75677
▁cure	-11.75684
seite	-11.75690
coming	-11.75691
▁mixing	-11.75696
▁Kno	-11.75704
▁Sure	-11.75708
▁hired	-11.75710
▁participated	-11.75720
Count	-11.75732
treffen	-11.75736
▁54	-11.75736
▁rings	-11.75736
▁Thor	-11.75736
éro	-11.75745
▁buttons	-11.75749
▁47	-11.75754
▁Tel	-11.75769
▁suport	-11.75778
▁rhythm	-11.75783
▁Theater	-11.75811
▁informatii	-11.75812
hält	-11.75820
▁ouvert	-11.75824
fewer	-11.75829
▁alumni	-11.75847
▁valley	-11.75851
tial	-11.75861
***	-11.75878
kri	-11.75906
▁accidents	-11.75911
▁barrel	-11.75917
mobil	-11.75931
etti	-11.75944
▁immigration	-11.75952
▁poveste	-11.75953
hren	-11.75967
hydr	-11.75972
▁tweet	-11.75974
▁zip	-11.75987
▁Bonus	-11.76019
ordnung	-11.76029
liber	-11.76046
▁Navy	-11.76059
▁agreements	-11.76061
▁detection	-11.76074
DF	-11.76076
hur	-11.76077
0.00	-11.76080
▁07	-11.76087
etta	-11.76088
▁13,	-11.76089
rolled	-11.76097
▁injection	-11.76100
mig	-11.76102
wach	-11.76111
▁choisir	-11.76152
▁professionnels	-11.76160
▁Tower	-11.76169
▁neighbor	-11.76171
deutschen	-11.76188
▁luxurious	-11.76201
▁walks	-11.76203
reti	-11.76205
▁Pad	-11.76209
wise	-11.76230
▁exhaust	-11.76231
▁demonstration	-11.76258
▁agricultural	-11.76267
Upon	-11.76289
▁Blu	-11.76293
atorul	-11.76297
amour	-11.76298
issant	-11.76300
▁delighted	-11.76303
rita	-11.76311
requiring	-11.76320
ivity	-11.76322
▁Unser	-11.76331
FP	-11.76338
fait	-11.76353
dite	-11.76356
kul	-11.76372
arth	-11.76377
▁Ker	-11.76382
torilor	-11.76382
stage	-11.76387
▁HTML	-11.76399
▁Wheel	-11.76401
▁quelque	-11.76415
▁Ou	-11.76420
▁considerable	-11.76428
▁Sco	-11.76459
▁donations	-11.76482
dessen	-11.76500
▁pourquoi	-11.76504
▁Bow	-11.76519
▁Dupa	-11.76522
ska	-11.76571
hot	-11.76573
▁drove	-11.76585
▁oppos	-11.76602
▁hiking	-11.76604
▁Boot	-11.76608
One	-11.76609
▁guvern	-11.76609
▁15,	-11.76640
scheid	-11.76644
▁Miet	-11.76646
▁Technical	-11.76677
▁Dal	-11.76690
▁Metro	-11.76697
▁Baker	-11.76722
▁trece	-11.76725
tained	-11.76730
block	-11.76738
▁wander	-11.76740
▁penalty	-11.76742
▁shipped	-11.76751
▁30%	-11.76752
group	-11.76754
▁brothers	-11.76770
▁comanda	-11.76778
▁retreat	-11.76779
▁Movie	-11.76780
PU	-11.76787
▁Jun	-11.76789
▁$6	-11.76797
▁Fal	-11.76805
▁Palestinian	-11.76808
▁soccer	-11.76822
▁Autor	-11.76825
▁chamber	-11.76827
nement	-11.76846
▁offense	-11.76861
▁gig	-11.76863
▁abandon	-11.76869
▁Kraft	-11.76878
▁Medicare	-11.76878
▁soap	-11.76884
▁Fur	-11.76899
▁conditioning	-11.76910
rained	-11.76913
▁puts	-11.76913
▁cod	-11.76930
lassen	-11.76942
FL	-11.76960
▁komplett	-11.76966
▁entscheiden	-11.76967
▁Hour	-11.76969
?!	-11.77004
Stream	-11.77015
▁Grad	-11.77021
▁gently	-11.77023
▁poetry	-11.77043
▁secured	-11.77044
oph	-11.77047
hop	-11.77056
handel	-11.77063
▁besoins	-11.77066
got	-11.77082
▁Chrome	-11.77089
ILL	-11.77093
▁Schritt	-11.77101
▁spell	-11.77106
▁grinding	-11.77133
▁ramp	-11.77145
▁mama	-11.77161
▁bottles	-11.77180
▁canvas	-11.77191
▁ecosystem	-11.77195
aţii	-11.77197
cellular	-11.77209
▁Spin	-11.77216
▁Discover	-11.77222
-17	-11.77232
▁feeding	-11.77246
▁stops	-11.77252
▁haute	-11.77255
▁Entscheidung	-11.77258
▁semble	-11.77259
▁acele	-11.77286
▁Walk	-11.77315
▁joke	-11.77318
▁Fed	-11.77329
climat	-11.77331
▁Lot	-11.77346
runner	-11.77355
▁flip	-11.77379
▁werde	-11.77382
▁Deck	-11.77417
bala	-11.77430
▁sacrifice	-11.77438
cid	-11.77439
him	-11.77457
zahlen	-11.77459
▁heater	-11.77460
formed	-11.77462
plus	-11.77471
▁util	-11.77474
rama	-11.77502
(4)	-11.77502
▁knife	-11.77511
▁traditions	-11.77521
▁dip	-11.77536
kill	-11.77541
▁Rich	-11.77542
▁DI	-11.77556
▁containers	-11.77568
▁locuri	-11.77573
▁continent	-11.77580
teilung	-11.77601
▁vreme	-11.77603
organisation	-11.77613
serie	-11.77614
▁Diamond	-11.77620
magazin	-11.77628
▁poster	-11.77646
▁passenger	-11.77655
▁soldiers	-11.77655
▁urgent	-11.77662
▁Lip	-11.77681
▁aşa	-11.77697
▁BO	-11.77702
▁somebody	-11.77708
▁silence	-11.77713
cop	-11.77736
▁Burn	-11.77749
▁stopping	-11.77754
▁essence	-11.77757
▁hitting	-11.77776
▁producers	-11.77780
▁fibre	-11.77789
▁seasonal	-11.77796
▁tara	-11.77810
▁Jose	-11.77810
▁Better	-11.77826
▁steep	-11.77830
Alors	-11.77835
▁collecting	-11.77851
vre	-11.77864
▁disabled	-11.77864
▁voters	-11.77868
consuming	-11.77909
deemed	-11.77912
éra	-11.77923
opération	-11.77927
▁roller	-11.77931
Rather	-11.77932
▁leider	-11.77937
▁IV	-11.77943
▁erreichen	-11.77947
▁charging	-11.77966
tions	-11.77974
tiques	-11.77986
▁formats	-11.77988
▁painful	-11.78001
▁eager	-11.78006
generation	-11.78014
anna	-11.78024
▁races	-11.78032
force	-11.78036
▁ferm	-11.78052
▁breathing	-11.78062
▁offen	-11.78065
▁minds	-11.78081
▁musste	-11.78083
▁Vision	-11.78089
▁Installation	-11.78099
▁hesitate	-11.78100
▁somit	-11.78102
hôtel	-11.78104
cab	-11.78124
-16	-11.78131
▁Visual	-11.78142
intérêt	-11.78152
▁apel	-11.78183
therapy	-11.78209
volt	-11.78225
▁Rou	-11.78244
▁efficace	-11.78246
▁architectural	-11.78261
▁privilege	-11.78267
▁treating	-11.78271
▁Tam	-11.78272
tsch	-11.78274
building	-11.78275
▁associations	-11.78293
▁Consumer	-11.78342
▁Lim	-11.78350
newest	-11.78351
▁față	-11.78368
▁ships	-11.78373
lev	-11.78374
raft	-11.78382
▁variations	-11.78385
▁noua	-11.78386
▁Cab	-11.78406
1.2	-11.78409
▁ocazi	-11.78435
▁recommendation	-11.78445
titled	-11.78445
▁invoice	-11.78460
▁noastra	-11.78465
kur	-11.78470
issent	-11.78476
base	-11.78478
hä	-11.78485
888	-11.78491
▁declar	-11.78494
▁Football	-11.78503
▁Indeed	-11.78529
▁weapon	-11.78533
▁destroyed	-11.78546
▁enormous	-11.78559
▁blanket	-11.78571
▁aktiv	-11.78576
raw	-11.78579
▁computing	-11.78582
6)	-11.78596
▁Dam	-11.78615
▁confort	-11.78617
▁Gla	-11.78620
hardly	-11.78624
▁annually	-11.78627
▁destinations	-11.78640
▁guilty	-11.78640
▁scholarship	-11.78644
▁harmful	-11.78645
▁2-3	-11.78662
▁Race	-11.78664
▁hypo	-11.78672
▁shorter	-11.78673
quest	-11.78676
uze	-11.78681
izi	-11.78701
OO	-11.78710
▁Schutz	-11.78710
▁Teilnehmer	-11.78719
▁profiles	-11.78720
▁sustainability	-11.78747
▁emb	-11.78749
▁Augen	-11.78752
▁outdoors	-11.78754
▁Individual	-11.78755
▁pou	-11.78757
▁Together	-11.78758
HT	-11.78767
suited	-11.78776
▁tro	-11.78778
▁Strom	-11.78781
▁achievement	-11.78800
▁Range	-11.78816
tory	-11.78817
▁distribute	-11.78825
▁letzte	-11.78828
incorporated	-11.78829
▁Kir	-11.78833
ruf	-11.78839
▁disappointed	-11.78854
▁referral	-11.78860
flam	-11.78869
▁excessive	-11.78870
▁rapidement	-11.78874
▁Rio	-11.78876
aţia	-11.78895
▁meuble	-11.78912
▁2008.	-11.78914
▁Gall	-11.78915
▁française	-11.78937
▁ladies	-11.78970
ailed	-11.78975
El	-11.78983
▁wines	-11.78987
▁beispielsweise	-11.78988
▁gamme	-11.79019
▁guided	-11.79028
▁plin	-11.79034
Î	-11.79039
▁True	-11.79050
▁Temple	-11.79051
▁Pic	-11.79052
permalink	-11.79055
▁vedea	-11.79066
▁rank	-11.79092
▁Grill	-11.79103
clin	-11.79107
▁Hab	-11.79109
▁odds	-11.79113
▁anytime	-11.79115
▁Thanksgiving	-11.79127
guard	-11.79130
▁essays	-11.79139
▁PE	-11.79140
▁Rechts	-11.79149
mals	-11.79175
achi	-11.79176
▁Anthony	-11.79177
▁réponse	-11.79204
standing	-11.79227
▁Mol	-11.79243
▁Canon	-11.79247
▁silk	-11.79252
▁pourrait	-11.79279
▁raport	-11.79281
▁Woche	-11.79289
fallen	-11.79293
sting	-11.79310
▁circulation	-11.79310
▁skirt	-11.79315
▁Title	-11.79319
▁17.	-11.79331
▁Touch	-11.79349
▁utilizat	-11.79353
▁Organisation	-11.79357
▁mereu	-11.79385
▁oxygen	-11.79395
lique	-11.79399
▁consume	-11.79410
▁Barb	-11.79410
1.1	-11.79411
▁nicely	-11.79419
▁psychological	-11.79423
▁refrigerator	-11.79448
▁fantasy	-11.79481
▁dispute	-11.79495
▁IBM	-11.79495
▁Nation	-11.79497
▁mobil	-11.79506
▁density	-11.79520
ske	-11.79523
▁intimate	-11.79531
▁tailored	-11.79532
▁outline	-11.79547
TN	-11.79555
mur	-11.79563
GC	-11.79566
they	-11.79599
pag	-11.79616
▁Kultur	-11.79625
grün	-11.79628
voted	-11.79653
▁donné	-11.79655
▁Să	-11.79663
enberg	-11.79665
▁wi	-11.79686
▁Francis	-11.79706
▁Rick	-11.79716
accord	-11.79740
▁Zusammen	-11.79742
▁nonprofit	-11.79746
▁listings	-11.79762
6,	-11.79791
▁maximize	-11.79825
bud	-11.79835
▁promotional	-11.79849
cina	-11.79865
▁potatoes	-11.79870
▁mot	-11.79887
carries	-11.79938
▁stabilit	-11.79946
▁Door	-11.79957
▁downloaded	-11.79957
▁experimental	-11.79972
HD	-11.79974
▁parfois	-11.79980
▁zeigen	-11.80009
▁proposé	-11.80031
▁Verein	-11.80064
▁amestec	-11.80068
▁entreprise	-11.80072
▁PSD	-11.80084
▁bake	-11.80090
▁Rh	-11.80090
▁Mehr	-11.80092
▁purple	-11.80107
▁recipient	-11.80110
rare	-11.80117
egi	-11.80117
ancien	-11.80118
▁risque	-11.80118
▁mystery	-11.80157
mac	-11.80170
ibility	-11.80183
▁Moore	-11.80188
▁flavors	-11.80191
▁trauma	-11.80197
▁automotive	-11.80211
▁Anyway	-11.80220
▁simulation	-11.80225
▁crafts	-11.80253
▁measurements	-11.80258
▁cour	-11.80258
▁tard	-11.80260
nnie	-11.80288
▁Production	-11.80339
▁Cleaning	-11.80357
5,	-11.80364
▁Islamic	-11.80377
▁Gate	-11.80379
bay	-11.80381
HR	-11.80399
▁Offer	-11.80399
▁acceptance	-11.80411
▁Erfahrung	-11.80413
▁environ	-11.80419
▁fancy	-11.80422
▁bullet	-11.80437
organ	-11.80447
▁Peace	-11.80452
▁detalii	-11.80462
▁promised	-11.80472
▁wellness	-11.80475
▁satisfy	-11.80481
▁grants	-11.80521
accueil	-11.80522
▁oben	-11.80541
▁prospects	-11.80543
▁Events	-11.80551
2013	-11.80557
gesehen	-11.80569
▁£1	-11.80573
▁handelt	-11.80580
▁Spieler	-11.80588
▁Virtual	-11.80615
▁bubble	-11.80624
▁Trend	-11.80625
▁sistemul	-11.80632
▁Morgan	-11.80632
▁pole	-11.80650
▁spielen	-11.80653
tür	-11.80657
SCO	-11.80657
▁informative	-11.80668
▁affirm	-11.80676
▁Aqua	-11.80682
▁AR	-11.80689
richten	-11.80707
▁rewards	-11.80712
lub	-11.80724
shot	-11.80724
LM	-11.80754
Up	-11.80759
▁absolut	-11.80774
▁Mart	-11.80781
erweise	-11.80781
BP	-11.80798
▁difficile	-11.80815
▁Document	-11.80816
▁Sweet	-11.80829
▁indicator	-11.80834
▁Boden	-11.80839
mates	-11.80848
▁supporters	-11.80850
▁begun	-11.80860
▁blogging	-11.80861
▁CL	-11.80866
gres	-11.80869
▁preferences	-11.80874
▁screw	-11.80876
▁tutor	-11.80886
▁Additional	-11.80891
▁Bitte	-11.80898
utilizing	-11.80900
▁expérience	-11.80907
▁dur	-11.80915
▁precisely	-11.80918
▁janvier	-11.80939
AGE	-11.80988
moto	-11.81001
▁counsel	-11.81020
▁110	-11.81023
nick	-11.81025
licit	-11.81054
technik	-11.81066
▁collaborate	-11.81074
▁neighbors	-11.81079
tered	-11.81092
▁excel	-11.81103
▁Route	-11.81106
steuer	-11.81110
▁pioneer	-11.81161
nuit	-11.81169
▁skip	-11.81196
▁destruction	-11.81200
▁thesis	-11.81225
▁libre	-11.81232
▁petition	-11.81234
▁steady	-11.81246
▁medications	-11.81246
▁audiences	-11.81262
▁coaches	-11.81269
aller	-11.81270
3,000	-11.81271
▁anger	-11.81279
▁striking	-11.81284
▁shades	-11.81292
▁Sitz	-11.81299
▁gluten	-11.81316
▁egal	-11.81322
ania	-11.81322
▁defend	-11.81324
gut	-11.81383
▁reserves	-11.81390
▁advocate	-11.81405
▁Cit	-11.81408
▁technicians	-11.81411
▁cater	-11.81414
leitung	-11.81419
▁towns	-11.81434
▁Costa	-11.81436
▁confront	-11.81457
mount	-11.81465
▁nationale	-11.81471
▁adverse	-11.81493
▁couleur	-11.81511
▁delight	-11.81517
▁promises	-11.81522
▁silent	-11.81550
richtet	-11.81556
▁Companies	-11.81561
▁Charlotte	-11.81562
▁labels	-11.81565
▁Süd	-11.81566
▁Honor	-11.81567
▁complaints	-11.81571
▁siècle	-11.81575
▁suits	-11.81579
▁Bath	-11.81583
mise	-11.81593
▁acela	-11.81598
▁candidat	-11.81601
Flo	-11.81621
▁conservative	-11.81622
DD	-11.81631
▁changement	-11.81641
▁login	-11.81649
▁Fashion	-11.81659
reichen	-11.81667
through	-11.81675
aki	-11.81724
gna	-11.81755
▁verse	-11.81755
▁threats	-11.81762
▁Song	-11.81777
▁funded	-11.81792
langen	-11.81802
▁distribu	-11.81820
édition	-11.81832
▁royal	-11.81856
▁bevor	-11.81883
▁02	-11.81885
straße	-11.81894
edit	-11.81904
▁energetic	-11.81923
▁Carr	-11.81976
viol	-11.81994
▁niche	-11.82005
avais	-11.82010
▁backyard	-11.82010
▁Saudi	-11.82016
▁Zwei	-11.82021
▁Legal	-11.82028
accessed	-11.82028
▁choisi	-11.82034
▁GDP	-11.82034
oferă	-11.82035
hlen	-11.82049
▁Wor	-11.82052
▁cheer	-11.82059
▁barely	-11.82063
cost	-11.82065
▁Really	-11.82066
kol	-11.82072
▁binding	-11.82105
euer	-11.82114
▁optimization	-11.82116
▁Designer	-11.82117
▁measuring	-11.82118
ncy	-11.82152
weise	-11.82152
DER	-11.82185
▁$7	-11.82195
▁Anfang	-11.82195
material	-11.82197
▁antique	-11.82228
▁Certificate	-11.82229
▁modest	-11.82237
ției	-11.82243
▁praise	-11.82246
▁Springs	-11.82266
▁organiza	-11.82304
jurul	-11.82305
▁plumbing	-11.82341
▁foster	-11.82349
▁Wy	-11.82349
▁Sab	-11.82350
▁overwhelming	-11.82368
▁matin	-11.82381
▁responded	-11.82408
▁confused	-11.82415
▁blessed	-11.82428
▁160	-11.82430
▁ingredient	-11.82436
▁confer	-11.82449
▁Gesundheit	-11.82453
▁bucket	-11.82456
kraft	-11.82457
lange	-11.82463
▁Kopf	-11.82468
▁Prize	-11.82468
▁authorized	-11.82478
▁tick	-11.82480
▁steal	-11.82491
Depending	-11.82492
Depuis	-11.82495
▁functie	-11.82500
▁developments	-11.82505
▁Christians	-11.82531
▁calculated	-11.82563
▁Leave	-11.82567
▁Jam	-11.82573
▁habitat	-11.82576
▁Sorry	-11.82580
▁oficial	-11.82594
▁allein	-11.82608
▁concentrate	-11.82608
dica	-11.82630
▁Convention	-11.82648
illes	-11.82655
▁fum	-11.82665
▁Tal	-11.82665
Europe	-11.82690
▁attachment	-11.82695
▁sensibil	-11.82700
▁clue	-11.82716
▁specialty	-11.82720
▁Cou	-11.82723
▁liste	-11.82728
▁Penn	-11.82747
TRA	-11.82756
▁Themen	-11.82756
▁motivated	-11.82791
▁camere	-11.82802
▁14,	-11.82839
▁attendance	-11.82856
atorii	-11.82858
chemistry	-11.82874
▁roofing	-11.82896
▁Links	-11.82905
▁trou	-11.82910
▁trucks	-11.82914
hilfe	-11.82956
▁(6	-11.82960
vapor	-11.82964
mad	-11.82967
▁Albert	-11.82988
▁FIG	-11.83007
▁Rand	-11.83019
▁Constitution	-11.83022
ambi	-11.83029
▁Syria	-11.83031
▁Fond	-11.83048
▁gouvernement	-11.83059
▁Active	-11.83071
▁prints	-11.83080
▁weigh	-11.83087
▁Craft	-11.83107
▁projets	-11.83125
▁paste	-11.83138
anci	-11.83140
kie	-11.83141
▁gains	-11.83165
▁Record	-11.83194
▁beliefs	-11.83195
countless	-11.83196
▁tomatoes	-11.83200
arie	-11.83208
▁140	-11.83212
▁ethical	-11.83223
objectif	-11.83228
▁acestuia	-11.83228
▁Bluetooth	-11.83240
▁agriculture	-11.83275
uré	-11.83303
▁cale	-11.83307
▁articol	-11.83307
▁gum	-11.83332
▁vendor	-11.83349
ifié	-11.83353
▁peer	-11.83366
pod	-11.83404
▁utilized	-11.83411
▁Mü	-11.83421
owohl	-11.83421
hilst	-11.83423
frame	-11.83426
▁fridge	-11.83482
▁query	-11.83511
▁Survey	-11.83523
▁Hell	-11.83525
▁notification	-11.83530
TR	-11.83539
▁ultima	-11.83551
▁radiation	-11.83563
▁musicians	-11.83582
CAN	-11.83595
▁grocery	-11.83607
▁Sicherheit	-11.83611
▁Highway	-11.83628
▁Break	-11.83629
TED	-11.83635
ön	-11.83635
▁biological	-11.83635
qual	-11.83640
250	-11.83641
▁modify	-11.83665
▁Hit	-11.83670
▁Iar	-11.83684
aged	-11.83688
...)	-11.83689
▁contrat	-11.83693
▁centres	-11.83696
griff	-11.83699
Our	-11.83723
▁determination	-11.83730
▁variables	-11.83743
▁nuts	-11.83747
échange	-11.83758
extérieur	-11.83763
▁suflet	-11.83764
▁Scha	-11.83775
stück	-11.83777
▁Tau	-11.83782
▁participa	-11.83801
▁mad	-11.83803
▁relie	-11.83805
▁Fine	-11.83808
▁grape	-11.83812
▁wage	-11.83814
▁startup	-11.83819
▁blank	-11.83819
▁physique	-11.83820
▁punch	-11.83823
▁contacts	-11.83832
▁dezvolt	-11.83835
cross	-11.83864
▁TR	-11.83865
▁gener	-11.83875
▁indem	-11.83882
▁Stan	-11.83884
▁azi	-11.83893
▁Sel	-11.83896
▁Tot	-11.83925
vra	-11.83934
▁recruit	-11.83948
▁Yeah	-11.83949
/10	-11.83951
▁nail	-11.83956
▁Ky	-11.83961
▁beloved	-11.83976
operative	-11.83982
▁Tickets	-11.83983
▁tear	-11.84023
▁amp	-11.84035
▁04	-11.84036
▁illustrate	-11.84036
▁mac	-11.84040
▁receiver	-11.84048
atrice	-11.84051
▁souhait	-11.84057
▁Gewinn	-11.84062
▁Vit	-11.84081
roch	-11.84120
▁arata	-11.84126
▁Indiana	-11.84136
child	-11.84152
▁invested	-11.84158
▁Excellent	-11.84163
gori	-11.84177
▁thermal	-11.84181
Str	-11.84197
▁liver	-11.84202
miss	-11.84204
▁utiliser	-11.84212
▁prest	-11.84245
2016	-11.84251
isée	-11.84251
▁Index	-11.84256
▁arch	-11.84264
▁Toyota	-11.84275
▁YOUR	-11.84278
▁Mexican	-11.84289
▁gegenüber	-11.84294
▁cannabis	-11.84303
bis	-11.84308
vage	-11.84308
hall	-11.84309
fax	-11.84314
▁spoken	-11.84323
▁Zimmer	-11.84354
kauf	-11.84363
▁couleurs	-11.84371
▁NJ	-11.84403
▁Heritage	-11.84432
▁Pflege	-11.84432
luc	-11.84436
▁56	-11.84449
VP	-11.84454
▁cuvinte	-11.84459
▁Alliance	-11.84461
▁coco	-11.84462
▁leverage	-11.84476
auch	-11.84484
▁Cart	-11.84507
taux	-11.84533
east	-11.84561
▁decorating	-11.84565
tip	-11.84566
▁Communications	-11.84578
ACE	-11.84580
▁Consul	-11.84599
▁Swiss	-11.84620
inci	-11.84623
▁Fact	-11.84631
▁ajung	-11.84632
▁airline	-11.84633
▁kidney	-11.84638
▁Records	-11.84643
▁Olympic	-11.84675
▁dried	-11.84719
oivent	-11.84733
▁Adobe	-11.84747
▁powers	-11.84775
lande	-11.84783
▁relieve	-11.84786
ţine	-11.84790
▁gradually	-11.84795
mud	-11.84811
▁30,	-11.84812
▁plante	-11.84813
▁Hug	-11.84823
▁Focus	-11.84853
▁distinctive	-11.84859
▁Bab	-11.84866
tata	-11.84868
▁Nun	-11.84880
▁Eve	-11.84881
▁déc	-11.84888
▁Beitrag	-11.84901
▁devenit	-11.84904
driven	-11.84925
▁offerings	-11.84934
▁exc	-11.84942
encies	-11.84958
▁Neuro	-11.84959
scher	-11.84960
map	-11.84970
pending	-11.84978
▁courage	-11.84980
axe	-11.84989
▁Gesellschaft	-11.84990
▁ears	-11.85001
▁aider	-11.85040
▁Cast	-11.85043
fast	-11.85044
▁departe	-11.85050
▁oak	-11.85051
▁batch	-11.85073
▁Corporate	-11.85076
▁Ost	-11.85090
-14	-11.85090
▁Pie	-11.85116
▁ranking	-11.85127
clusion	-11.85132
▁costume	-11.85135
▁Knight	-11.85145
▁privat	-11.85158
▁Engineer	-11.85159
▁gens	-11.85174
physics	-11.85177
generating	-11.85177
directement	-11.85179
▁confidential	-11.85181
▁poet	-11.85194
▁monster	-11.85194
▁suppose	-11.85198
său	-11.85200
▁balls	-11.85210
▁substitute	-11.85214
▁simultaneously	-11.85224
▁specify	-11.85227
wald	-11.85229
▁collapse	-11.85235
dessus	-11.85246
▁vitr	-11.85252
▁recruitment	-11.85261
denken	-11.85263
▁candy	-11.85269
▁tourists	-11.85272
dimensional	-11.85278
conce	-11.85281
wechsel	-11.85282
▁passende	-11.85297
industrie	-11.85299
agne	-11.85313
▁warehouse	-11.85323
▁Jugend	-11.85328
▁Weise	-11.85336
▁Zone	-11.85353
▁licence	-11.85355
▁broker	-11.85363
▁Rolle	-11.85365
pton	-11.85379
▁preference	-11.85385
▁homeowners	-11.85386
▁Lum	-11.85387
▁Chairman	-11.85388
▁Pages	-11.85400
▁beam	-11.85401
▁coordinate	-11.85416
▁Tool	-11.85421
▁complexity	-11.85427
▁checks	-11.85434
▁Bedroom	-11.85441
minded	-11.85454
▁copiii	-11.85469
▁celebrating	-11.85470
zimmer	-11.85476
▁Imagine	-11.85476
▁decoration	-11.85483
team	-11.85535
▁împreună	-11.85537
▁publicly	-11.85539
▁centuries	-11.85551
▁Islands	-11.85564
▁ethnic	-11.85566
still	-11.85576
stieg	-11.85582
emia	-11.85590
tags	-11.85603
▁marche	-11.85606
▁migration	-11.85610
▁banner	-11.85617
▁macro	-11.85638
▁Edit	-11.85638
tran	-11.85656
ça	-11.85660
▁recycling	-11.85667
▁1,000	-11.85667
▁Quelle	-11.85689
▁Vel	-11.85701
▁Rit	-11.85703
▁Spaß	-11.85705
▁Corn	-11.85707
tracted	-11.85718
cited	-11.85719
▁tablets	-11.85720
▁Display	-11.85734
▁persoana	-11.85739
Term	-11.85741
▁Vancouver	-11.85754
▁Gäste	-11.85755
determining	-11.85761
▁populations	-11.85779
aison	-11.85787
▁surgical	-11.85807
tale	-11.85816
ivi	-11.85828
▁Zur	-11.85839
esprit	-11.85857
▁Edge	-11.85867
dach	-11.85876
phi	-11.85877
▁suc	-11.85884
▁scrie	-11.85885
▁Ausbildung	-11.85889
▁51	-11.85892
ologi	-11.85894
▁correction	-11.85905
▁Wald	-11.85908
▁additionally	-11.85913
▁proche	-11.85935
▁classical	-11.85948
▁bringen	-11.85949
▁(10	-11.85961
▁Mile	-11.85981
lace	-11.85989
▁premi	-11.85989
▁constitute	-11.86003
▁bitter	-11.86008
▁Inform	-11.86030
▁corporations	-11.86033
▁Lisa	-11.86049
▁obligat	-11.86069
Throughout	-11.86074
▁Rs	-11.86077
▁Hair	-11.86092
▁supplements	-11.86100
▁motorcycle	-11.86105
escent	-11.86113
▁investi	-11.86122
▁continuously	-11.86127
▁Essen	-11.86133
▁precision	-11.86139
▁deficit	-11.86146
▁wallet	-11.86148
▁Bürger	-11.86153
chir	-11.86157
9)	-11.86162
▁Programme	-11.86172
▁simplement	-11.86194
MD	-11.86209
▁rouge	-11.86210
usion	-11.86213
▁stove	-11.86221
▁prospective	-11.86222
▁corp	-11.86234
▁impacts	-11.86240
▁bride	-11.86267
0.0	-11.86279
hid	-11.86283
▁warrant	-11.86293
▁Ice	-11.86310
▁sensible	-11.86315
▁vreo	-11.86317
spekt	-11.86325
▁appreciation	-11.86334
▁automation	-11.86338
Luc	-11.86341
teaches	-11.86347
▁fold	-11.86351
deutsche	-11.86352
▁assisted	-11.86380
▁straightforward	-11.86393
▁mechanic	-11.86407
observ	-11.86417
▁Schau	-11.86420
▁Recently	-11.86430
kers	-11.86436
▁Soft	-11.86446
muni	-11.86454
▁lie	-11.86462
▁Fat	-11.86473
cream	-11.86477
▁snack	-11.86491
▁juin	-11.86507
▁competent	-11.86513
▁Drug	-11.86514
▁Row	-11.86530
▁needle	-11.86585
▁convey	-11.86590
▁voie	-11.86600
▁Hon	-11.86619
▁ebook	-11.86619
▁veteran	-11.86621
▁statistical	-11.86622
190	-11.86631
▁munca	-11.86640
▁venues	-11.86644
▁Viel	-11.86660
▁décor	-11.86680
▁répond	-11.86700
▁produsele	-11.86700
ruc	-11.86701
▁drops	-11.86701
▁autant	-11.86731
▁Fahrzeug	-11.86731
▁hills	-11.86736
ference	-11.86741
▁Glück	-11.86742
▁Pac	-11.86748
▁permettr	-11.86757
▁mouvement	-11.86771
établissement	-11.86786
▁Parc	-11.86787
▁solving	-11.86790
▁jail	-11.86797
▁junk	-11.86798
▁jeux	-11.86809
▁rôle	-11.86811
▁cache	-11.86812
▁Answer	-11.86832
wir	-11.86871
option	-11.86873
▁Tiger	-11.86874
▁Ble	-11.86879
Mitglied	-11.86880
▁partial	-11.86882
▁Mercedes	-11.86888
tire	-11.86900
MENT	-11.86909
▁transit	-11.86923
▁cineva	-11.86929
▁Andrea	-11.86929
▁boundaries	-11.86950
script	-11.87006
▁Medi	-11.87012
schreiben	-11.87020
▁lobby	-11.87036
▁defendant	-11.87041
▁sq	-11.87047
▁forgotten	-11.87057
stimmung	-11.87065
hus	-11.87067
RY	-11.87073
▁Anderson	-11.87075
▁Dental	-11.87083
ject	-11.87111
▁Nutzer	-11.87138
▁Portland	-11.87154
scription	-11.87164
▁angel	-11.87170
▁monument	-11.87175
▁număr	-11.87178
▁Lane	-11.87180
▁Bai	-11.87189
But	-11.87191
▁calculate	-11.87232
▁provoca	-11.87247
▁votes	-11.87249
RNA	-11.87250
though	-11.87259
spor	-11.87263
▁connaissance	-11.87270
▁Anwendung	-11.87293
▁Kate	-11.87312
lob	-11.87316
▁Conf	-11.87318
bung	-11.87321
ander	-11.87328
▁functioning	-11.87330
▁sponsored	-11.87332
rav	-11.87373
▁resistant	-11.87380
tră	-11.87392
▁costly	-11.87392
▁Mars	-11.87399
▁tir	-11.87408
▁writes	-11.87413
▁Greg	-11.87427
▁Question	-11.87471
▁corporation	-11.87485
▁lire	-11.87499
locked	-11.87505
8,	-11.87509
▁sagt	-11.87530
gaining	-11.87537
▁Pierre	-11.87569
verb	-11.87573
▁Barcelona	-11.87578
werte	-11.87647
▁disponible	-11.87652
▁urge	-11.87652
▁expecting	-11.87657
▁Girl	-11.87662
▁unlimited	-11.87676
watt	-11.87679
▁Möglichkeiten	-11.87681
▁schöne	-11.87685
rium	-11.87708
That	-11.87727
▁socio	-11.87730
▁Democrats	-11.87735
guten	-11.87742
▁Lou	-11.87743
[...]
