<unk>	0
<s>	0
</s>	0
<pad>	0
<0x00>	0
<0x01>	0
<0x02>	0
<0x03>	0
<0x04>	0
<0x05>	0
<0x06>	0
<0x07>	0
<0x08>	0
<0x09>	0
<0x0A>	0
<0x0B>	0
<0x0C>	0
<0x0D>	0
<0x0E>	0
<0x0F>	0
<0x10>	0
<0x11>	0
<0x12>	0
<0x13>	0
<0x14>	0
<0x15>	0
<0x16>	0
<0x17>	0
<0x18>	0
<0x19>	0
<0x1A>	0
<0x1B>	0
<0x1C>	0
<0x1D>	0
<0x1E>	0
<0x1F>	0
<0x20>	0
<0x21>	0
<0x22>	0
<0x23>	0
<0x24>	0
<0x25>	0
<0x26>	0
<0x27>	0
<0x28>	0
<0x29>	0
<0x2A>	0
<0x2B>	0
<0x2C>	0
<0x2D>	0
<0x2E>	0
<0x2F>	0
<0x30>	0
<0x31>	0
<0x32>	0
<0x33>	0
<0x34>	0
<0x35>	0
<0x36>	0
<0x37>	0
<0x38>	0
<0x39>	0
<0x3A>	0
<0x3B>	0
<0x3C>	0
<0x3D>	0
<0x3E>	0
<0x3F>	0
<0x40>	0
<0x41>	0
<0x42>	0
<0x43>	0
<0x44>	0
<0x45>	0
<0x46>	0
<0x47>	0
<0x48>	0
<0x49>	0
<0x4A>	0
<0x4B>	0
<0x4C>	0
<0x4D>	0
<0x4E>	0
<0x4F>	0
<0x50>	0
<0x51>	0
<0x52>	0
<0x53>	0
<0x54>	0
<0x55>	0
<0x56>	0
<0x57>	0
<0x58>	0
<0x59>	0
<0x5A>	0
<0x5B>	0
<0x5C>	0
<0x5D>	0
<0x5E>	0
<0x5F>	0
<0x60>	0
<0x61>	0
<0x62>	0
<0x63>	0
<0x64>	0
<0x65>	0
<0x66>	0
<0x67>	0
<0x68>	0
<0x69>	0
<0x6A>	0
<0x6B>	0
<0x6C>	0
<0x6D>	0
<0x6E>	0
<0x6F>	0
<0x70>	0
<0x71>	0
<0x72>	0
<0x73>	0
<0x74>	0
<0x75>	0
<0x76>	0
<0x77>	0
<0x78>	0
<0x79>	0
<0x7A>	0
<0x7B>	0
<0x7C>	0
<0x7D>	0
<0x7E>	0
<0x7F>	0
<0x80>	0
<0x81>	0
<0x82>	0
<0x83>	0
<0x84>	0
<0x85>	0
<0x86>	0
<0x87>	0
<0x88>	0
<0x89>	0
<0x8A>	0
<0x8B>	0
<0x8C>	0
<0x8D>	0
<0x8E>	0
<0x8F>	0
<0x90>	0
<0x91>	0
<0x92>	0
<0x93>	0
<0x94>	0
<0x95>	0
<0x96>	0
<0x97>	0
<0x98>	0
<0x99>	0
<0x9A>	0
<0x9B>	0
<0x9C>	0
<0x9D>	0
<0x9E>	0
<0x9F>	0
<0xA0>	0
<0xA1>	0
<0xA2>	0
<0xA3>	0
<0xA4>	0
<0xA5>	0
<0xA6>	0
<0xA7>	0
<0xA8>	0
<0xA9>	0
<0xAA>	0
<0xAB>	0
<0xAC>	0
<0xAD>	0
<0xAE>	0
<0xAF>	0
<0xB0>	0
<0xB1>	0
<0xB2>	0
<0xB3>	0
<0xB4>	0
<0xB5>	0
<0xB6>	0
<0xB7>	0
<0xB8>	0
<0xB9>	0
<0xBA>	0
<0xBB>	0
<0xBC>	0
<0xBD>	0
<0xBE>	0
<0xBF>	0
<0xC0>	0
<0xC1>	0
<0xC2>	0
<0xC3>	0
<0xC4>	0
<0xC5>	0
<0xC6>	0
<0xC7>	0
<0xC8>	0
<0xC9>	0
<0xCA>	0
<0xCB>	0
<0xCC>	0
<0xCD>	0
<0xCE>	0
<0xCF>	0
<0xD0>	0
<0xD1>	0
<0xD2>	0
<0xD3>	0
<0xD4>	0
<0xD5>	0
<0xD6>	0
<0xD7>	0
<0xD8>	0
<0xD9>	0
<0xDA>	0
<0xDB>	0
<0xDC>	0
<0xDD>	0
<0xDE>	0
<0xDF>	0
<0xE0>	0
<0xE1>	0
<0xE2>	0
<0xE3>	0
<0xE4>	0
<0xE5>	0
<0xE6>	0
<0xE7>	0
<0xE8>	0
<0xE9>	0
<0xEA>	0
<0xEB>	0
<0xEC>	0
<0xED>	0
<0xEE>	0
<0xEF>	0
<0xF0>	0
<0xF1>	0
<0xF2>	0
<0xF3>	0
<0xF4>	0
<0xF5>	0
<0xF6>	0
<0xF7>	0
<0xF8>	0
<0xF9>	0
<0xFA>	0
<0xFB>	0
<0xFC>	0
<0xFD>	0
<0xFE>	0
<0xFF>	0
.	-3.32526
▁	-3.40818
,	-3.53011
▁the	-3.56481
s	-4.15781
1	-4.20578
▁to	-4.21956
0	-4.23569
▁of	-4.3367
▁and	-4.362
▁a	-4.40495
2	-4.46038
▁in	-4.57694
:	-4.64415
▁▁▁▁▁	-4.78613
-	-4.79766
▁is	-4.85981
'	-4.86414
▁I	-4.98733
3	-5.08213
9	-5.13261
5	-5.18822
4	-5.21118
▁that	-5.23916
▁for	-5.2494
)	-5.28251
8	-5.34016
▁(	-5.35181
6	-5.36038
▁it	-5.3687
▁you	-5.37443
_	-5.43177
7	-5.43931
/	-5.44476
▁with	-5.54368
▁on	-5.54392
(	-5.60418
▁The	-5.66207
t	-5.68575
▁as	-5.71881
▁was	-5.7381
"	-5.78003
▁be	-5.7929
▁this	-5.82397
▁"	-5.86025
▁are	-5.93788
▁User	-5.94713
▁by	-5.99198
▁have	-6.01279
?	-6.01476
▁from	-6.01713
▁not	-6.01959
▁=	-6.02617
▁▁▁▁▁▁▁▁	-6.07682
▁at	-6.08213
;	-6.09532
▁can	-6.10794
▁an	-6.13755
▁or	-6.17637
▁your	-6.23679
▁▁▁▁▁▁▁▁▁▁▁▁▁▁▁▁	-6.24636
▁but	-6.2883
d	-6.35206
▁-	-6.37037
▁▁▁▁▁▁▁▁▁▁▁▁	-6.4154
▁▁▁▁▁▁▁▁▁	-6.43663
▁if	-6.44366
ing	-6.46092
>	-6.50485
}	-6.50988
’	-6.52903
▁will	-6.57041
m	-6.57122
▁▁▁▁	-6.57576
▁which	-6.57958
▁In	-6.6117
a	-6.62278
ed	-6.64082
▁my	-6.6577
▁$	-6.66126
▁{	-6.67215
▁one	-6.68548
▁has	-6.72417
="	-6.72546
▁do	-6.73862
▁all	-6.74469
e	-6.77052
▁would	-6.79191
▁It	-6.82638
▁use	-6.83501
▁his	-6.84031
▁so	-6.85227
\	-6.8539
▁also	-6.88343
i	-6.89327
▁he	-6.89453
▁A	-6.90718
▁like	-6.90909
▁▁▁▁▁▁▁▁▁▁▁▁▁	-6.91075
▁more	-6.91857
▁there	-6.92275
▁they	-6.94635
n	-6.94805
[	-6.96503
▁when	-6.9692
);	-6.97722
▁new	-7.00974
x	-7.01765
▁what	-7.02624
=	-7.0438
▁This	-7.04531
▁get	-7.04619
]	-7.04819
▁were	-7.05137
<	-7.05523
▁>	-7.06821
).	-7.07279
▁about	-7.07421
▁their	-7.08027
▁time	-7.08227
▁other	-7.08739
▁some	-7.08784
{	-7.09159
y	-7.09525
▁first	-7.11747
▁we	-7.12019
▁out	-7.1267
$	-7.13765
!	-7.14613
▁just	-7.15049
▁only	-7.15119
▁then	-7.16862
▁up	-7.18148
▁'	-7.18438
▁You	-7.18795
▁using	-7.19231
▁If	-7.20895
▁had	-7.20986
▁any	-7.23643
er	-7.23983
▁into	-7.25508
re	-7.26028
▁need	-7.26706
▁no	-7.30107
▁i	-7.30987
▁code	-7.31984
▁how	-7.32628
▁want	-7.33181
▁`	-7.33885
▁▁▁▁▁▁▁	-7.33908
r	-7.34388
▁two	-7.34499
c	-7.35176
▁He	-7.35415
▁should	-7.35423
▁been	-7.35912
▁<	-7.36531
▁work	-7.36718
▁who	-7.36915
in	-7.38737
ly	-7.3883
()	-7.3955
),	-7.39553
▁than	-7.40059
▁me	-7.4026
▁way	-7.40334
</	-7.41312
▁its	-7.41369
S	-7.42481
▁them	-7.4285
id	-7.45097
%	-7.45166
com	-7.46798
▁where	-7.47038
▁data	-7.47892
▁same	-7.49359
`	-7.49691
",	-7.49983
▁could	-7.50523
://	-7.50553
▁after	-7.50699
▁make	-7.51308
▁class	-7.52867
▁don	-7.54225
▁am	-7.55188
p	-7.55799
A	-7.56384
▁\	-7.57435
b	-7.57857
▁her	-7.59128
▁+	-7.60858
▁know	-7.61083
▁used	-7.61146
ve	-7.61513
▁over	-7.62317
▁may	-7.63018
th	-7.63531
f	-7.63665
▁set	-7.64409
...	-7.64729
▁[	-7.65343
▁function	-7.65617
▁see	-7.66472
▁because	-7.66747
▁file	-7.66943
o	-7.6787
g	-7.68851
▁“	-7.6932
▁C	-7.69885
("	-7.70144
▁question	-7.71291
C	-7.71455
▁name	-7.71602
▁So	-7.74359
▁here	-7.74659
▁well	-7.74861
▁*	-7.76051
or	-7.76082
▁does	-7.77103
▁these	-7.77842
k	-7.7792
▁|	-7.78025
▁such	-7.78295
▁&	-7.7868
h	-7.78897
▁most	-7.79957
();	-7.80663
▁very	-7.81234
▁value	-7.81778
▁people	-7.82022
▁think	-7.82132
▁return	-7.82371
▁For	-7.82591
▁each	-7.83243
es	-7.84062
I	-7.84209
▁being	-7.85049
▁As	-7.85623
▁our	-7.86076
▁problem	-7.86462
▁between	-7.86463
▁But	-7.86793
▁answer	-7.87017
▁before	-7.87078
▁through	-7.8803
▁many	-7.88683
D	-7.88723
▁different	-7.89165
*	-7.89578
▁–	-7.89671
▁now	-7.90188
▁example	-7.90204
▁help	-7.90873
▁//	-7.90928
al	-7.91198
to	-7.91508
+	-7.92237
B	-7.92434
▁What	-7.931
▁even	-7.93435
▁How	-7.93932
▁number	-7.94379
▁much	-7.94512
▁while	-7.94512
▁case	-7.95051
▁find	-7.95132
#	-7.96166
▁▁▁	-7.96174
▁part	-7.96864
▁she	-7.97149
▁B	-7.97193
▁something	-7.97253
ll	-7.97342
▁type	-7.98951
▁}	-7.99356
▁right	-7.99816
▁still	-7.99854
T	-8.00054
▁both	-8.00232
▁years	-8.00764
▁good	-8.00982
▁There	-8.01033
▁S	-8.02204
▁We	-8.03247
▁back	-8.0336
▁made	-8.03499
–	-8.04199
v	-8.04234
('	-8.05525
▁And	-8.05926
get	-8.06865
▁line	-8.07101
▁public	-8.08099
▁following	-8.081
on	-8.08182
name	-8.09051
▁On	-8.10915
▁add	-8.11218
▁end	-8.11649
">	-8.11867
▁re	-8.13872
l	-8.1446
▁error	-8.1461
div	-8.15245
▁those	-8.15388
en	-8.15436
▁under	-8.15544
▁did	-8.15966
▁second	-8.16232
▁found	-8.16263
▁might	-8.16278
▁user	-8.166
▁#	-8.16806
▁New	-8.17222
▁take	-8.1781
▁list	-8.17841
▁change	-8.18466
▁another	-8.18966
▁without	-8.19587
▁try	-8.1984
▁To	-8.20145
▁@	-8.20756
▁doesn	-8.20837
▁E	-8.20852
▁go	-8.20909
▁him	-8.21188
▁T	-8.21457
▁method	-8.21606
▁since	-8.21658
▁really	-8.21827
R	-8.21988
u	-8.22032
▁during	-8.22273
var	-8.22479
▁said	-8.22535
z	-8.22714
▁When	-8.22745
▁sure	-8.22985
▁year	-8.23106
▁system	-8.23479
->	-8.23609
F	-8.24136
▁best	-8.25411
▁page	-8.25683
▁create	-8.25738
X	-8.26874
j	-8.2694
▁three	-8.26953
L	-8.27279
▁http	-8.27309
▁point	-8.27378
▁My	-8.27571
▁long	-8.27714
▁run	-8.28281
|	-8.28665
▁de	-8.28688
▁D	-8.28748
▁That	-8.29186
▁own	-8.29298
able	-8.30369
the	-8.30955
▁look	-8.31332
▁possible	-8.32063
E	-8.32099
▁works	-8.32433
▁working	-8.32752
set	-8.32821
▁However	-8.33278
▁x	-8.33345
▁around	-8.33841
▁why	-8.34014
▁last	-8.34415
▁R	-8.34904
P	-8.35172
”	-8.35701
▁Thanks	-8.35731
▁down	-8.35945
▁information	-8.36246
▁P	-8.36554
▁show	-8.37539
▁too	-8.38063
▁/	-8.3808
▁better	-8.38147
and	-8.38217
▁called	-8.38603
@	-8.38625
▁They	-8.38758
▁place	-8.38975
M	-8.39224
▁▁▁▁▁▁▁▁▁▁▁	-8.39248
▁say	-8.40334
▁able	-8.40572
▁trying	-8.40911
▁post	-8.40938
▁every	-8.40948
is	-8.41142
w	-8.41559
▁call	-8.41579
▁table	-8.41869
▁life	-8.41917
▁off	-8.4208
▁order	-8.42419
▁form	-8.42719
int	-8.42913
N	-8.42957
▁result	-8.43341
▁day	-8.45274
▁read	-8.45305
▁string	-8.45527
▁G	-8.45541
▁object	-8.45867
▁state	-8.45874
^	-8.46013
▁No	-8.46067
▁version	-8.46334
▁team	-8.46358
▁M	-8.46452
data	-8.46542
▁U	-8.46547
▁She	-8.46622
▁going	-8.46842
▁later	-8.47285
▁=>	-8.47731
ers	-8.47923
▁including	-8.48116
▁start	-8.48544
text	-8.48756
man	-8.49619
▁against	-8.4968
▁until	-8.49715
▁c	-8.49739
us	-8.49762
▁After	-8.50317
▁array	-8.5032
▁must	-8.50582
▁check	-8.50752
V	-8.51003
▁high	-8.51634
▁things	-8.52042
▁text	-8.5209
▁instead	-8.52706
▁won	-8.52772
▁game	-8.5314
▁us	-8.5339
▁F	-8.53409
▁always	-8.53767
▁solution	-8.53789
&	-8.53971
this	-8.54067
▁again	-8.54485
▁test	-8.54522
end	-8.54575
▁home	-8.54624
▁single	-8.54987
Name	-8.55126
G	-8.55219
▁else	-8.55371
▁e	-8.55836
▁issue	-8.5598
▁few	-8.56016
▁un	-8.56018
▁main	-8.56515
▁put	-8.56957
▁known	-8.57005
▁world	-8.57029
▁based	-8.57235
▁give	-8.57269
▁group	-8.5738
▁already	-8.57779
▁within	-8.5779
▁above	-8.57953
▁tried	-8.58121
▁current	-8.58419
▁server	-8.58499
▁app	-8.58887
an	-8.59381
");	-8.59627
▁K	-8.59657
▁service	-8.59901
▁true	-8.60065
▁having	-8.60168
//	-8.6039
▁N	-8.60689
".	-8.61498
▁process	-8.6193
▁actually	-8.62133
▁key	-8.62537
▁image	-8.62569
▁lot	-8.6257
▁next	-8.62864
▁Is	-8.62961
▁left	-8.63089
▁field	-8.63249
▁view	-8.6356
▁project	-8.63613
▁season	-8.64312
▁non	-8.6443
▁seems	-8.64442
▁id	-8.64547
▁site	-8.64616
K	-8.64651
li	-8.6474
▁L	-8.64782
▁At	-8.65522
▁open	-8.65667
▁Here	-8.65701
▁area	-8.65853
▁per	-8.65942
")	-8.66024
▁https	-8.6605
▁access	-8.66123
($	-8.66154
▁family	-8.66226
php	-8.66346
W	-8.66491
▁doing	-8.66558
▁several	-8.66624
▁great	-8.66844
ID	-8.66926
▁small	-8.6697
▁p	-8.67076
▁though	-8.67095
▁application	-8.67475
my	-8.67513
▁All	-8.67745
no	-8.67785
▁support	-8.6801
▁local	-8.68064
▁United	-8.68077
if	-8.68392
▁thing	-8.68545
Y	-8.68935
▁done	-8.69239
▁University	-8.69279
▁never	-8.69313
▁May	-8.69319
▁J	-8.69476
▁top	-8.69955
▁Do	-8.70065
String	-8.70356
▁means	-8.70358
▁include	-8.70644
▁==	-8.70756
▁company	-8.71038
H	-8.71222
▁got	-8.71249
▁side	-8.71524
▁American	-8.71579
 	-8.71958
▁O	-8.71967
▁mean	-8.72024
▁b	-8.72307
▁Can	-8.72364
▁event	-8.72842
▁given	-8.73024
▁available	-8.73058
▁values	-8.73346
www	-8.73653
▁One	-8.7475
▁program	-8.75329
▁looking	-8.75338
it	-8.75475
▁size	-8.75499
▁H	-8.76504
▁understand	-8.76539
java	-8.77143
▁model	-8.77416
▁full	-8.77534
as	-8.77537
▁bit	-8.77575
▁$\	-8.77629
new	-8.77656
org	-8.77761
html	-8.77857
▁files	-8.78093
▁below	-8.783
▁probably	-8.78448
▁created	-8.78482
▁little	-8.78917
):	-8.7897
▁water	-8.79032
▁android	-8.79047
▁school	-8.79137
▁became	-8.79339
at	-8.79545
▁large	-8.803
▁getting	-8.80309
▁X	-8.80707
public	-8.81262
▁either	-8.81282
▁...	-8.8148
▁film	-8.81668
▁series	-8.81732
The	-8.81757
▁keep	-8.81955
▁free	-8.82079
ic	-8.82296
▁January	-8.82481
out	-8.82527
▁Re	-8.82747
▁book	-8.8324
▁simple	-8.83243
▁come	-8.83288
▁link	-8.83368
▁due	-8.83414
▁etc	-8.83509
▁provide	-8.83525
▁With	-8.83907
▁idea	-8.83984
▁output	-8.84018
Data	-8.84224
▁Also	-8.84353
▁level	-8.84481
▁V	-8.84685
▁power	-8.84748
▁least	-8.84948
];	-8.8512
▁content	-8.85133
▁specific	-8.85212
▁correct	-8.85319
px	-8.85474
up	-8.85499
▁Your	-8.85754
▁enough	-8.85822
▁original	-8.85957
▁play	-8.86071
":	-8.86241
▁often	-8.86281
▁f	-8.86295
▁four	-8.86296
▁less	-8.8642
▁old	-8.86618
▁added	-8.86625
function	-8.86743
type	-8.87473
Id	-8.87525
▁write	-8.87566
▁void	-8.87583
▁--	-8.87596
▁similar	-8.87774
."	-8.87795
▁▁▁▁▁▁▁▁▁▁▁▁▁▁▁	-8.87909
▁important	-8.8813
ity	-8.88227
▁making	-8.88421
▁World	-8.88439
▁running	-8.88582
▁control	-8.88732
▁Then	-8.88774
q	-8.89247
▁far	-8.8927
▁times	-8.89411
line	-8.89611
▁didn	-8.89621
▁By	-8.89701
▁self	-8.90019
▁input	-8.90065
▁March	-8.90067
))	-8.90114
▁space	-8.90239
▁results	-8.90279
	-8.90334
▁private	-8.90359
time	-8.90363
▁wrong	-8.90514
O	-8.90521
▁final	-8.90531
▁An	-8.9057
▁business	-8.90848
▁position	-8.90854
▁let	-8.90896
add	-8.91432
▁source	-8.92006
▁command	-8.92244
▁once	-8.92255
▁course	-8.92294
J	-8.92331
▁•	-8.92443
el	-8.92456
http	-8.92806
▁June	-8.92955
▁anything	-8.93096
::	-8.93169
▁real	-8.93515
▁Now	-8.93864
file	-8.93952
value	-8.93978
▁cannot	-8.94253
▁September	-8.94308
▁October	-8.94447
ch	-8.9489
▁W	-8.9494
▁m	-8.95127
▁August	-8.95225
▁inside	-8.95243
list	-8.95513
▁July	-8.95791
log	-8.96115
▁National	-8.96158
▁States	-8.96159
▁reason	-8.96174
▁early	-8.96438
▁city	-8.96441
string	-8.96452
▁along	-8.96569
▁multiple	-8.96845
▁makes	-8.96892
user	-8.9692
▁rather	-8.97257
▁days	-8.97266
List	-8.97434
le	-8.97518
▁December	-8.97543
▁web	-8.97594
Type	-8.97747
▁April	-8.98044
▁database	-8.98145
▁null	-8.98328
▁person	-8.9854
▁St	-8.98678
▁fine	-8.98726
▁date	-8.98815
▁November	-8.99017
class	-8.993
st	-8.99526
▁general	-8.99529
ation	-8.99855
▁Or	-9.00039
▁isn	-9.00189
▁style	-9.00767
Q	-9.00933
ion	-9.00991
▁someone	-9.01106
net	-9.01236
▁however	-9.01317
▁query	-9.0152
▁These	-9.01643
td	-9.01986
▁played	-9.02331
▁took	-9.02567
▁From	-9.02818
▁experience	-9.0285
▁released	-9.0354
▁variable	-9.03724
▁property	-9.03859
▁v	-9.03884
▁via	-9.0419
js	-9.04302
▁option	-9.04429
▁design	-9.04536
Z	-9.04742
un	-9.0481
▁John	-9.04932
▁says	-9.05399
test	-9.06133
▁body	-9.06281
▁member	-9.06376
▁government	-9.06397
▁points	-9.06567
▁children	-9.06612
View	-9.06668
▁whether	-9.0668
▁built	-9.06705
▁short	-9.07093
";	-9.0732
de	-9.07378
▁started	-9.07432
ist	-9.07512
▁n	-9.07568
form	-9.07586
▁action	-9.07762
▁int	-9.07785
▁worked	-9.07824
▁fact	-9.07867
▁hard	-9.07873
input	-9.07982
▁default	-9.08022
▁common	-9.08195
▁update	-9.08606
▁simply	-9.08677
▁away	-9.08931
▁please	-9.09007
▁message	-9.0902
script	-9.09275
▁His	-9.09344
▁career	-9.09502
▁together	-9.09508
▁become	-9.09679
To	-9.09966
▁South	-9.10168
▁String	-9.10237
ton	-9.10439
▁total	-9.10489
▁February	-9.10605
▁Why	-9.10609
for	-9.1061
▁close	-9.10618
▁request	-9.10627
▁third	-9.11112
▁thought	-9.11198
▁building	-9.11251
table	-9.11284
ul	-9.11345
['	-9.11347
▁needs	-9.11363
▁range	-9.11473
▁music	-9.11817
▁build	-9.11892
▁match	-9.12024
▁title	-9.12036
▁sub	-9.12307
▁kind	-9.12424
▁changes	-9.12806
ie	-9.1282
▁love	-9.1289
.”	-9.12936
▁video	-9.13029
▁Some	-9.1316
▁search	-9.13193
>	-9.13295
▁online	-9.13345
▁School	-9.13348
▁button	-9.13398
▁word	-9.13418
▁y	-9.13516
▁element	-9.13592
▁language	-9.13833
app	-9.14187
▁script	-9.14196
▁hand	-9.14231
;	-9.145
▁record	-9.14514
▁System	-9.1466
▁move	-9.14692
▁English	-9.14864
▁false	-9.14924
▁album	-9.14926
▁named	-9.15016
▁head	-9.15054
▁clear	-9.15106
');	-9.1513
▁City	-9.15309
▁came	-9.15349
of	-9.15404
▁written	-9.15442
▁War	-9.15526
▁received	-9.1555
▁members	-9.15719
▁pre	-9.15768
▁State	-9.15846
_{	-9.15863
age	-9.15887
Value	-9.15987
▁->	-9.1612
In	-9.16188
▁response	-9.16235
—	-9.16649
▁US	-9.16693
▁others	-9.16782
▁services	-9.17058
▁looks	-9.17093
▁easy	-9.1725
▁man	-9.17272
▁required	-9.17282
co	-9.17309
▁select	-9.17363
▁itself	-9.17419
▁included	-9.17743
▁path	-9.17749
▁website	-9.1784
▁country	-9.17996
}{	-9.18132
ry	-9.18146
▁whole	-9.18246
ar	-9.18288
▁character	-9.18308
▁seen	-9.18526
ment	-9.18846
▁age	-9.18846
▁York	-9.18878
▁Thank	-9.18937
self	-9.18966
▁development	-9.19102
do	-9.19291
▁located	-9.19366
▁First	-9.19531
▁static	-9.19585
…	-9.19784
▁quite	-9.2003
')	-9.20154
▁across	-9.20194
na	-9.20375
▁everything	-9.20419
one	-9.20466
▁display	-9.20474
▁held	-9.20529
▁research	-9.20631
▁history	-9.2076
▁sense	-9.20815
▁Please	-9.21305
row	-9.21317
▁account	-9.21416
▁address	-9.21484
▁column	-9.21608
▁tell	-9.21799
▁live	-9.21808
▁co	-9.21878
▁‘	-9.21896
],	-9.2205
▁began	-9.22066
▁product	-9.22189
lib	-9.22353
▁/>	-9.22425
▁d	-9.2247
▁likely	-9.22566
▁nothing	-9.22593
▁Yes	-9.22622
ness	-9.22749
▁comment	-9.22936
▁approach	-9.23057
key	-9.23131
item	-9.23159
▁light	-9.2331
▁various	-9.2336
by	-9.23376
▁further	-9.23456
▁users	-9.23571
ian	-9.2362
▁performance	-9.23739
android	-9.2374
▁reference	-9.23813
Object	-9.24016
U	-9.24248
rs	-9.24255
io	-9.24293
os	-9.24293
▁custom	-9.24415
ive	-9.24566
▁instance	-9.24574
▁exactly	-9.24604
▁needed	-9.24907
▁item	-9.25067
▁care	-9.25111
},	-9.252
▁client	-9.25236
▁row	-9.25328
import	-9.25396
ism	-9.25427
▁Not	-9.25472
▁De	-9.25783
▁car	-9.25924
▁store	-9.26134
te	-9.26154
▁job	-9.26293
▁allow	-9.26375
▁loop	-9.26414
▁standard	-9.26558
▁house	-9.26573
▁While	-9.26621
▁remove	-9.26675
});	-9.26701
▁usually	-9.26733
▁former	-9.26813
▁five	-9.27155
▁students	-9.27181
▁low	-9.27297
▁big	-9.27388
▁North	-9.27423
▁went	-9.27498
▁feel	-9.2752
▁money	-9.27652
▁Any	-9.27965
▁writing	-9.28078
▁var	-9.28085
ia	-9.2809
▁Since	-9.28103
view	-9.28291
▁present	-9.28376
▁particular	-9.28585
='	-9.28783
▁comes	-9.28788
▁major	-9.28802
▁County	-9.28805
File	-9.28894
son	-9.28919
frac	-9.28921
▁women	-9.29013
▁near	-9.29096
▁games	-9.29132
▁ever	-9.29217
▁community	-9.29512
▁shows	-9.29566
▁pass	-9.2957
▁memory	-9.29747
am	-9.29795
▁yet	-9.2982
date	-9.29829
▁color	-9.299
▁future	-9.30082
▁believe	-9.30259
size	-9.30289
▁God	-9.30478
▁▁▁▁▁▁▁▁▁▁	-9.30556
▁issues	-9.30603
▁—	-9.30707
▁role	-9.3072
▁population	-9.30735
").	-9.30805
▁related	-9.30843
▁Just	-9.3088
▁law	-9.30918
▁seem	-9.30992
width	-9.31066
code	-9.31081
field	-9.31208
▁words	-9.31476
layout	-9.31808
▁changed	-9.31867
land	-9.31911
▁difference	-9.32134
▁directly	-9.32147
▁certain	-9.32266
▁period	-9.32271
▁anyone	-9.32435
▁player	-9.32459
▁context	-9.32856
▁elements	-9.32919
▁child	-9.3294
▁print	-9.33151
tr	-9.33509
me	-9.33575
▁save	-9.33589
post	-9.33622
▁story	-9.33673
▁See	-9.33751
▁block	-9.33889
▁currently	-9.34309
){	-9.34522
▁special	-9.34534
right	-9.34689
▁options	-9.34696
ty	-9.3473
▁published	-9.34839
▁problems	-9.34992
▁million	-9.35625
▁amount	-9.3567
▁index	-9.3568
▁send	-9.35725
url	-9.35841
▁base	-9.3585
▁death	-9.3625
▁term	-9.36281
▁lines	-9.36606
content	-9.36867
all	-9.36942
▁features	-9.36956
Text	-9.3702
nd	-9.37048
▁past	-9.3717
path	-9.37266
▁document	-9.37292
▁half	-9.37344
ne	-9.37354
▁network	-9.37439
▁complete	-9.37833
left	-9.37865
▁pretty	-9.38159
▁British	-9.38189
▁thanks	-9.38336
▁:)	-9.38381
▁questions	-9.38604
▁location	-9.38645
▁served	-9.38715
▁background	-9.38827
▁events	-9.38855
min	-9.3892
index	-9.38929
▁load	-9.38949
▁ask	-9.38954
▁addition	-9.39215
[]	-9.3964
▁outside	-9.3975
▁week	-9.39754
▁men	-9.39768
▁click	-9.39776
▁turn	-9.39787
▁mind	-9.40022
not	-9.40037
▁air	-9.40132
▁format	-9.40171
▁health	-9.40184
▁structure	-9.4028
▁provided	-9.40533
▁matter	-9.40658
▁reading	-9.4067
um	-9.4068
▁today	-9.40886
▁among	-9.40912
▁cases	-9.40954
ling	-9.4101
less	-9.41073
▁uses	-9.41075
▁social	-9.41237
▁almost	-9.41297
▁Are	-9.41381
val	-9.41513
▁months	-9.41536
▁previous	-9.41616
▁section	-9.41975
▁West	-9.41983
▁takes	-9.42059
▁cause	-9.42069
▁considered	-9.42131
▁items	-9.4242
bar	-9.42426
ra	-9.42434
▁black	-9.4254
▁bad	-9.42558
ary	-9.42579
ley	-9.42595
▁article	-9.4265
▁break	-9.4267
▁device	-9.42704
().	-9.42756
▁contains	-9.42868
▁During	-9.43433
def	-9.43739
▁r	-9.44015
▁song	-9.44036
▁wrote	-9.44193
▁taking	-9.44193
▁effect	-9.44301
Exception	-9.44383
▁methods	-9.44393
▁g	-9.44396
box	-9.44535
▁numbers	-9.4455
▁band	-9.44551
ine	-9.44561
▁moved	-9.44726
▁Be	-9.44732
▁connection	-9.44789
▁library	-9.44874
▁window	-9.44922
{\	-9.45038
▁Google	-9.4507
▁email	-9.45077
▁market	-9.45208
Item	-9.45258
▁white	-9.45277
').	-9.45296
ma	-9.45401
▁born	-9.45485
▁rest	-9.4555
ant	-9.45558
▁hours	-9.45592
▁gives	-9.45829
__	-9.46097
▁town	-9.4614
▁returned	-9.4621
**	-9.46263
▁functions	-9.46332
▁League	-9.4636
▁screen	-9.46399
▁learn	-9.46463
▁war	-9.46485
color	-9.46603
page	-9.46702
▁human	-9.46707
▁Windows	-9.46738
▁wanted	-9.46865
year	-9.46982
▁map	-9.47018
▁require	-9.4715
▁late	-9.47224
▁consider	-9.47246
▁Al	-9.47326
▁cost	-9.47363
▁plan	-9.47492
▁production	-9.47533
▁objects	-9.47557
▁products	-9.47577
▁step	-9.47662
▁statement	-9.47701
▁install	-9.47952
title	-9.4802
true	-9.48022
▁Q	-9.48141
▁species	-9.48154
▁guess	-9.48218
▁energy	-9.48223
▁lead	-9.48298
▁longer	-9.48398
▁taken	-9.48678
▁length	-9.48803
▁century	-9.48829
▁details	-9.48889
▁avoid	-9.48947
▁separate	-9.48966
▁station	-9.49043
▁San	-9.49136
▁setting	-9.49139
map	-9.49354
▁terms	-9.49424
▁Home	-9.4946
▁national	-9.49463
▁characters	-9.49579
▁party	-9.49581
ce	-9.49679
br	-9.49686
++	-9.49767
▁front	-9.49874
▁described	-9.4991
▁stop	-9.50096
▁additional	-9.50178
▁food	-9.50226
▁release	-9.50241
▁higher	-9.50257
xml	-9.50321
which	-9.50365
▁software	-9.50556
▁height	-9.50641
▁round	-9.50753
▁bar	-9.50855
▁feature	-9.51014
db	-9.51036
ro	-9.51247
▁creating	-9.51482
go	-9.51519
▁Note	-9.5157
py	-9.51649
▁La	-9.51724
▁club	-9.51786
▁maybe	-9.51824
▁box	-9.51996
▁personal	-9.52079
▁java	-9.52105
est	-9.52143
▁copy	-9.52158
▁Let	-9.52498
▁types	-9.52539
▁media	-9.52735
▁double	-9.52781
));	-9.52782
select	-9.52872
▁Use	-9.52905
▁History	-9.53041
▁actual	-9.53136
▁share	-9.53163
▁Y	-9.53222
ish	-9.53294
▁win	-9.53343
▁French	-9.53446
▁adding	-9.53446
array	-9.53458
▁House	-9.53508
▁died	-9.53563
▁lost	-9.53592
▁j	-9.53597
><	-9.53611
▁entire	-9.5368
▁International	-9.53736
▁width	-9.53743
image	-9.5383
▁College	-9.54012
▁especially	-9.54014
da	-9.54064
▁defined	-9.5408
ate	-9.54329
so	-9.54511
▁machine	-9.54614
▁lower	-9.54641
il	-9.54702
label	-9.54953
born	-9.55206
length	-9.55252
per	-9.55268
▁sent	-9.55363
ized	-9.55571
▁normal	-9.55717
▁%	-9.55736
pi	-9.55779
Date	-9.55811
▁Of	-9.55853
main	-9.55879
▁Pro	-9.55957
style	-9.55976
▁led	-9.56037
▁sort	-9.5609
▁study	-9.56198
▁choose	-9.56664
▁cell	-9.56748
▁SQL	-9.56769
▁mentioned	-9.56889
▁practice	-9.56917
▁average	-9.56995
▁count	-9.57038
▁Z	-9.57243
ad	-9.57366
▁goes	-9.57396
▁Go	-9.57479
▁Get	-9.57605
▁son	-9.57659
▁six	-9.57705
▁professional	-9.5773
▁node	-9.57769
▁According	-9.57799
▁pay	-9.57838
▁report	-9.57926
▁asked	-9.57936
▁security	-9.57995
be	-9.58108
▁extra	-9.5813
▁offer	-9.58145
▁List	-9.58451
span	-9.58489
▁org	-9.58586
▁Try	-9.58624
with	-9.59084
▁expected	-9.59173
rd	-9.5918
▁price	-9.59331
▁figure	-9.59334
▁father	-9.59358
▁saying	-9.59382
▁force	-9.5942
></	-9.59479
▁quality	-9.5955
▁apply	-9.59719
button	-9.59732
▁Man	-9.59817
▁follow	-9.5986
▁designed	-9.59913
▁track	-9.60057
▁speed	-9.60098
▁collection	-9.60147
▁Does	-9.60399
▁German	-9.60408
mm	-9.60547
▁land	-9.60618
str	-9.60674
▁minutes	-9.60744
▁mode	-9.6075
']	-9.60777
▁playing	-9.60891
▁selected	-9.61074
▁behind	-9.61149
ent	-9.61235
ir	-9.61552
▁center	-9.61607
▁computer	-9.61728
▁High	-9.61866
▁art	-9.61971
▁echo	-9.61985
▁training	-9.61998
▁ways	-9.61998
ally	-9.62004
▁fix	-9.6209
▁returns	-9.62106
▁target	-9.62128
▁paper	-9.62157
▁unique	-9.62181
▁thread	-9.62193
height	-9.62215
▁office	-9.6229
▁includes	-9.62368
▁areas	-9.62388
print	-9.62389
▁Co	-9.62391
▁API	-9.62425
Error	-9.62467
▁individual	-9.62567
}\	-9.62577
▁yes	-9.62579
▁month	-9.62591
▁useful	-9.62671
▁room	-9.62684
▁upon	-9.62762
▁gets	-9.62834
▁super	-9.62835
▁situation	-9.62839
▁hit	-9.62861
▁classes	-9.62914
▁environment	-9.63005
▁sound	-9.63016
▁easily	-9.6303
▁popular	-9.63085
et	-9.63177
▁completely	-9.63207
▁handle	-9.63228
▁k	-9.63345
▁names	-9.63364
▁parts	-9.63394
▁ago	-9.63396
▁fields	-9.63398
,”	-9.63432
▁log	-9.63486
▁missing	-9.63495
▁increase	-9.635
▁necessary	-9.63531
begin	-9.63537
▁package	-9.63553
▁images	-9.6357
ies	-9.63634
ge	-9.63667
▁edit	-9.63692
▁leave	-9.63921
Context	-9.63924
▁although	-9.63971
Get	-9.64216
▁London	-9.64221
▁Don	-9.64351
▁note	-9.64473
▁Most	-9.64639
▁sometimes	-9.64763
ting	-9.64803
based	-9.64822
▁folder	-9.64824
day	-9.64894
document	-9.65103
▁according	-9.65121
like	-9.6516
▁night	-9.65283
▁status	-9.65328
▁Park	-9.65331
▁success	-9.6534
▁modern	-9.65355
▁Group	-9.65381
▁Our	-9.65449
▁rules	-9.65715
▁$(	-9.65728
▁Other	-9.65785
▁region	-9.65878
▁rate	-9.65916
▁**	-9.65933
▁village	-9.66016
▁root	-9.66102
bin	-9.66295
","	-9.66295
▁l	-9.66308
▁starting	-9.66317
start	-9.66432
▁continue	-9.6649
▁India	-9.66527
▁regular	-9.66532
▁Best	-9.6663
im	-9.66671
▁players	-9.66702
▁More	-9.66743
▁suggest	-9.6684
▁gave	-9.67006
▁living	-9.67072
la	-9.67164
▁announced	-9.67239
▁red	-9.67268
▁allows	-9.67278
▁Me	-9.67681
▁America	-9.67788
▁hope	-9.67826
▁phone	-9.67829
▁deal	-9.67966
▁directory	-9.68093
}$	-9.68112
].	-9.68134
▁River	-9.68295
Button	-9.68376
▁groups	-9.68536
▁natural	-9.68549
▁systems	-9.68555
▁saw	-9.68615
▁</	-9.68633
▁comments	-9.6867
sh	-9.68683
▁face	-9.68853
ter	-9.68856
▁established	-9.68891
▁Dr	-9.68896
ance	-9.68911
▁ground	-9.68918
body	-9.68923
ol	-9.69041
let	-9.6925
▁soon	-9.69254
▁console	-9.69288
▁installed	-9.69347
Key	-9.69389
▁Her	-9.69477
ca	-9.69502
top	-9.69662
em	-9.6973
▁card	-9.70096
▁meaning	-9.70157
])	-9.70283
▁states	-9.70429
▁fire	-9.70439
▁import	-9.70574
▁education	-9.70774
▁shown	-9.70818
Add	-9.7088
ka	-9.70985
▁allowed	-9.71034
▁$$	-9.7109
Array	-9.71138
▁contact	-9.71153
head	-9.71185
ta	-9.71192
▁interest	-9.71226
▁updated	-9.71293
▁Black	-9.71704
▁political	-9.71755
▁II	-9.71832
Model	-9.71858
▁ID	-9.71888
▁rule	-9.71975
count	-9.72006
▁properties	-9.7207
▁browser	-9.72077
▁variables	-9.72089
▁stuff	-9.72093
SELECT	-9.72156
option	-9.72271
ization	-9.72367
▁parameter	-9.72407
▁parent	-9.72528
▁&&	-9.7256
from	-9.72579
▁complex	-9.7267
▁auto	-9.72726
include	-9.72832
▁European	-9.72926
());	-9.7297
▁dis	-9.73012
Service	-9.73017
▁replace	-9.73177
back	-9.73222
)$	-9.73409
▁happens	-9.73451
▁goal	-9.73463
▁url	-9.73604
▁couple	-9.73621
▁provides	-9.73687
▁appears	-9.73838
User	-9.73868
men	-9.7402
▁global	-9.74058
▁multi	-9.74283
▁unit	-9.7429
▁active	-9.74292
▁District	-9.74327
▁solve	-9.74342
▁module	-9.74433
▁Java	-9.74464
▁material	-9.74512
▁fixed	-9.74565
▁session	-9.74579
▁East	-9.74608
▁General	-9.74655
][	-9.74692
Image	-9.74706
▁appear	-9.7476
▁exist	-9.7478
For	-9.74806
▁!=	-9.74892
ur	-9.74934
▁young	-9.75123
é	-9.7517
"></	-9.75193
▁produced	-9.75194
▁controller	-9.75313
Class	-9.75542
▁href	-9.75626
};	-9.75661
old	-9.75705
▁management	-9.7571
▁yourself	-9.75922
▁industry	-9.75939
▁explain	-9.75941
query	-9.75995
▁difficult	-9.76
off	-9.76016
▁subject	-9.76021
error	-9.76057
▁condition	-9.76188
img	-9.76202
▁HTML	-9.7629
▁President	-9.76389
▁UK	-9.76436
ful	-9.76485
▁existing	-9.76495
▁easier	-9.76506
▁generally	-9.7651
▁contract	-9.76534
▁board	-9.76547
▁followed	-9.76596
▁strong	-9.76745
▁international	-9.76804
▁Street	-9.76822
▁tool	-9.7687
link	-9.76955
▁AS	-9.77032
▁companies	-9.77086
▁conditions	-9.77244
▁involved	-9.77394
▁refer	-9.77425
▁north	-9.77482
▁pm	-9.7749
server	-9.77727
▁happen	-9.77777
▁asking	-9.77899
▁coming	-9.77986
run	-9.78339
mo	-9.78364
▁opened	-9.7841
▁exception	-9.78426
▁activity	-9.78458
▁Using	-9.7856
▁Cup	-9.78568
▁Center	-9.78572
ize	-9.7896
▁task	-9.79089
▁empty	-9.79116
over	-9.79153
▁focus	-9.79154
return	-9.79191
▁forward	-9.79206
▁w	-9.79293
▁beginning	-9.79307
▁random	-9.79396
▁developed	-9.79416
Set	-9.79446
▁receive	-9.79479
▁district	-9.79521
▁correctly	-9.79648
▁author	-9.79716
red	-9.79817
den	-9.80212
use	-9.80214
▁sample	-9.80225
▁learning	-9.80306
▁joined	-9.80365
▁choice	-9.80501
▁race	-9.80621
Manager	-9.8063
▁FROM	-9.80773
▁thus	-9.80849
col	-9.80861
▁expect	-9.81003
▁Well	-9.81085
▁fast	-9.8113
ler	-9.81131
Test	-9.81156
▁Although	-9.81176
▁port	-9.81238
▁books	-9.8126
▁purpose	-9.81282
se	-9.81465
▁south	-9.81487
node	-9.81554
▁answers	-9.81559
▁argument	-9.81577
▁election	-9.81589
▁switch	-9.8161
▁tag	-9.81613
▁Canada	-9.81677
▁Data	-9.81683
▁perfect	-9.81692
▁knowledge	-9.81764
▁Post	-9.81804
▁football	-9.81805
▁template	-9.81862
▁primary	-9.81879
▁Hi	-9.81912
▁drive	-9.81939
▁info	-9.81967
▁nice	-9.82098
side	-9.82157
▁countries	-9.82179
open	-9.8223
▁risk	-9.82333
txt	-9.82379
▁relationship	-9.82426
())	-9.82438
▁technology	-9.82514
▁valid	-9.82592
▁Day	-9.82741
▁road	-9.82839
▁basic	-9.82877
▁throughout	-9.829
▁PHP	-9.82925
▁construction	-9.82947
▁told	-9.8297
▁passed	-9.82978
▁Service	-9.8308
(\	-9.83117
Request	-9.83123
My	-9.83186
▁King	-9.83228
▁potential	-9.83287
▁rows	-9.83293
▁England	-9.83343
▁interface	-9.83369
web	-9.83464
▁thinking	-9.83653
▁Even	-9.8366
▁significant	-9.8369
▁Un	-9.83895
▁URL	-9.83897
▁military	-9.84
▁mother	-9.84126
▁China	-9.84143
▁himself	-9.84147
bit	-9.84157
▁host	-9.84205
▁catch	-9.84256
▁loss	-9.84257
▁hold	-9.84263
▁Am	-9.84288
▁filter	-9.84301
▁Because	-9.84303
▁review	-9.84442
▁failed	-9.8446
ana	-9.84606
▁stage	-9.84646
▁Another	-9.84774
▁decided	-9.84818
▁Have	-9.84851
▁runs	-9.84886
res	-9.84887
▁California	-9.849
▁cover	-9.84993
▁prevent	-9.85117
▁ideas	-9.85235
▁France	-9.85251
▁student	-9.85259
▁helps	-9.85265
▁recommend	-9.85273
▁implement	-9.85328
result	-9.85427
▁NULL	-9.85518
▁records	-9.85518
▁str	-9.85522
Controller	-9.85541
▁Church	-9.85546
▁Air	-9.85592
▁achieve	-9.85626
▁connect	-9.85677
▁giving	-9.85733
max	-9.85749
▁Australia	-9.85837
▁src	-9.85847
sum	-9.85908
▁Red	-9.85966
▁password	-9.86006
▁attack	-9.86015
▁signed	-9.86018
object	-9.86071
read	-9.86145
▁menu	-9.86154
▁cut	-9.86213
▁official	-9.86257
}}	-9.86261
▁implementation	-9.8628
▁join	-9.8631
▁sign	-9.86349
ha	-9.86349
▁u	-9.86409
he	-9.8643
▁legal	-9.86494
▁buy	-9.86535
create	-9.86608
▁recent	-9.86616
▁worth	-9.86619
▁limited	-9.86638
way	-9.86643
▁Many	-9.86667
▁themselves	-9.86683
▁everyone	-9.86766
▁married	-9.86811
ner	-9.86865
Time	-9.86877
▁church	-9.86896
▁entry	-9.87013
▁James	-9.8703
▁Posted	-9.87116
▁degree	-9.8713
▁Good	-9.87139
▁leading	-9.87145
▁Web	-9.87166
▁finished	-9.87286
▁wife	-9.87444
"/>	-9.87449
System	-9.87683
▁<<	-9.87694
config	-9.87746
▁remember	-9.8777
▁El	-9.878
Path	-9.87891
▁ensure	-9.87905
▁positive	-9.88187
▁calls	-9.88196
▁border	-9.88208
ous	-9.88248
▁calling	-9.88286
▁Court	-9.88306
▁frame	-9.88361
▁Council	-9.88399
▁expression	-9.88507
action	-9.88675
▁*/	-9.88686
show	-9.88687
▁Company	-9.88738
▁quickly	-9.88801
▁continued	-9.88813
▁pattern	-9.88854
▁weight	-9.88955
▁definition	-9.88998
ee	-9.89164
▁direction	-9.89221
▁closed	-9.89364
▁Con	-9.89392
▁friends	-9.894
$.	-9.89452
▁bottom	-9.89475
▁assume	-9.896
▁settings	-9.89684
▁errors	-9.89701
["	-9.89703
▁wouldn	-9.89735
▁Open	-9.89754
▁initial	-9.89894
ya	-9.89979
▁removed	-9.90174
▁agree	-9.90293
▁ability	-9.90328
▁decision	-9.90335
▁moment	-9.90376
▁operation	-9.90453
▁Mar	-9.90526
▁pro	-9.9053
▁testing	-9.90576
▁understanding	-9.90595
some	-9.90633
','	-9.90727
▁tree	-9.90759
▁Great	-9.90767
▁associated	-9.90829
▁download	-9.90966
▁changing	-9.9107
▁std	-9.91077
▁bring	-9.91141
▁resources	-9.91198
▁Android	-9.91201
click	-9.91241
▁route	-9.91259
▁fun	-9.91262
char	-9.91325
▁David	-9.91372
▁oil	-9.91415
▁completed	-9.91432
ating	-9.91455
▁ex	-9.91492
▁operations	-9.91522
▁moving	-9.91697
▁TV	-9.91797
▁surface	-9.91832
▁h	-9.91933
▁interesting	-9.91935
▁perform	-9.92041
Table	-9.92146
▁larger	-9.92243
▁wide	-9.92322
▁behavior	-9.92339
▁Paul	-9.92373
▁Car	-9.92389
▁whatever	-9.92405
▁contain	-9.92416
▁friend	-9.92416
▁Art	-9.92497
▁court	-9.92518
sub	-9.92526
bo	-9.92669
num	-9.92674
▁except	-9.92744
group	-9.92759
▁fit	-9.9283
▁requires	-9.92906
\\	-9.92936
▁bytes	-9.92945
▁delete	-9.92951
ak	-9.93007
▁policy	-9.93028
▁tools	-9.93096
▁limit	-9.93253
▁cast	-9.9326
▁properly	-9.93285
▁stay	-9.93402
ham	-9.93407
home	-9.93473
▁towards	-9.93497
▁Maybe	-9.93548
ri	-9.93772
▁documentation	-9.93793
▁Server	-9.93818
css	-9.93823
▁Check	-9.93831
▁direct	-9.93862
▁connected	-9.94035
ac	-9.94063
▁improve	-9.94083
▁parameters	-9.94153
})	-9.94178
▁Mac	-9.94182
▁Party	-9.94196
ng	-9.94216
▁UI	-9.94232
----------------	-9.94326
▁offers	-9.94326
▁physical	-9.94473
▁Le	-9.94513
▁Europe	-9.94722
▁Act	-9.94725
▁reported	-9.94749
▁follows	-9.95008
▁Department	-9.95022
▁projects	-9.95055
▁staff	-9.95102
void	-9.95118
▁automatically	-9.9515
▁define	-9.95208
▁White	-9.95307
▁engine	-9.95367
parent	-9.95419
▁columns	-9.95434
▁label	-9.95449
▁Bar	-9.95514
▁perhaps	-9.95565
▁distance	-9.95576
▁AND	-9.95618
Size	-9.95688
▁Sub	-9.95749
▁enter	-9.95809
▁recently	-9.9581
▁picture	-9.95849
▁stated	-9.95858
▁teams	-9.95868
▁domain	-9.95872
api	-9.95971
▁otherwise	-9.96004
▁whose	-9.96016
Map	-9.96139
Count	-9.96276
▁heart	-9.96304
state	-9.96341
▁interested	-9.96417
▁models	-9.96483
▁piece	-9.96485
▁George	-9.96487
▁pages	-9.96534
▁unless	-9.96623
▁successful	-9.9663
▁Association	-9.96652
json	-9.96716
▁vs	-9.96862
▁Club	-9.9704
der	-9.97112
▁Make	-9.97128
▁Music	-9.97129
▁visit	-9.9726
▁earlier	-9.97371
▁safe	-9.97382
▁en	-9.97396
▁theory	-9.97456
({	-9.97542
Content	-9.97585
▁master	-9.9759
ard	-9.9762
load	-9.97663
▁wait	-9.977
▁accept	-9.97713
▁generate	-9.97756
▁la	-9.97758
▁equal	-9.97832
▁anti	-9.97865
▁Add	-9.97963
▁levels	-9.97997
▁chance	-9.98014
▁William	-9.98042
▁layer	-9.98096
▁Set	-9.98114
▁Time	-9.98445
ier	-9.98473
▁draw	-9.98584
▁manager	-9.98644
▁financial	-9.98656
▁pressure	-9.98689
▁eventually	-9.98746
▁cross	-9.98824
▁zero	-9.98828
lang	-9.98895
▁placed	-9.98949
▁shared	-9.99003
▁director	-9.99012
▁meet	-9.99023
▁mid	-9.99183
block	-9.99184
▁examples	-9.99203
▁customer	-9.99216
▁appropriate	-9.99217
▁travel	-9.99396
▁finally	-9.99397
▁listed	-9.99446
▁Once	-9.99466
▁radio	-9.99498
ba	-9.9952
▁opening	-9.9953
▁Union	-9.99531
▁posted	-9.99603
▁con	-9.99611
▁convert	-9.99667
port	-9.99685
▁therefore	-9.99766
▁weeks	-9.99991
▁tax	-10.0001
ated	-10.0001
ted	-10.001
▁appeared	-10.0013
With	-10.0027
scope	-10.0033
Event	-10.0038
▁rights	-10.0043
▁Each	-10.0045
lin	-10.005
▁stored	-10.006
▁activities	-10.006
▁evidence	-10.0064
Re	-10.0067
▁myself	-10.0075
▁fully	-10.008
▁immediately	-10.0083
Message	-10.0084
dev	-10.0085
▁Road	-10.0101
▁clean	-10.0104
▁setup	-10.0107
▁Two	-10.0108
▁slow	-10.0118
▁drop	-10.0123
▁advance	-10.0126
▁haven	-10.0135
{	-10.0137
dy	-10.0138
▁reasons	-10.0142
▁showing	-10.0144
▁reach	-10.0152
▁produce	-10.0155
▁recorded	-10.0155
▁PM	-10.0156
version	-10.0165
▁News	-10.0168
';	-10.0168
▁replaced	-10.0181
▁sea	-10.0184
▁damage	-10.0191
Info	-10.0197
▁Indian	-10.0199
▁middle	-10.0206
▁relevant	-10.0221
▁configuration	-10.0226
lo	-10.0229
ni	-10.023
▁talk	-10.0231
No	-10.0233
Field	-10.0233
▁performed	-10.0235
product	-10.0235
▁});	-10.024
▁sold	-10.0242
▁platform	-10.0246
▁component	-10.0249
ED	-10.0252
(){	-10.0254
▁programs	-10.0265
▁Law	-10.0267
▁effects	-10.0283
▁impact	-10.0298
▁Health	-10.0299
▁meant	-10.0299
▁View	-10.0301
▁Code	-10.0305
position	-10.0305
▁police	-10.0308
Override	-10.0309
▁Where	-10.0317
▁al	-10.0323
find	-10.0326
source	-10.0326
▁native	-10.0332
▁Name	-10.0348
▁Germany	-10.0353
usr	-10.0357
<?	-10.0362
▁supported	-10.0363
ip	-10.0368
▁medical	-10.037
▁links	-10.0376
current	-10.0393
▁depends	-10.0395
▁analysis	-10.0406
▁logic	-10.0416
▁attribute	-10.042
init	-10.043
▁nature	-10.0434
▁Life	-10.0435
▁smaller	-10.0448
▁fall	-10.0451
questions	-10.0457
but	-10.0458
▁split	-10.046
▁Army	-10.0462
▁largest	-10.0464
event	-10.0476
va	-10.048
core	-10.0487
base	-10.0492
ability	-10.0494
▁header	-10.0498
▁sounds	-10.0514
▁Pre	-10.0518
▁Division	-10.0522
▁signal	-10.0525
State	-10.0526
▁proper	-10.0533
ms	-10.0533
▁organization	-10.0543
▁determine	-10.055
▁president	-10.0551
▁independent	-10.0555
▁!	-10.0556
▁Could	-10.0558
▁jQuery	-10.0569
▁Green	-10.0573
▁television	-10.0576
▁older	-10.0579
▁trade	-10.0581
▁places	-10.0586
▁sentence	-10.0587
▁reduce	-10.059
▁prior	-10.0597
▁letter	-10.0597
▁File	-10.0608
▁Chinese	-10.0621
▁campaign	-10.0621
`.	-10.0627
▁max	-10.0639
▁wasn	-10.0642
▁quick	-10.0642
▁sum	-10.0647
▁woman	-10.0653
▁km	-10.0672
▁Will	-10.0682
▁scale	-10.0682
▁steps	-10.0683
▁attempt	-10.0695
▁Python	-10.0704
▁App	-10.0708
▁caused	-10.071
ium	-10.0716
▁ten	-10.0718
▁matches	-10.072
Code	-10.0726
All	-10.0735
ga	-10.0741
ial	-10.0742
▁highly	-10.0743
ny	-10.0775
▁summer	-10.0776
▁previously	-10.0776
model	-10.0783
ber	-10.0783
▁exact	-10.0783
▁mostly	-10.0789
▁treatment	-10.0796
▁formed	-10.0797
▁score	-10.0809
▁culture	-10.0819
filter	-10.082
Form	-10.0823
order	-10.0826
▁Hall	-10.0837
▁act	-10.0843
▁Russian	-10.0847
▁customers	-10.0857
pt	-10.0857
▁Free	-10.0858
info	-10.0863
▁debut	-10.0867
▁seven	-10.0867
▁movement	-10.087
▁daughter	-10.0876
It	-10.0879
ence	-10.0891
led	-10.09
▁z	-10.0903
▁blue	-10.0904
▁brought	-10.0905
ko	-10.091
▁advice	-10.0913
println	-10.0915
▁definitely	-10.0924
▁spent	-10.0925
▁Royal	-10.0928
first	-10.0932
search	-10.0936
▁inter	-10.0938
▁blog	-10.0938
▁OP	-10.094
ja	-10.094
▁sites	-10.0944
▁Japanese	-10.0945
▁Award	-10.0952
▁forces	-10.0952
▁external	-10.0954
▁extension	-10.0954
▁green	-10.0961
▁latest	-10.0962
▁solutions	-10.0965
▁Test	-10.0967
▁exists	-10.0969
frame	-10.097
▁turned	-10.0983
▁People	-10.0984
▁($	-10.0986
":"	-10.0987
▁NOT	-10.0989
▁Washington	-10.099
▁becomes	-10.0999
▁forms	-10.1001
▁devices	-10.1001
▁Ha	-10.1005
▁capital	-10.1005
▁aren	-10.1006
ite	-10.1008
▁develop	-10.101
mp	-10.1013
▁college	-10.1015
▁Read	-10.1022
▁Which	-10.1035
di	-10.1037
▁Like	-10.1049
▁talking	-10.1049
▁generated	-10.105
▁char	-10.1057
po	-10.1058
▁internal	-10.1064
Number	-10.1066
▁layout	-10.1068
▁ended	-10.1073
ke	-10.1079
number	-10.1083
Index	-10.1086
▁variety	-10.1096
▁Both	-10.1096
▁applications	-10.1102
ff	-10.1106
▁stack	-10.1111
ut	-10.1113
▁helped	-10.1116
png	-10.112
example	-10.1124
local	-10.1125
▁ran	-10.1131
que	-10.1134
Method	-10.1147
▁	-10.1148
▁originally	-10.1149
▁distribution	-10.1152
▁meeting	-10.1162
ui	-10.1165
▁Mo	-10.1181
▁negative	-10.1182
▁counter	-10.1186
▁certainly	-10.1194
▁tab	-10.1194
▁helpful	-10.1197
▁central	-10.1198
++)	-10.1201
book	-10.1202
▁traditional	-10.1204
ster	-10.1205
con	-10.1211
:\	-10.1213
▁Central	-10.1216
▁Lake	-10.1229
ship	-10.1232
▁particularly	-10.124
default	-10.1249
▁tables	-10.1258
email	-10.1268
▁category	-10.1274
▁blood	-10.1277
▁OS	-10.1279
Page	-10.1283
▁Early	-10.1284
▁gas	-10.1291
▁managed	-10.1296
len	-10.13
▁elected	-10.1307
false	-10.1309
▁founded	-10.1318
▁camera	-10.1325
see	-10.1328
▁ones	-10.1328
▁depending	-10.1329
▁algorithm	-10.1342
▁applied	-10.1343
App	-10.1344
▁credit	-10.1346
▁versions	-10.1346
▁hot	-10.1358
df	-10.1364
▁movie	-10.1376
▁appointed	-10.1382
apache	-10.1385
▁description	-10.1391
▁pick	-10.1397
▁anyway	-10.1397
▁alternative	-10.1403
▁wish	-10.1404
▁plugin	-10.1409
▁scope	-10.141
▁attention	-10.1413
ron	-10.1413
site	-10.1424
uk	-10.1426
This	-10.1432
▁effective	-10.144
level	-10.1442
▁Top	-10.1444
Color	-10.1447
▁charge	-10.145
https	-10.1454
▁mobile	-10.1463
▁faster	-10.1466
▁Second	-10.1476
NET	-10.1477
ah	-10.1491
▁Japan	-10.1499
▁basis	-10.1501
▁Australian	-10.1504
▁Next	-10.1507
▁reached	-10.1509
▁concept	-10.1513
▁html	-10.1513
▁overall	-10.1514
▁Bay	-10.1521
▁o	-10.1525
▁requirements	-10.1527
▁Institute	-10.1529
ise	-10.153
tag	-10.1532
gen	-10.1546
mu	-10.1547
▁fill	-10.1549
]]	-10.1558
ti	-10.1559
ring	-10.1562
▁specifically	-10.1568
we	-10.1571
End	-10.1572
▁Michael	-10.1575
▁vector	-10.1581
▁science	-10.1582
▁digital	-10.1585
▁growth	-10.1586
▁Pi	-10.1586
▁ship	-10.1587
▁plant	-10.1591
▁ready	-10.1595
request	-10.1596
▁maximum	-10.1597
▁constant	-10.16
▁heard	-10.1606
▁huge	-10.1625
▁seconds	-10.163
▁Ka	-10.163
▁Bo	-10.1639
ey	-10.1647
▁east	-10.1651
▁parents	-10.1656
▁shall	-10.1661
▁eight	-10.1668
▁units	-10.1674
▁schools	-10.1677
▁compared	-10.1677
op	-10.1679
Of	-10.1681
▁heat	-10.1682
▁Sa	-10.1685
▁windows	-10.1687
▁square	-10.1689
▁highest	-10.1689
▁driver	-10.1703
ology	-10.1704
▁views	-10.1709
ung	-10.1711
▁mention	-10.1711
▁notice	-10.1716
▁equivalent	-10.1726
▁tests	-10.1729
▁Lord	-10.173
▁episode	-10.1732
▁none	-10.1734
▁Show	-10.1734
▁com	-10.1736
Handler	-10.1741
▁star	-10.1743
down	-10.1744
Node	-10.1769
Row	-10.1773
▁increased	-10.1784
font	-10.1786
▁brand	-10.1788
▁commercial	-10.1791
ville	-10.1795
Client	-10.18
▁killed	-10.18
~	-10.1806
Element	-10.183
private	-10.183
▁thank	-10.1835
▁mass	-10.1837
term	-10.1849
▁insert	-10.1852
mathbb	-10.1861
▁sales	-10.1862
sql	-10.1864
▁Create	-10.1872
^{	-10.1873
▁||	-10.1874
▁studies	-10.1887
▁supply	-10.1888
▁suggested	-10.1888
▁providing	-10.1897
▁operator	-10.1904
$,	-10.1904
ping	-10.1904
▁sources	-10.1918
▁happy	-10.1923
root	-10.1925
null	-10.1927
▁aware	-10.1934
▁regarding	-10.1935
▁brother	-10.1935
▁greater	-10.1937
car	-10.1955
▁storage	-10.196
▁claim	-10.1963
▁press	-10.1967
Action	-10.1972
▁Robert	-10.1977
"]	-10.1979
▁IP	-10.1983
long	-10.1983
▁Long	-10.1984
▁matrix	-10.199
▁begin	-10.1992
▁sequence	-10.1994
▁Mark	-10.2
ities	-10.2002
▁Super	-10.2009
▁couldn	-10.2017
▁lives	-10.2019
▁lack	-10.2025
▁Earth	-10.2026
▁basically	-10.2034
▁flow	-10.2036
POST	-10.204
▁west	-10.2049
▁hair	-10.2053
au	-10.2062
▁income	-10.2066
▁Ko	-10.2067
▁Date	-10.207
▁login	-10.2073
New	-10.2079
▁effort	-10.208
pa	-10.2081
}	-10.2082
ger	-10.2085
NS	-10.2088
▁JSON	-10.2089
▁cells	-10.2089
▁Africa	-10.2089
▁const	-10.2095
▁met	-10.2096
▁Business	-10.2098
ex	-10.21
▁Object	-10.2104
▁intended	-10.2107
▁editor	-10.2107
pe	-10.2111
▁novel	-10.2122
▁competition	-10.2122
Web	-10.2123
▁Thomas	-10.2124
▁solid	-10.2124
ford	-10.2132
▁AM	-10.2133
▁skin	-10.2145
ji	-10.2146
▁Education	-10.2151
▁stream	-10.2151
echo	-10.2157
▁Love	-10.2158
▁internet	-10.2158
▁looked	-10.2171
▁Awards	-10.2173
mi	-10.2174
ft	-10.2174
▁Peter	-10.2176
▁introduced	-10.2177
▁songs	-10.2182
▁selection	-10.2183
▁core	-10.2192
▁wall	-10.2193
▁Jan	-10.2196
match	-10.2205
▁trouble	-10.2206
▁serve	-10.2208
▁Women	-10.2211
▁factor	-10.2232
▁benefit	-10.2234
▁Year	-10.2239
▁gold	-10.224
ator	-10.2245
rb	-10.2246
▁Over	-10.2249
▁shape	-10.226
From	-10.2268
▁typically	-10.2271
wood	-10.228
work	-10.2281
▁families	-10.2282
▁checked	-10.2286
ped	-10.2286
▁stock	-10.2289
▁Star	-10.2291
▁Western	-10.2296
google	-10.2297
▁Canadian	-10.2311
▁execute	-10.2315
▁Class	-10.2315
▁starts	-10.2316
izing	-10.2316
dir	-10.2317
We	-10.2322
attr	-10.2323
▁End	-10.2326
▁transfer	-10.2327
ab	-10.2357
▁Book	-10.2361
▁virtual	-10.2362
▁protected	-10.2366
▁Public	-10.2368
▁stand	-10.2373
▁deep	-10.2375
▁slightly	-10.238
▁Minister	-10.2387
▁syntax	-10.2387
▁alone	-10.2391
▁photo	-10.2401
▁Per	-10.2405
▁remains	-10.2405
▁+=	-10.2415
▁Christian	-10.2415
▁linked	-10.2418
▁~	-10.2421
▁skills	-10.2421
▁float	-10.2425
▁Na	-10.2429
▁African	-10.2434
▁Edit	-10.244
▁rock	-10.245
▁div	-10.2463
▁Board	-10.2466
▁coach	-10.2472
▁throw	-10.2479
▁individuals	-10.2481
▁Under	-10.2485
▁shot	-10.2488
ning	-10.2492
write	-10.2497
▁Ben	-10.2503
▁Island	-10.2507
les	-10.2509
DB	-10.2511
▁Apple	-10.2511
▁PC	-10.2512
▁WHERE	-10.2513
▁Big	-10.2516
▁di	-10.252
On	-10.2522
▁relative	-10.2529
▁branch	-10.2531
▁Instead	-10.2536
`,	-10.2536
well	-10.255
▁db	-10.2558
▁usage	-10.256
▁enjoy	-10.2564
▁league	-10.2564
system	-10.2565
using	-10.2566
▁scene	-10.2571
▁extends	-10.2576
▁goals	-10.2581
▁leaving	-10.2581
▁finding	-10.2584
util	-10.2587
pm	-10.2589
▁Update	-10.259
Query	-10.2592
▁female	-10.2602
▁prefer	-10.2604
▁Championship	-10.2605
her	-10.2606
can	-10.2611
active	-10.2613
By	-10.2617
▁programming	-10.2622
▁messages	-10.2625
light	-10.2626
▁hear	-10.2627
ell	-10.2636
▁temperature	-10.2638
point	-10.2639
▁watch	-10.2644
client	-10.2647
▁entered	-10.2653
▁Texas	-10.2655
foo	-10.2661
▁clients	-10.2662
align	-10.2667
▁Research	-10.267
each	-10.2679
ns	-10.268
▁percent	-10.2682
stackoverflow	-10.2687
▁safety	-10.2688
▁accepted	-10.2692
▁components	-10.2698
AM	-10.2699
▁foreign	-10.2703
▁buffer	-10.2706
mail	-10.2706
▁plans	-10.2707
▁Error	-10.2718
▁compiler	-10.272
za	-10.2733
▁bug	-10.2738
▁beyond	-10.2739
ek	-10.2741
▁possibly	-10.2742
don	-10.2752
hi	-10.2753
check	-10.2757
▁studio	-10.2758
▁CSS	-10.2759
our	-10.2759
▁seeing	-10.2766
▁processing	-10.2766
▁Order	-10.2768
▁Its	-10.2771
(),	-10.2774
▁fourth	-10.2774
▁bank	-10.2789
á	-10.2792
▁news	-10.2799
▁responsible	-10.28
▁Mr	-10.2808
▁Game	-10.2808
▁opportunity	-10.2831
▁nearly	-10.2833
▁passing	-10.2838
▁languages	-10.2841
template	-10.2841
▁paid	-10.2843
▁Society	-10.2844
tor	-10.2847
house	-10.2848
▁economic	-10.2852
▁happened	-10.2852
▁Services	-10.2854
▁pop	-10.2855
▁remained	-10.2869
Style	-10.2872
▁featured	-10.2872
free	-10.2877
▁push	-10.2896
Application	-10.2897
URL	-10.2902
▁floor	-10.2905
cm	-10.2906
more	-10.2908
display	-10.2916
src	-10.2919
▁Italian	-10.2919
put	-10.292
tic	-10.292
▁finish	-10.2921
▁clearly	-10.2922
▁actions	-10.2923
▁resource	-10.2926
ative	-10.2931
▁<-	-10.2933
▁twice	-10.2938
US	-10.2943
message	-10.2943
▁protect	-10.2947
▁vote	-10.2956
▁constructor	-10.2962
▁Take	-10.2967
▁directed	-10.2974
▁majority	-10.2976
▁col	-10.2979
▁winning	-10.298
▁XML	-10.298
▁pull	-10.2982
▁detail	-10.2988
ov	-10.2996
▁python	-10.2998
▁equipment	-10.3001
▁supposed	-10.3002
▁Table	-10.3007
▁Mary	-10.3009
▁Grand	-10.3016
menu	-10.3018
param	-10.3018
▁theme	-10.3019
▁alert	-10.302
▁Men	-10.3022
▁chain	-10.3028
▁Government	-10.3037
▁traffic	-10.3047
▁About	-10.305
▁purchase	-10.3051
fa	-10.3051
▁Sun	-10.3054
▁opinion	-10.3055
ru	-10.3059
▁sets	-10.3062
center	-10.3063
▁panel	-10.3063
▁remote	-10.3069
Start	-10.3071
▁beautiful	-10.3073
board	-10.3076
pre	-10.308
▁remain	-10.3081
last	-10.3082
kin	-10.3089
▁straight	-10.3097
▁manage	-10.3098
▁manually	-10.3105
▁owner	-10.3112
Url	-10.3112
space	-10.3116
ver	-10.3118
▁plot	-10.3119
how	-10.3129
▁respect	-10.3131
▁container	-10.3133
▁font	-10.3135
▁Did	-10.3142
fi	-10.3145
▁artist	-10.3155
▁En	-10.3158
ci	-10.3167
IN	-10.3167
you	-10.3168
▁Up	-10.3174
append	-10.3179
()`	-10.3181
▁Out	-10.3181
▁Ma	-10.3181
▁die	-10.3189
call	-10.319
lan	-10.3196
▁stories	-10.3196
location	-10.32
▁Only	-10.3203
▁hour	-10.3208
▁Charles	-10.3209
amp	-10.3212
where	-10.3214
▁cache	-10.3216
▁writer	-10.3229
ible	-10.3229
▁specify	-10.3231
▁Old	-10.3234
▁Li	-10.3235
▁chart	-10.3235
▁eye	-10.3236
▁Power	-10.3237
ina	-10.324
Result	-10.324
format	-10.324
▁aircraft	-10.3241
▁indeed	-10.3241
cat	-10.3242
▁maintain	-10.3246
ten	-10.3249
▁benefits	-10.325
▁keys	-10.3254
▁leader	-10.3254
▁Main	-10.3255
▁daily	-10.3257
▁compare	-10.3259
▁latter	-10.3263
▁fight	-10.3264
▁train	-10.3265
▁explanation	-10.3267
Bar	-10.327
▁containing	-10.327
▁profile	-10.3278
▁Jesus	-10.3284
▁strings	-10.3285
▁Team	-10.3285
▁poor	-10.3286
▁edge	-10.3307
▁morning	-10.3313
module	-10.332
km	-10.3323
mer	-10.3326
cc	-10.3329
▁Los	-10.3333
/*	-10.3336
UI	-10.3344
▁Office	-10.3344
▁pair	-10.335
▁perfectly	-10.3354
pos	-10.3354
▁topic	-10.3354
▁Career	-10.3359
▁offered	-10.3385
▁costs	-10.3387
▁Spanish	-10.3388
chi	-10.339
SE	-10.3392
▁Following	-10.3393
▁Academy	-10.3393
▁successfully	-10.3396
▁materials	-10.3401
service	-10.3406
▁hands	-10.3424
mon	-10.3425
▁min	-10.3427
▁Microsoft	-10.3432
▁becoming	-10.3436
▁progress	-10.3444
Base	-10.3446
▁Ne	-10.3447
ki	-10.3449
ini	-10.345
Property	-10.3453
▁covered	-10.3453
▁channel	-10.3458
▁presented	-10.346
Layout	-10.3463
password	-10.3465
▁dark	-10.3465
▁shell	-10.3466
▁Film	-10.3482
▁__	-10.3483
▁dead	-10.3486
▁pointer	-10.3487
▁Lo	-10.349
status	-10.3492
context	-10.3492
▁represented	-10.3492
▁guide	-10.3493
▁?>	-10.3497
▁appreciated	-10.3501
▁measure	-10.3504
ists	-10.351
▁Project	-10.3517
Group	-10.3517
sen	-10.3524
▁google	-10.3526
▁volume	-10.3541
▁heavy	-10.3543
▁advantage	-10.3546
▁arguments	-10.3563
▁whom	-10.3576
▁somewhere	-10.3578
ised	-10.3582
▁senior	-10.3586
▁Smith	-10.3587
▁Committee	-10.3588
Label	-10.3588
▁creation	-10.36
▁Du	-10.3601
▁minimum	-10.3603
▁Source	-10.3608
▁Notes	-10.3609
==	-10.3612
°	-10.3613
▁Science	-10.3615
▁Sea	-10.362
▁remaining	-10.3621
ker	-10.3623
etc	-10.3632
▁nor	-10.3636
ze	-10.3641
▁Di	-10.3642
▁pain	-10.3646
▁felt	-10.3647
▁awarded	-10.3653
▁Before	-10.366
▁lib	-10.3665
▁planning	-10.3668
▁spring	-10.3671
▁returning	-10.3672
If	-10.3674
▁visible	-10.3678
nt	-10.3679
▁DB	-10.3684
▁combination	-10.3684
▁shouldn	-10.3686
▁spend	-10.3689
▁formula	-10.3689
▁occur	-10.3691
▁dynamic	-10.3692
Factory	-10.3693
▁plus	-10.3695
▁hash	-10.3698
jar	-10.3708
▁Roman	-10.3709
▁Part	-10.3711
▁specified	-10.372
▁protection	-10.3721
▁discussion	-10.3728
jpg	-10.3732
▁Their	-10.3732
▁onto	-10.3736
▁approximately	-10.3741
now	-10.3744
▁sun	-10.3745
alpha	-10.3746
▁husband	-10.3754
▁Su	-10.3762
output	-10.3764
▁entirely	-10.3766
Server	-10.3766
▁Sorry	-10.3768
▁Water	-10.3769
▁mark	-10.377
update	-10.3789
ide	-10.379
▁division	-10.379
▁numerous	-10.3798
▁Line	-10.3801
ajax	-10.3817
▁loaded	-10.382
▁patients	-10.3826
▁influence	-10.3826
And	-10.3833
wa	-10.3836
▁et	-10.3837
▁tour	-10.384
▁disk	-10.3845
ref	-10.3846
▁critical	-10.3847
▁exchange	-10.385
▁touch	-10.3863
▁Mc	-10.3865
▁Se	-10.3867
▁ON	-10.3869
▁society	-10.3875
close	-10.3877
Log	-10.3878
▁Ar	-10.3881
▁notes	-10.3884
▁voltage	-10.389
▁sports	-10.3893
▁federal	-10.3895
▁£	-10.3895
background	-10.3899
ura	-10.3906
You	-10.3908
mar	-10.3909
▁json	-10.3913
▁Ad	-10.3917
ney	-10.3919
▁university	-10.3924
▁describe	-10.3928
▁transaction	-10.393
▁posts	-10.3937
▁Facebook	-10.3939
sp	-10.3947
ang	-10.3948
▁edited	-10.3954
▁config	-10.3959
▁feet	-10.3969
▁doubt	-10.3973
▁river	-10.3979
▁decide	-10.398
▁noted	-10.3983
▁grid	-10.3988
ius	-10.3989
▁Museum	-10.3997
fill	-10.4001
▁Auto	-10.4005
▁unable	-10.4011
▁…	-10.4016
next	-10.4017
that	-10.4019
▁door	-10.4022
▁annual	-10.4025
▁Brown	-10.403
▁im	-10.403
▁Sam	-10.4031
▁voice	-10.4037
github	-10.4041
▁duplicate	-10.4042
▁BY	-10.4044
▁EDIT	-10.4046
war	-10.4051
▁upper	-10.4051
▁Paris	-10.406
std	-10.4064
▁gain	-10.4076
▁park	-10.4083
Component	-10.4085
▁raised	-10.4089
▁references	-10.4092
▁calculate	-10.4101
▁powerful	-10.4106
cl	-10.4113
▁grow	-10.4114
▁modify	-10.4118
▁Ta	-10.4118
dd	-10.4121
▁extremely	-10.4123
ck	-10.4127
▁Last	-10.4129
▁mine	-10.4132
▁wondering	-10.4135
▁appearance	-10.4137
▁temp	-10.4139
▁javascript	-10.4143
▁battle	-10.4144
doc	-10.4153
▁causes	-10.4153
▁OK	-10.4158
▁framework	-10.4163
lu	-10.4167
▁fail	-10.4173
▁extended	-10.4175
const	-10.4177
▁walk	-10.4177
▁reports	-10.4178
IP	-10.4181
▁employees	-10.4182
▁processes	-10.4183
▁tournament	-10.4184
Select	-10.4184
▁hidden	-10.419
▁Catholic	-10.4191
▁proof	-10.4191
▁obvious	-10.4192
▁compile	-10.4194
▁Hope	-10.4199
Filter	-10.4204
save	-10.4221
nu	-10.4223
Connection	-10.4227
ong	-10.4232
▁initially	-10.424
▁Hill	-10.4247
▁\\	-10.4249
▁famous	-10.4256
▁trust	-10.4262
▁Review	-10.4263
▁Ho	-10.4265
▁despite	-10.4271
▁Kingdom	-10.4278
else	-10.4281
▁sorry	-10.4282
▁Development	-10.4285
▁causing	-10.4286
▁operating	-10.4288
▁Page	-10.4291
▁leaves	-10.4292
▁Design	-10.4294
▁department	-10.4295
▁render	-10.4295
▁Ke	-10.4296
▁Russia	-10.4299
par	-10.4299
▁Blue	-10.4306
▁kept	-10.4308
▁tested	-10.4311
▁assigned	-10.4313
▁checking	-10.432
▁procedure	-10.432
▁integer	-10.4324
▁Thus	-10.4327
▁enable	-10.4327
tra	-10.4328
▁capacity	-10.4338
▁circuit	-10.4342
▁requests	-10.4345
▁forced	-10.4346
▁Should	-10.4346
▁Studio	-10.4347
▁launched	-10.4349
▁Har	-10.4358
▁metal	-10.4359
ig	-10.436
▁True	-10.4364
▁minor	-10.4368
▁centre	-10.4373
▁efficient	-10.4379
▁graph	-10.438
е	-10.4384
▁Bill	-10.4385
ING	-10.4387
xsl	-10.439
▁»	-10.4393
]);	-10.4394
▁secure	-10.4398
▁Type	-10.4399
▁Key	-10.4406
▁Richard	-10.4408
▁Media	-10.4409
▁ball	-10.4417
asp	-10.4418
▁php	-10.4419
▁sex	-10.4436
tion	-10.4437
cell	-10.4442
▁plays	-10.4443
▁sleep	-10.4444
▁factors	-10.4447
▁implemented	-10.4462
rate	-10.4466
▁putting	-10.4471
▁Chicago	-10.4478
▁entity	-10.4479
▁mis	-10.4481
▁male	-10.4485
▁trip	-10.4491
header	-10.4496
▁seat	-10.4501
lic	-10.4506
▁margin	-10.4524
ara	-10.4526
▁Series	-10.4531
▁represent	-10.4533
Line	-10.4536
ons	-10.4544
▁favorite	-10.4548
▁flag	-10.455
[[	-10.4551
target	-10.4554
▁happening	-10.4554
▁Network	-10.4574
▁Model	-10.4576
▁interview	-10.4583
▁Personal	-10.4584
ik	-10.4594
▁functionality	-10.4605
!!	-10.4609
▁Republic	-10.4609
▁Bank	-10.461
▁loan	-10.4617
▁teaching	-10.4618
▁documents	-10.462
pdf	-10.4626
▁resulting	-10.4629
ice	-10.4632
▁technical	-10.4632
▁affect	-10.4635
category	-10.4647
▁brain	-10.4647
▁ideal	-10.4649
▁balance	-10.4653
▁Linux	-10.4657
▁Call	-10.4657
▁Greek	-10.4665
▁Today	-10.4678
▁strategy	-10.4678
▁award	-10.4679
▁audio	-10.4682
temp	-10.47
▁Lu	-10.47
▁Tom	-10.4702
▁cool	-10.471
▁Sunday	-10.4712
▁growing	-10.4713
 	-10.4716
cap	-10.4717
PM	-10.4717
▁island	-10.4718
]{	-10.472
ps	-10.4721
▁launch	-10.4721
ery	-10.4724
▁attended	-10.473
▁pieces	-10.4735
▁Martin	-10.4738
master	-10.4739
▁edition	-10.474
obj	-10.4742
▁Force	-10.4744
▁lived	-10.4745
▁buildings	-10.4746
▁Therefore	-10.4757
▁developing	-10.4764
((	-10.4765
▁Florida	-10.4766
▁marketing	-10.4768
▁declared	-10.4768
mod	-10.477
▁submit	-10.4773
▁disease	-10.4777
▁Who	-10.4778
▁lose	-10.4779
▁workers	-10.4784
▁proposed	-10.4785
element	-10.4796
▁-->	-10.4796
▁knew	-10.4799
▁owned	-10.48
ay	-10.4804
▁Christ	-10.4806
}{\	-10.4808
▁Pe	-10.481
▁Find	-10.4818
▁fresh	-10.482
▁COVID	-10.482
▁solved	-10.4821
▁estate	-10.4826
ot	-10.4828
jo	-10.4829
De	-10.483
▁identify	-10.483
)\	-10.4834
▁Tri	-10.485
▁ok	-10.4855
ec	-10.4861
tab	-10.4861
gar	-10.4861
ran	-10.4864
▁films	-10.4866
▁Ok	-10.4868
han	-10.4868
Is	-10.4869
▁phase	-10.487
▁serving	-10.4876
Source	-10.4883
▁dog	-10.4883
)`	-10.4885
jquery	-10.4885
▁THE	-10.4886
▁displayed	-10.4887
▁tells	-10.489
media	-10.4893
▁saved	-10.4896
NAME	-10.4902
Cell	-10.4903
▁discovered	-10.4905
▁Play	-10.4913
▁Live	-10.4913
▁Arts	-10.4917
▁Management	-10.4919
ada	-10.4924
▁communication	-10.4925
usepackage	-10.4927
▁cards	-10.4927
hr	-10.4932
▁spread	-10.4932
▁capture	-10.4934
▁excellent	-10.4935
▁Later	-10.4938
▁flight	-10.494
▁referred	-10.4943
om	-10.4958
▁Pa	-10.4959
▁normally	-10.4965
istic	-10.4967
vo	-10.4974
▁Win	-10.4974
phi	-10.4976
▁Festival	-10.4979
wrap	-10.498
▁terminal	-10.4981
range	-10.4982
▁spot	-10.4983
▁Henry	-10.4983
Stream	-10.4984
project	-10.4985
▁failure	-10.4985
▁token	-10.4986
▁sending	-10.4991
▁serious	-10.4992
▁broken	-10.4994
OR	-10.5006
ld	-10.5007
Create	-10.501
▁strength	-10.5013
part	-10.5014
▁Rock	-10.5024
▁Football	-10.5028
ose	-10.5029
▁sp	-10.5036
ified	-10.5038
▁dedicated	-10.5044
host	-10.505
([	-10.5051
cha	-10.5055
ho	-10.506
Do	-10.5061
▁Congress	-10.5062
Input	-10.5066
▁relatively	-10.5069
edit	-10.5071
draw	-10.5071
▁wants	-10.5072
ap	-10.5079
▁net	-10.5079
▁vehicle	-10.5083
▁Right	-10.5087
build	-10.5088
lock	-10.5088
▁advanced	-10.5088
▁gone	-10.5094
▁USA	-10.5095
▁allowing	-10.5096
fe	-10.5099
▁reviews	-10.5103
▁micro	-10.5103
▁lots	-10.5104
▁purposes	-10.5114
▁firm	-10.5116
ries	-10.5117
▁inner	-10.512
▁Ver	-10.5121
▁Te	-10.5123
▁suggestion	-10.5124
▁Text	-10.5127
▁payment	-10.5127
▁Foundation	-10.5136
ification	-10.5137
▁scored	-10.5137
▁byte	-10.5138
Column	-10.5139
▁Every	-10.5147
room	-10.5152
float	-10.5165
▁marriage	-10.5169
▁challenge	-10.517
▁Image	-10.5175
▁academic	-10.518
response	-10.5182
scale	-10.5194
▁Would	-10.5199
▁schedule	-10.5206
▁carry	-10.5215
▁desired	-10.5216
▁cold	-10.5218
▁override	-10.5218
$$	-10.5219
OS	-10.5219
▁Log	-10.5221
▁apps	-10.5226
▁eyes	-10.5228
▁fan	-10.5229
meta	-10.5229
ins	-10.5231
▁claims	-10.5234
▁Unfortunately	-10.5236
▁cities	-10.5236
▁mysql	-10.5238
▁sell	-10.5245
▁Summer	-10.5247
du	-10.525
▁Online	-10.5257
▁register	-10.526
▁flat	-10.5261
stream	-10.5262
▁<=	-10.5264
)?	-10.5266
▁Ireland	-10.5269
▁fish	-10.5275
]:	-10.5277
▁wood	-10.5279
gl	-10.5285
▁tend	-10.5289
▁modified	-10.5291
▁trigger	-10.5294
▁Fa	-10.5295
▁Oh	-10.5303
uri	-10.5305
exe	-10.5306
▁familiar	-10.531
▁kids	-10.5312
▁frequency	-10.5314
▁parallel	-10.5315
▁occurs	-10.5319
▁mainly	-10.532
mark	-10.5322
Thread	-10.5322
▁feeling	-10.5323
▁pool	-10.5326
▁executed	-10.5331
▁noticed	-10.5333
admin	-10.5338
▁suggestions	-10.5338
▁agreement	-10.534
▁ahead	-10.534
▁IN	-10.5342
▁ng	-10.5343
▁partner	-10.5348
Listener	-10.5354
▁religious	-10.5354
ette	-10.5357
▁Games	-10.5363
}"	-10.5364
▁insurance	-10.5368
={	-10.5372
▁Italy	-10.5373
▁JavaScript	-10.5394
▁battery	-10.5397
▁Internet	-10.5398
column	-10.5402
▁sale	-10.5402
ify	-10.5403
ward	-10.5429
▁:=	-10.5431
▁installation	-10.5431
▁tags	-10.5431
sk	-10.5434
?"	-10.5436
address	-10.5437
▁loading	-10.5439
▁Spring	-10.545
▁admin	-10.5452
▁symbol	-10.5452
▁presence	-10.5456
▁obtain	-10.5458
▁linear	-10.5459
iv	-10.546
▁hospital	-10.5461
▁showed	-10.5463
Control	-10.5465
▁visual	-10.5465
▁Christmas	-10.5465
▁cat	-10.5474
▁origin	-10.5475
RE	-10.5475
▁resolution	-10.5476
▁learned	-10.5477
only	-10.548
mb	-10.548
▁kill	-10.5481
ino	-10.5482
▁trial	-10.5485
"><	-10.5486
▁mi	-10.5487
Box	-10.5491
▁boot	-10.5494
SP	-10.551
▁hide	-10.551
▁xmlns	-10.5516
store	-10.5527
As	-10.5529
▁Zealand	-10.5532
▁Inc	-10.5533
join	-10.5534
af	-10.5538
▁fuel	-10.5543
▁keeping	-10.5546
stackexchange	-10.5556
▁Mexico	-10.5557
tain	-10.5557
▁Tour	-10.5573
▁Town	-10.5577
ven	-10.5582
▁articles	-10.5588
ray	-10.5591
▁Commission	-10.5593
▁equation	-10.5593
▁attached	-10.5601
▁spaces	-10.5604
▁identity	-10.5605
section	-10.5606
▁lists	-10.5609
▁efforts	-10.5618
▁artists	-10.5618
username	-10.5619
▁chosen	-10.5621
▁county	-10.5623
property	-10.5625
▁historical	-10.5627
replace	-10.5627
▁increasing	-10.5628
▁positions	-10.5631
▁Tu	-10.5636
▁combined	-10.5637
▁Ni	-10.566
CC	-10.5661
▁upload	-10.5662
▁semi	-10.5665
▁fails	-10.5673
▁Light	-10.5674
▁statements	-10.5676
▁letters	-10.568
▁MS	-10.5687
▁wonder	-10.5689
▁cash	-10.5689
weight	-10.569
▁miles	-10.569
Users	-10.569
▁impossible	-10.569
application	-10.5696
▁mission	-10.5698
▁anywhere	-10.57
▁speak	-10.5706
▁chat	-10.5707
▁Director	-10.5712
bb	-10.5712
Length	-10.5714
win	-10.5715
your	-10.5716
▁Family	-10.5721
▁execution	-10.5725
▁Master	-10.5726
▁holds	-10.5727
▁Angeles	-10.5729
▁binary	-10.5733
▁Dan	-10.5736
▁Chi	-10.5741
▁truth	-10.5744
▁appreciate	-10.5744
ions	-10.5745
▁Sha	-10.5748
auto	-10.5751
▁Friday	-10.5756
▁Times	-10.576
▁Work	-10.5767
town	-10.5772
err	-10.5775
▁Pan	-10.5776
▁eat	-10.5776
▁Valley	-10.5781
ER	-10.5781
▁Social	-10.5784
▁Perhaps	-10.5785
▁Da	-10.5785
а	-10.5786
ep	-10.5787
▁nodes	-10.5787
▁southern	-10.579
▁army	-10.5791
▁studied	-10.58
▁blocks	-10.5803
support	-10.5803
▁Program	-10.5807
▁se	-10.5807
▁parties	-10.5807
▁nine	-10.5808
submit	-10.5809
▁billion	-10.5812
▁Example	-10.5814
low	-10.5817
▁corresponding	-10.5821
▁candidate	-10.5821
▁turns	-10.5822
Range	-10.5822
▁du	-10.5823
▁Jo	-10.5836
▁officer	-10.5836
▁secret	-10.5837
Response	-10.5839
▁reduced	-10.584
▁hardware	-10.5841
case	-10.5841
▁plants	-10.5842
ue	-10.5845
▁holding	-10.5856
wp	-10.5856
▁Virginia	-10.5858
Format	-10.5861
container	-10.5862
▁cultural	-10.5863
▁northern	-10.5866
▁Port	-10.5866
▁bought	-10.5869
Title	-10.587
í	-10.5874
▁census	-10.5897
Command	-10.5898
ea	-10.5898
▁Saint	-10.5899
▁budget	-10.5901
▁recommended	-10.5901
▁q	-10.5903
▁chief	-10.5911
ok	-10.5913
ile	-10.5914
▁professor	-10.5916
▁*)	-10.5922
▁experienced	-10.593
▁generation	-10.593
pro	-10.5932
MS	-10.5935
▁street	-10.5936
Point	-10.5937
are	-10.5942
▁magazine	-10.5944
▁investment	-10.5949
push	-10.5951
▁girl	-10.5952
▁magic	-10.5952
=\	-10.5953
▁fairly	-10.5955
grid	-10.5956
▁escape	-10.5959
▁reply	-10.5961
▁mail	-10.5963
▁reality	-10.5966
window	-10.5967
▁confused	-10.5967
▁consists	-10.5972
▁bridge	-10.5985
▁resolve	-10.5987
▁Sir	-10.5996
rm	-10.5999
▁Security	-10.6007
▁assign	-10.601
act	-10.6013
▁carried	-10.6016
▁Bra	-10.6016
▁Par	-10.6018
▁somehow	-10.6023
ita	-10.6024
▁Lee	-10.6026
▁earth	-10.6031
docs	-10.6031
Location	-10.6041
▁cycle	-10.6043
child	-10.6043
▁Latin	-10.6044
▁corner	-10.6045
Status	-10.6047
▁laws	-10.6057
▁welcome	-10.6059
tal	-10.606
▁iOS	-10.6061
ious	-10.6063
▁JOIN	-10.6063
ani	-10.6071
Collection	-10.6072
▁callback	-10.6073
▁scroll	-10.6075
▁cancer	-10.6076
Open	-10.6081
▁encoding	-10.6082
je	-10.6082
▁Fire	-10.609
Default	-10.6091
pass	-10.6092
▁occurred	-10.6096
AP	-10.6097
▁wear	-10.6099
login	-10.6102
▁Community	-10.6104
air	-10.6108
phone	-10.6112
▁Application	-10.6114
▁Gold	-10.6117
ST	-10.6125
wiki	-10.6126
hu	-10.6126
▁rates	-10.6128
▁tasks	-10.6129
▁ice	-10.6131
▁[[	-10.6132
▁Wood	-10.6133
▁luck	-10.6134
change	-10.6136
ene	-10.6139
▁essential	-10.6143
▁singer	-10.6145
▁requirement	-10.6146
▁recording	-10.6147
▁Gar	-10.6147
nav	-10.6153
▁expand	-10.6155
Link	-10.6158
▁perspective	-10.6159
▁leads	-10.6162
wi	-10.6162
stone	-10.6163
▁Form	-10.6164
▁transition	-10.6165
▁exercise	-10.6168
▁teacher	-10.617
▁birth	-10.618
▁Hu	-10.6181
▁Soviet	-10.6182
ens	-10.6183
Product	-10.6183
PA	-10.6186
▁Cross	-10.6187
▁$_	-10.6192
CA	-10.6193
▁Real	-10.6194
bi	-10.6199
▁Vi	-10.62
ev	-10.62
▁queries	-10.6203
▁Mi	-10.6206
Activity	-10.6206
tu	-10.621
▁suspect	-10.6211
▁expensive	-10.6216
▁lock	-10.6221
▁behaviour	-10.6222
▁Israel	-10.6223
▁audience	-10.6224
▁sister	-10.6231
ez	-10.6237
sqrt	-10.6244
▁exit	-10.6246
eg	-10.6247
▁OR	-10.6247
▁businesses	-10.6248
▁Ro	-10.6254
ned	-10.6264
Width	-10.6272
▁contents	-10.6274
▁Back	-10.6274
place	-10.6275
btn	-10.6278
▁shop	-10.6278
▁ends	-10.6281
▁SO	-10.6284
bind	-10.6284
javascript	-10.6285
word	-10.6287
▁explicitly	-10.6289
▁ordered	-10.6292
▁stars	-10.6293
▁Land	-10.6293
▁explained	-10.6294
king	-10.6295
Window	-10.6297
play	-10.6298
▁mouse	-10.6298
after	-10.6301
IT	-10.6308
▁def	-10.6308
▁Despite	-10.631
▁weather	-10.6313
▁differences	-10.6313
▁strange	-10.6315
▁jobs	-10.6315
▁locations	-10.6317
▁regex	-10.6318
▁unknown	-10.6319
▁gun	-10.632
▁colors	-10.6321
▁Chief	-10.6321
▁MySQL	-10.6324
ach	-10.6324
sort	-10.6326
▁Ru	-10.6328
▁boolean	-10.6337
hat	-10.6343
▁waiting	-10.6344
▁absolute	-10.6348
▁commands	-10.6351
▁phrase	-10.6352
▁scenario	-10.6355
▁somewhat	-10.6358
tmp	-10.6359
▁Dec	-10.6359
Entity	-10.6368
▁climate	-10.6375
ef	-10.6376
▁communities	-10.638
▁mixed	-10.6381
ola	-10.639
▁conversion	-10.64
▁bill	-10.6401
▁assuming	-10.6408
▁Records	-10.641
ari	-10.641
▁warning	-10.6418
remove	-10.6419
AS	-10.6421
▁SP	-10.6421
▁Battle	-10.6423
python	-10.6423
Co	-10.6423
▁Special	-10.6425
▁defeated	-10.6427
partial	-10.6429
▁transform	-10.6429
Address	-10.6435
▁receiving	-10.6438
git	-10.6439
▁CD	-10.644
▁JS	-10.6442
▁railway	-10.645
ure	-10.645
"),	-10.6451
▁stress	-10.6452
▁believed	-10.6457
star	-10.6465
▁animals	-10.6468
▁attributes	-10.6469
▁leaders	-10.647
▁enabled	-10.6473
▁fair	-10.6482
▁victory	-10.6482
▁CA	-10.6485
Document	-10.6485
cast	-10.6486
▁smooth	-10.6486
▁libraries	-10.6489
▁architecture	-10.6491
▁attacks	-10.6495
▁necessarily	-10.6497
/**	-10.6507
▁Conference	-10.6508
ball	-10.651
▁instructions	-10.6515
▁manual	-10.6515
▁winter	-10.6519
▁issued	-10.6523
▁USB	-10.6523
▁Ex	-10.6533
split	-10.6534
▁Ubuntu	-10.6537
▁supports	-10.6543
▁trans	-10.6545
▁accounts	-10.6545
>>>	-10.6545
▁commonly	-10.6551
▁ring	-10.6556
▁Finally	-10.6566
▁civil	-10.6569
▁photos	-10.657
▁parse	-10.6574
▁crew	-10.6574
▁Select	-10.658
▁dry	-10.6582
tz	-10.6583
ViewController	-10.6583
▁minute	-10.6584
▁absolutely	-10.6587
▁kernel	-10.6587
▁sharing	-10.6589
▁Joseph	-10.6589
▁Number	-10.6592
▁prove	-10.6592
▁residents	-10.6592
Provider	-10.6596
▁claimed	-10.6597
▁knows	-10.6598
domain	-10.66
▁generic	-10.6601
▁depend	-10.6606
▁license	-10.6606
▁dont	-10.6607
▁transport	-10.6609
▁bound	-10.6612
law	-10.6621
▁mix	-10.6622
▁administration	-10.6624
▁Library	-10.6628
har	-10.6634
▁trick	-10.6635
▁agent	-10.6637
icon	-10.6638
method	-10.6639
ky	-10.6647
static	-10.665
▁possibility	-10.6654
▁Northern	-10.6659
non	-10.6661
invoke	-10.6663
session	-10.6666
▁Visual	-10.6667
▁Math	-10.6667
IO	-10.667
▁obj	-10.6672
art	-10.6673
Task	-10.6674
▁respectively	-10.6686
▁Assembly	-10.6688
▁demand	-10.669
▁wind	-10.669
▁extract	-10.669
▁Bre	-10.6692
controller	-10.6694
▁wire	-10.6694
▁meta	-10.6695
▁portion	-10.6695
arr	-10.6704
▁determined	-10.6716
▁Middle	-10.6719
▁obviously	-10.6725
Script	-10.6729
▁king	-10.6734
One	-10.6739
▁creates	-10.6739
▁Van	-10.674
▁dates	-10.6744
Session	-10.6745
▁totally	-10.6746
▁updates	-10.6751
▁Three	-10.6751
▁HTTP	-10.6752
▁detailed	-10.6754
ero	-10.6757
▁marked	-10.6758
pur	-10.6759
ata	-10.6768
▁manner	-10.6768
▁rich	-10.6769
uck	-10.6771
springframework	-10.6773
▁obtained	-10.6787
▁bus	-10.6788
ological	-10.6793
berg	-10.6794
▁ha	-10.6796
▁executive	-10.6802
▁Head	-10.6805
▁primarily	-10.6805
▁stuck	-10.6806
▁complicated	-10.6807
▁permission	-10.6811
▁Press	-10.6812
▁musical	-10.6812
times	-10.6813
▁organizations	-10.6814
▁frequently	-10.6816
▁arrived	-10.682
▁Jewish	-10.682
AL	-10.6828
"))	-10.683
qui	-10.6849
ware	-10.6851
▁cars	-10.6852
▁continues	-10.6854
▁Radio	-10.6857
ane	-10.6858
▁Pat	-10.6862
PS	-10.6862
parse	-10.6868
▁raise	-10.6871
▁realize	-10.688
▁Dis	-10.6882
▁num	-10.6894
Un	-10.6895
▁earned	-10.6897
▁forget	-10.6897
▁opposite	-10.69
▁union	-10.6901
▁reasonable	-10.6906
▁flash	-10.6909
▁Information	-10.6912
▁debug	-10.6913
isation	-10.6916
process	-10.6917
Container	-10.6917
▁provider	-10.6918
▁Change	-10.6919
▁Array	-10.6919
control	-10.6924
▁regional	-10.6926
▁conference	-10.693
▁keyboard	-10.6931
▁ratio	-10.6933
oc	-10.6937
▁Custom	-10.6938
▁Video	-10.6944
▁math	-10.6945
▁mental	-10.6947
ou	-10.6949
ju	-10.6959
Config	-10.6961
▁amazing	-10.6961
spec	-10.6961
▁mistake	-10.6967
Order	-10.6967
▁techniques	-10.6967
▁Human	-10.6968
▁Run	-10.6969
ado	-10.6969
▁handler	-10.6973
ud	-10.6974
▁searching	-10.6981
IS	-10.6983
lon	-10.6984
dp	-10.6986
▁Asia	-10.6993
▁Track	-10.6997
args	-10.6998
▁imagine	-10.7001
▁Young	-10.7002
Sub	-10.7005
▁helping	-10.7005
▁NS	-10.7005
▁density	-10.7006
▁Point	-10.701
zi	-10.7011
ä	-10.7014
▁Southern	-10.7016
▁Frank	-10.7016
▁Ra	-10.7018
▁developer	-10.7024
▁identified	-10.7026
water	-10.7031
▁Start	-10.7031
▁Po	-10.7046
▁export	-10.7047
▁Col	-10.705
▁prices	-10.7053
Mode	-10.7054
▁focused	-10.7055
▁respond	-10.7061
▁era	-10.7062
▁foot	-10.7072
▁Ja	-10.7073
▁Navy	-10.7076
▁stone	-10.7079
▁Action	-10.7081
▁TO	-10.7082
▁validation	-10.7082
insert	-10.7082
▁Ya	-10.7083
▁indicate	-10.7085
Template	-10.7087
▁·	-10.7094
▁Control	-10.7094
▁entries	-10.7095
▁Saturday	-10.7095
▁glass	-10.7096
▁motion	-10.7097
▁Ph	-10.7102
▁removing	-10.7104
▁depth	-10.7105
sha	-10.7108
▁filled	-10.7109
▁motor	-10.7112
▁roof	-10.7119
bl	-10.7121
▁noise	-10.7122
ble	-10.7128
▁shift	-10.7129
▁в	-10.7134
lambda	-10.7136
▁Content	-10.7137
▁animation	-10.714
▁facilities	-10.7144
▁IE	-10.7153
▁feed	-10.7153
▁refers	-10.7154
▁undefined	-10.7157
▁distinct	-10.7158
▁listing	-10.7161
▁usual	-10.7162
▁driving	-10.7163
▁scientific	-10.7163
▁Sch	-10.7165
▁reader	-10.7166
▁conflict	-10.7182
▁journey	-10.7182
▁Trump	-10.7183
▁spell	-10.7186
▁soft	-10.719
▁van	-10.7192
ā	-10.7197
▁Ba	-10.7197
▁Click	-10.7198
▁economy	-10.72
▁redirect	-10.7204
images	-10.7208
ade	-10.7209
▁replacement	-10.721
▁Spain	-10.7212
aspx	-10.7215
era	-10.7218
ag	-10.7219
▁Irish	-10.7226
י	-10.7233
mysql	-10.7236
Con	-10.7238
▁trees	-10.7241
tree	-10.7242
even	-10.7244
▁affected	-10.7249
▁ancient	-10.725
▁icon	-10.7251
▁bi	-10.7252
▁/*	-10.7254
getElementById	-10.7255
▁western	-10.7256
▁typical	-10.7256
▁Carolina	-10.7261
ical	-10.7261
▁Major	-10.7262
▁prepared	-10.7265
▁technique	-10.728
▁standards	-10.7283
lt	-10.7286
vin	-10.7286
▁guys	-10.729
▁colour	-10.7294
▁translation	-10.7296
zo	-10.7299
▁plain	-10.7299
▁camp	-10.7302
▁Gen	-10.7305
ably	-10.7307
▁connections	-10.7311
▁nearby	-10.7315
price	-10.7315
▁missed	-10.732
▁registered	-10.7327
iz	-10.7332
ich	-10.7346
▁suggests	-10.7346
▁plane	-10.7349
▁rare	-10.7351
▁Dar	-10.7353
Update	-10.7353
▁formal	-10.7354
▁detect	-10.7356
Adapter	-10.7357
Options	-10.7361
dis	-10.7362
struct	-10.7365
▁delay	-10.7368
▁Mer	-10.7369
▁funds	-10.7371
Read	-10.7374
▁Final	-10.7374
▁recognized	-10.7375
▁Pacific	-10.7379
og	-10.7388
▁Amazon	-10.7391
▁Access	-10.7391
ph	-10.7393
▁roles	-10.7394
▁li	-10.7396
AC	-10.7397
▁fashion	-10.7397
vi	-10.7401
options	-10.7403
▁revealed	-10.7404
▁Gu	-10.7408
Items	-10.7412
tex	-10.7413
▁guy	-10.7417
cy	-10.7419
▁Inter	-10.7421
total	-10.7429
▁Cat	-10.7431
▁broadcast	-10.7433
:@"	-10.7435
Search	-10.7438
ano	-10.7441
▁smart	-10.7442
screen	-10.7446
▁patient	-10.7458
ram	-10.7459
ib	-10.7461
▁taught	-10.7463
aka	-10.7464
Out	-10.7466
▁fear	-10.7468
ris	-10.7468
▁Market	-10.7469
▁lies	-10.7469
▁effectively	-10.7476
▁%>	-10.7476
▁planned	-10.7477
▁Scott	-10.7479
▁Local	-10.7482
NA	-10.7489
▁Sports	-10.749
▁Global	-10.7491
▁dance	-10.7493
▁confirmed	-10.7494
▁handling	-10.7503
▁fly	-10.7505
other	-10.7508
▁buttons	-10.7509
▁classic	-10.7509
yl	-10.751
▁purchased	-10.7511
eb	-10.7513
▁Cor	-10.7513
▁secondary	-10.7518
▁nil	-10.7523
▁Centre	-10.7524
▁hotel	-10.7529
▁converted	-10.7533
▁sides	-10.7539
IF	-10.754
Dialog	-10.7542
ü	-10.7543
▁leadership	-10.7545
▁Jack	-10.7547
▁certificate	-10.7548
▁Hospital	-10.7552
▁waste	-10.7553
▁iron	-10.7554
▁considering	-10.7555
▁express	-10.7556
▁repeat	-10.7558
▁Ga	-10.7558
▁losing	-10.7559
▁Field	-10.7564
▁ignore	-10.7569
▁concerned	-10.7575
▁pictures	-10.7578
▁neither	-10.7583
▁stores	-10.7586
▁rise	-10.7588
▁fans	-10.7589
▁operated	-10.759
▁Technology	-10.759
▁nation	-10.7591
▁joint	-10.7595
▁Monday	-10.7596
cout	-10.7598
▁circle	-10.7598
mat	-10.76
▁toward	-10.7602
▁drug	-10.7607
▁comparison	-10.7609
real	-10.7609
▁wave	-10.7614
any	-10.7615
▁boost	-10.7616
▁humans	-10.7617
game	-10.7619
т	-10.762
▁videos	-10.7621
}(	-10.7623
ow	-10.7624
▁worry	-10.7625
He	-10.7625
▁practices	-10.7628
▁suitable	-10.7629
ations	-10.763
▁PDF	-10.7631
▁Federal	-10.7633
▁queue	-10.7637
▁Cast	-10.7641
ena	-10.7642
▁worse	-10.7644
TV	-10.7647
IC	-10.7647
▁agreed	-10.765
▁Food	-10.765
▁Bob	-10.7653
▁thousands	-10.7654
mode	-10.7656
GET	-10.7656
▁Plan	-10.7658
▁significantly	-10.7663
▁Those	-10.7663
▁Queen	-10.7668
ming	-10.7668
▁suppose	-10.767
▁acquired	-10.7671
▁speaking	-10.7672
▁bits	-10.7673
▁expansion	-10.7673
che	-10.7674
▁sheet	-10.7674
▁sit	-10.7678
▁literature	-10.7678
▁constructed	-10.7678
▁hence	-10.768
▁stopped	-10.7683
▁council	-10.7683
▁PS	-10.7685
theta	-10.7689
▁salt	-10.7689
▁representation	-10.769
▁bio	-10.7691
▁widely	-10.7696
▁Chrome	-10.7697
NO	-10.7698
most	-10.7698
▁essentially	-10.7701
▁CPU	-10.7706
▁thoughts	-10.7712
oo	-10.7718
ella	-10.7719
▁opportunities	-10.7723
▁biggest	-10.7723
conf	-10.7723
▁quarter	-10.7725
▁authority	-10.7729
▁composed	-10.7729
▁instances	-10.7731
ks	-10.7732
▁concern	-10.7737
▁animal	-10.774
▁derived	-10.7743
True	-10.7743
final	-10.775
ding	-10.7754
▁bigger	-10.7755
▁assembly	-10.7756
)]	-10.7756
▁employee	-10.7758
▁Empire	-10.776
▁Station	-10.776
▁dialog	-10.7766
Grid	-10.7767
▁offering	-10.7768
▁Tor	-10.777
SQL	-10.7771
uc	-10.7773
▁quote	-10.7775
lar	-10.7776
▁raw	-10.7777
▁Prime	-10.7778
▁resistance	-10.7783
▁Look	-10.7786
▁Er	-10.7786
▁>=	-10.7796
▁electric	-10.7799
▁Louis	-10.78
cent	-10.7804
▁Cha	-10.7806
"?	-10.781
▁defense	-10.781
▁contrast	-10.7811
▁>>	-10.7814
localhost	-10.7814
▁roll	-10.7815
▁knowing	-10.7818
▁odd	-10.7819
▁injury	-10.782
▁weekend	-10.7821
od	-10.7829
▁feedback	-10.7839
person	-10.7843
ama	-10.7844
▁peace	-10.7844
▁planet	-10.7854
month	-10.7856
▁controls	-10.786
▁reset	-10.7863
ever	-10.7864
▁categories	-10.7864
▁ending	-10.7865
Attribute	-10.7867
foreach	-10.7868
▁Far	-10.787
Height	-10.787
▁extend	-10.7871
Current	-10.7872
▁namespace	-10.7873
▁tracks	-10.7874
▁binding	-10.7877
▁silver	-10.7878
mathbf	-10.7885
▁alongside	-10.789
margin	-10.7891
what	-10.7897
▁threads	-10.7899
▁cable	-10.791
illa	-10.7911
▁Space	-10.7914
gi	-10.7914
vert	-10.7918
ON	-10.7919
▁intent	-10.7922
nes	-10.7924
▁opposed	-10.7926
▁foo	-10.793
▁truly	-10.7939
blog	-10.7941
cr	-10.7942
▁sector	-10.7943
▁existence	-10.7945
▁concerns	-10.7947
▁Joe	-10.7949
items	-10.7953
▁healthy	-10.7957
▁houses	-10.7957
▁sexual	-10.7959
bu	-10.7966
define	-10.7967
▁retired	-10.7973
▁destroyed	-10.7975
Panel	-10.7976
%)	-10.7976
▁Medical	-10.7978
make	-10.7983
▁accurate	-10.7984
о	-10.7985
▁subsequently	-10.7989
'),	-10.7989
▁Having	-10.799
▁Still	-10.7994
oon	-10.7994
▁divided	-10.8002
▁throws	-10.8002
▁bind	-10.8005
eo	-10.8008
▁weird	-10.8013
Function	-10.8016
▁structures	-10.8016
▁contained	-10.8017
▁newly	-10.8018
▁Search	-10.802
cs	-10.8021
▁iPhone	-10.8021
▁Asian	-10.8024
cos	-10.8026
▁III	-10.8027
▁zone	-10.8034
Builder	-10.8038
Token	-10.8041
ug	-10.8042
▁achieved	-10.8044
▁DC	-10.8044
▁understood	-10.8049
▁speech	-10.8051
▁Daniel	-10.8053
▁Journal	-10.8053
▁Mor	-10.8057
▁cloud	-10.8058
Click	-10.8059
▁pure	-10.8059
▁Though	-10.8064
▁clause	-10.8065
▁angle	-10.8066
▁Civil	-10.8067
tro	-10.8068
tel	-10.8069
▁reverse	-10.807
▁acting	-10.807
custom	-10.8072
▁Parliament	-10.8073
▁practical	-10.8079
▁git	-10.808
▁matching	-10.8082
▁weak	-10.8082
▁declare	-10.8084
▁temporary	-10.8085
▁Building	-10.8087
▁measures	-10.8089
▁Little	-10.8094
tar	-10.8098
▁dictionary	-10.8099
▁Has	-10.8103
mann	-10.8103
▁Johnson	-10.8105
▁retrieve	-10.8105
Up	-10.8108
ready	-10.811
has	-10.8114
▁grew	-10.8119
TO	-10.8122
▁conducted	-10.8123
▁sugar	-10.8127
ix	-10.813
▁represents	-10.8133
▁prime	-10.8133
▁statistics	-10.8135
▁performing	-10.8144
▁backup	-10.815
▁Che	-10.8151
▁tips	-10.8151
▁hosted	-10.8153
token	-10.8153
▁airport	-10.8154
library	-10.8156
sch	-10.8158
▁covers	-10.8159
▁coast	-10.8161
ub	-10.8164
▁relation	-10.8164
▁Command	-10.8167
▁housing	-10.8168
▁par	-10.8168
▁addresses	-10.817
▁whenever	-10.8172
▁Jones	-10.8174
Position	-10.8174
▁confirm	-10.818
▁guitar	-10.8181
▁deleted	-10.8189
▁Democratic	-10.819
▁probability	-10.8199
▁facility	-10.82
files	-10.82
▁begins	-10.8204
▁packages	-10.8205
▁engineering	-10.8207
▁baby	-10.8212
▁username	-10.8213
▁fellow	-10.8213
▁machines	-10.8215
с	-10.8217
▁drawing	-10.8219
cf	-10.8221
="@	-10.8225
rn	-10.8225
▁factory	-10.8238
▁Wi	-10.8242
▁paint	-10.8243
▁NA	-10.8247
step	-10.8251
▁mapping	-10.8252
GL	-10.8253
▁yellow	-10.8255
▁girls	-10.8256
article	-10.8256
FS	-10.8257
▁transferred	-10.8259
rt	-10.8263
sky	-10.8266
▁Ten	-10.8268
▁Report	-10.827
▁degrees	-10.8272
Resource	-10.8277
▁ships	-10.8278
▁partition	-10.8279
vec	-10.828
ai	-10.8281
▁steel	-10.8288
ren	-10.8292
▁answered	-10.8292
▁fell	-10.8293
▁Railway	-10.8296
SA	-10.8297
▁Store	-10.8297
What	-10.8301
▁Mon	-10.8303
Me	-10.8304
▁medium	-10.8308
▁youth	-10.8308
▁Britain	-10.831
▁surrounding	-10.8312
'];	-10.8313
▁Senate	-10.8316
▁"$	-10.8316
beta	-10.832
▁repair	-10.8324
▁estimated	-10.8324
▁Beach	-10.8326
sin	-10.8337
related	-10.8339
▁Guide	-10.834
▁saving	-10.8344
▁Week	-10.8344
Int	-10.8348
SC	-10.8349
▁clock	-10.835
▁treat	-10.835
ToString	-10.8351
▁Given	-10.8351
lines	-10.8352
▁leg	-10.8355
▁Wales	-10.8356
▁delivery	-10.8358
▁officers	-10.8362
▁$('#	-10.8363
▁genus	-10.8364
selected	-10.837
▁xml	-10.8374
▁dropped	-10.8374
▁demo	-10.8377
▁Night	-10.8377
▁Eastern	-10.8385
▁serves	-10.8385
▁fifth	-10.8389
▁mountain	-10.839
▁murder	-10.839
Buffer	-10.8392
▁garden	-10.8392
)^	-10.8393
▁Keep	-10.8396
▁None	-10.8399
pp	-10.84
▁elections	-10.8407
▁collect	-10.8414
execute	-10.842
▁Comments	-10.8428
▁debt	-10.8434
▁grade	-10.8438
▁Boston	-10.8446
cher	-10.8446
▁Fort	-10.8447
▁closer	-10.8448
Bundle	-10.8448
med	-10.8455
ala	-10.8457
▁Additionally	-10.8459
card	-10.8469
▁Chris	-10.8471
▁Si	-10.8472
▁expert	-10.8473
stop	-10.8477
▁Max	-10.848
▁Consider	-10.848
▁Base	-10.8481
▁greatly	-10.8481
▁disable	-10.8482
ula	-10.8487
van	-10.8492
▁scheme	-10.8493
▁del	-10.8497
▁gift	-10.85
bound	-10.8501
`?	-10.8502
ii	-10.8503
▁Olympics	-10.8504
▁stations	-10.851
▁partial	-10.8513
▁approved	-10.8515
TS	-10.8519
just	-10.8521
send	-10.8524
▁chose	-10.8524
▁warm	-10.8525
▁Actually	-10.8528
fo	-10.8531
md	-10.8531
▁actor	-10.8537
▁relationships	-10.8538
rc	-10.8539
ES	-10.8545
ica	-10.8545
▁producer	-10.8547
!"	-10.8551
Post	-10.8551
▁stick	-10.8557
Main	-10.8559
aries	-10.856
Binding	-10.856
then	-10.8561
▁rank	-10.8563
▁supporting	-10.8569
▁criminal	-10.8569
▁sh	-10.8573
▁Product	-10.858
▁pin	-10.8583
▁construct	-10.8585
▁Value	-10.8585
▁sufficient	-10.8587
▁NO	-10.8591
▁Bridge	-10.8591
▁Background	-10.8592
▁importance	-10.8592
▁Dutch	-10.8594
vector	-10.8594
▁taste	-10.8594
Str	-10.8595
▁abstract	-10.8597
▁apart	-10.8597
▁funding	-10.86
▁administrative	-10.8606
▁Wall	-10.8611
rows	-10.8612
▁[]	-10.8613
First	-10.8614
▁facing	-10.8618
▁survey	-10.8619
▁commit	-10.862
sigma	-10.8623
profile	-10.8623
▁organized	-10.8626
▁improved	-10.8627
▁championship	-10.8632
try	-10.8636
ties	-10.8647
cd	-10.8652
▁copies	-10.8655
ski	-10.8656
MP	-10.8657
▁forest	-10.8658
cal	-10.8662
▁mechanism	-10.8662
Frame	-10.8663
av	-10.8665
▁tries	-10.8668
▁Map	-10.8669
ls	-10.867
including	-10.8676
▁blank	-10.8676
▁que	-10.8677
▁largely	-10.8678
▁troops	-10.8678
▁painting	-10.8681
Net	-10.8684
dar	-10.8685
▁mo	-10.8687
▁creative	-10.869
ria	-10.8693
▁stable	-10.8693
▁winner	-10.8694
cache	-10.8694
▁coffee	-10.8696
▁inspired	-10.8699
▁Championships	-10.8701
▁Ram	-10.8702
▁Francisco	-10.8703
▁para	-10.8705
▁Season	-10.8706
▁Governor	-10.8712
я	-10.8716
▁destination	-10.8716
▁SELECT	-10.8724
connect	-10.8726
▁verify	-10.8733
▁Age	-10.8739
gy	-10.8739
Be	-10.874
▁Manager	-10.8741
▁defeat	-10.8745
▁},	-10.8746
func	-10.8746
▁anymore	-10.8747
▁upgrade	-10.8748
▁patterns	-10.8751
=$	-10.8751
▁maintenance	-10.8757
▁concrete	-10.8759
▁adult	-10.876
▁args	-10.8761
▁fruit	-10.8762
Module	-10.877
▁reaction	-10.8773
▁Republican	-10.8782
▁Due	-10.8784
▁vision	-10.8784
Block	-10.8786
▁consistent	-10.8791
и	-10.8791
▁Ki	-10.8797
▁Michigan	-10.8799
dia	-10.8799
▁Area	-10.8804
▁pan	-10.8804
dom	-10.8805
LE	-10.8806
▁drama	-10.8806
▁Mike	-10.8811
^{-	-10.8813
bus	-10.8814
idae	-10.8816
ox	-10.8817
▁identical	-10.8818
▁Andrew	-10.8818
users	-10.8818
▁association	-10.8821
Not	-10.8822
▁coverage	-10.8822
▁"<	-10.8822
Store	-10.8824
▁monitor	-10.8826
▁seemed	-10.8832
▁Bi	-10.8833
у	-10.8835
▁narrow	-10.8835
▁moves	-10.8837
Or	-10.8839
▁quotes	-10.8839
▁assistant	-10.8843
kar	-10.8847
eh	-10.8849
Load	-10.8852
▁bonus	-10.8854
pr	-10.8854
▁orders	-10.8859
▁gl	-10.8862
mathcal	-10.8865
}]	-10.8867
world	-10.8872
▁RE	-10.8873
▁bundle	-10.8875
▁guest	-10.8876
▁rep	-10.8878
▁pointed	-10.8882
▁Fair	-10.8884
▁industrial	-10.8884
At	-10.8884
$(	-10.8885
▁conversation	-10.8885
▁officially	-10.889
?)	-10.889
▁Mel	-10.8891
▁Police	-10.8894
▁combat	-10.8894
▁granted	-10.8898
▁ultimately	-10.89
Edit	-10.89
▁telling	-10.8901
[{	-10.8902
▁accessible	-10.8909
▁freedom	-10.891
rum	-10.8911
▁Contact	-10.8915
▁attempts	-10.8917
▁verb	-10.8919
▁Help	-10.8921
▁Ku	-10.8921
▁observed	-10.8923
▁competed	-10.8925
▁sc	-10.8927
▁Without	-10.8929
▁Full	-10.8933
▁whereas	-10.8937
▁medal	-10.8937
▁Yeah	-10.8937
▁с	-10.894
author	-10.894
▁Death	-10.8944
▁regardless	-10.8944
uring	-10.8945
▁Question	-10.8946
Transaction	-10.8949
lam	-10.8953
▁tutorial	-10.8955
▁principal	-10.8955
cut	-10.8956
ric	-10.8957
END	-10.8959
▁policies	-10.8962
д	-10.8968
▁beat	-10.8971
▁promoted	-10.8971
▁graduated	-10.8974
▁trace	-10.8975
▁Theatre	-10.8975
▁referring	-10.8976
▁sweet	-10.8981
▁expanded	-10.8984
▁clarify	-10.8985
▁Twitter	-10.8987
▁discuss	-10.8987
▁Price	-10.8991
▁Min	-10.8992
▁Va	-10.8996
▁regions	-10.8999
IM	-10.9
▁permanent	-10.9006
▁Route	-10.9007
▁css	-10.9009
▁val	-10.9012
command	-10.9013
▁comfortable	-10.9014
security	-10.9014
▁Justice	-10.9025
microsoft	-10.9028
▁protocol	-10.9031
ese	-10.9033
lat	-10.9033
▁invalid	-10.9033
▁faith	-10.9034
gg	-10.9034
▁Province	-10.9037
▁Prince	-10.9037
▁Results	-10.9037
▁operate	-10.9041
internal	-10.9043
Record	-10.9047
second	-10.9048
▁dealing	-10.9053
cho	-10.9054
gu	-10.9061
ase	-10.9062
▁aspects	-10.9064
▁Ban	-10.9067
face	-10.9067
▁titles	-10.9069
cdot	-10.9069
▁signature	-10.907
▁broad	-10.907
▁Professor	-10.9071
debug	-10.9074
▁'<	-10.9075
▁mod	-10.9079
ett	-10.9081
▁Vol	-10.9082
Pro	-10.9082
▁Georgia	-10.9083
▁situations	-10.9083
▁apparently	-10.9084
▁offset	-10.9085
▁Sometimes	-10.9085
▁rain	-10.9086
two	-10.9086
fit	-10.9089
▁committed	-10.909
TA	-10.909
▁Kar	-10.9091
▁bunch	-10.9092
Instance	-10.9093
▁experiences	-10.9097
vis	-10.9097
▁rural	-10.9097
▁listen	-10.91
Impl	-10.9105
widget	-10.9107
▁pandemic	-10.9109
toString	-10.9117
▁Ca	-10.9122
▁Color	-10.9123
Http	-10.9125
▁hook	-10.9125
▁Williams	-10.9127
ants	-10.9129
▁Edward	-10.9129
}^	-10.9134
hand	-10.9135
▁assumed	-10.9136
%;	-10.9137
ving	-10.9138
▁matters	-10.9138
Show	-10.9139
▁Works	-10.9146
▁Basically	-10.9148
▁enemy	-10.9148
▁casino	-10.9152
▁padding	-10.9156
▁Santa	-10.9156
▁fighting	-10.9157
▁applies	-10.916
double	-10.9162
▁editing	-10.9163
DS	-10.9164
ae	-10.9164
hl	-10.9165
▁crash	-10.9166
Dim	-10.9168
▁jump	-10.9169
random	-10.9172
cur	-10.9175
Header	-10.9177
Email	-10.9178
ple	-10.9182
ments	-10.9182
▁cap	-10.9186
▁Ti	-10.9186
▁Ohio	-10.9186
EN	-10.919
MM	-10.919
▁coordinates	-10.9193
▁^	-10.9196
▁ma	-10.9197
▁assets	-10.9206
▁suit	-10.9207
▁continuous	-10.9214
▁le	-10.9214
▁sql	-10.9217
▁farm	-10.9217
▁votes	-10.922
▁plenty	-10.9223
▁ft	-10.9224
!)	-10.9225
▁formation	-10.9228
▁evening	-10.9231
▁explore	-10.9231
▁Val	-10.9232
▁committee	-10.9235
▁relations	-10.924
▁Hot	-10.9248
ó	-10.9249
▁treated	-10.925
▁crime	-10.925
vers	-10.9253
▁Non	-10.9261
▁officials	-10.9263
▁seek	-10.9264
▁};	-10.9265
▁subsequent	-10.9265
▁honor	-10.9268
▁des	-10.9269
▁prison	-10.9272
>();	-10.9272
▁describes	-10.9274
▁Hotel	-10.9275
ew	-10.9275
▁captured	-10.9276
▁wine	-10.9281
dr	-10.9282
▁Jersey	-10.9294
infty	-10.9294
▁Support	-10.9295
▁eastern	-10.9297
Tab	-10.9297
▁capable	-10.9299
▁awards	-10.93
▁{{	-10.93
values	-10.9304
▁wrap	-10.9305
NC	-10.9307
▁fat	-10.9307
nic	-10.9308
▁agency	-10.9309
▁deliver	-10.9311
▁gained	-10.9315
▁Mount	-10.9317
▁Cal	-10.9317
▁printed	-10.9318
▁Coast	-10.932
▁Poland	-10.9323
Account	-10.9324
ians	-10.933
▁environmental	-10.9331
▁permissions	-10.9334
ging	-10.9335
▁vice	-10.9336
▁Need	-10.9337
▁incorrect	-10.9338
▁acts	-10.9338
copy	-10.9339
▁Card	-10.9339
force	-10.934
▁Secretary	-10.9341
Html	-10.9342
▁decades	-10.9342
del	-10.9345
▁Account	-10.9347
▁snow	-10.9348
▁gear	-10.9349
player	-10.9349
ptr	-10.9349
GB	-10.935
в	-10.935
▁fee	-10.9356
▁developers	-10.9356
▁responsibility	-10.9356
▁soul	-10.936
▁Care	-10.9363
▁vertical	-10.9368
▁servers	-10.9372
▁===	-10.9375
▁Something	-10.9375
▁selling	-10.9377
▁weapons	-10.9379
Version	-10.9381
▁authentication	-10.9387
▁wild	-10.9388
▁Gi	-10.9388
▁interpretation	-10.9389
unit	-10.9395
els	-10.9397
▁percentage	-10.9398
▁vehicles	-10.9401
pl	-10.9402
▁limits	-10.9403
▁Step	-10.9403
▁newspaper	-10.9408
shi	-10.9408
known	-10.9412
▁Pennsylvania	-10.9415
buffer	-10.9417
▁accomplish	-10.9421
▁authorities	-10.9421
entry	-10.9425
uff	-10.943
empty	-10.9434
▁Supreme	-10.9439
life	-10.944
▁massive	-10.9444
▁walls	-10.945
▁mono	-10.9451
▁chapter	-10.9454
▁gender	-10.9458
▁municipality	-10.9458
▁stands	-10.9459
▁caught	-10.9464
▁dev	-10.9465
▁prepare	-10.9467
▁collected	-10.9467
▁closing	-10.9469
hy	-10.9469
)))	-10.947
▁bike	-10.9474
▁Tim	-10.9475
▁Scotland	-10.9481
▁assistance	-10.9482
▁scheduled	-10.9482
thread	-10.9484
▁Bur	-10.9484
▁brief	-10.9485
▁circumstances	-10.9492
▁texture	-10.9493
▁:-)	-10.9493
▁soil	-10.9498
ō	-10.9498
su	-10.9502
▁www	-10.9506
when	-10.9506
▁personally	-10.9508
▁desktop	-10.9514
tes	-10.9514
▁Previous	-10.9515
▁repository	-10.9524
▁soldiers	-10.9525
such	-10.9525
▁replacing	-10.953
▁horse	-10.9531
▁figures	-10.9531
ret	-10.9534
wan	-10.9534
American	-10.9536
▁(!	-10.9537
▁domestic	-10.9541
▁minimal	-10.9545
▁modules	-10.9549
Menu	-10.9551
▁landscape	-10.9553
▁Section	-10.9553
▁seasons	-10.9554
▁Four	-10.9556
▁plastic	-10.9557
city	-10.9558
▁strongly	-10.9564
▁Sta	-10.9564
Windows	-10.957
▁bool	-10.957
yn	-10.9571
video	-10.9574
▁sections	-10.9578
▁Hard	-10.9578
ual	-10.9586
lie	-10.9592
▁judge	-10.9593
bal	-10.9597
▁Shi	-10.9598
!!!	-10.9602
reference	-10.9603
▁Otherwise	-10.9603
▁loved	-10.9606
▁dream	-10.9607
▁rear	-10.9607
▁arm	-10.9608
▁EU	-10.9609
▁jquery	-10.9613
▁challenges	-10.9614
▁routes	-10.9617
▁basketball	-10.9617
▁featuring	-10.9621
hard	-10.9625
▁candidates	-10.9626
watch	-10.9631
▁Creek	-10.9633
▁spending	-10.9634
▁appearances	-10.9635
▁yield	-10.9637
description	-10.9638
▁Jim	-10.964
mathrm	-10.9641
\"	-10.9642
▁Corporation	-10.9642
▁MP	-10.9645
▁regularly	-10.9645
▁sin	-10.9648
▁Camp	-10.9652
▁standing	-10.9652
▁cup	-10.9653
▁outer	-10.9656
▁urban	-10.9657
▁wheel	-10.9665
▁navigation	-10.9665
gram	-10.9666
jsfiddle	-10.9667
▁extent	-10.9667
prop	-10.9669
▁adopted	-10.9671
tan	-10.9672
▁da	-10.9672
border	-10.969
▁expressed	-10.9691
▁socket	-10.9695
▁politics	-10.9696
="@+	-10.9696
Change	-10.9697
▁distributed	-10.97
▁sender	-10.9701
▁merge	-10.9701
▁draft	-10.9703
tech	-10.9706
msg	-10.9711
▁visited	-10.9713
Abstract	-10.9714
▁struct	-10.9717
▁criteria	-10.9718
($_	-10.9724
▁spec	-10.9725
▁principle	-10.9727
cu	-10.9731
▁AC	-10.9733
fs	-10.9734
м	-10.9735
▁wonderful	-10.9738
▁historic	-10.9741
▁Anti	-10.9746
н	-10.9747
Next	-10.975
▁province	-10.9751
also	-10.9753
▁brown	-10.9761
pid	-10.9762
▁UPDATE	-10.9764
▁dependent	-10.9764
▁Son	-10.9765
▁drawn	-10.9766
▁Site	-10.9768
▁Avenue	-10.9768
▁requested	-10.9769
▁dangerous	-10.9769
▁extensive	-10.9772
▁promote	-10.9772
▁keeps	-10.9774
Left	-10.9775
▁Download	-10.9777
▁Currently	-10.9778
ob	-10.9783
tools	-10.9784
▁potentially	-10.9784
▁doctor	-10.9784
▁Place	-10.9789
rie	-10.979
▁prominent	-10.9793
▁foreach	-10.9799
▁Band	-10.98
▁passes	-10.98
▁init	-10.9803
▁assist	-10.9803
▁wedding	-10.9805
Intent	-10.9805
▁aspect	-10.9808
▁hearing	-10.981
▁Again	-10.9812
plot	-10.9815
▁SE	-10.9818
▁der	-10.9821
▁Off	-10.9822
▁BC	-10.9822
CO	-10.9824
▁closely	-10.9827
ku	-10.983
▁axis	-10.9831
▁samples	-10.9832
▁bodies	-10.9834
fer	-10.9835
DE	-10.9836
▁IS	-10.9837
▁rating	-10.9839
SI	-10.9842
yan	-10.9843
▁Trust	-10.9843
▁compiled	-10.9845
OC	-10.9845
▁Very	-10.9848
▁proxy	-10.9854
▁→	-10.9854
▁protein	-10.9858
arg	-10.9859
under	-10.9859
▁AD	-10.9863
RT	-10.9865
▁OF	-10.9866
▁spin	-10.9866
▁Gallery	-10.9868
▁Vo	-10.9872
▁turning	-10.9874
tive	-10.9875
die	-10.9876
▁Based	-10.9877
▁papers	-10.9879
▁Professional	-10.9879
▁increases	-10.9882
▁controlled	-10.9883
▁publication	-10.9887
▁disabled	-10.9887
▁ajax	-10.9888
▁recognize	-10.9889
▁TABLE	-10.9893
л	-10.9894
▁debate	-10.9894
hal	-10.9896
▁authors	-10.9898
graph	-10.9899
▁hole	-10.99
▁mm	-10.99
▁investigation	-10.9901
mes	-10.9907
ruby	-10.991
ture	-10.9912
TextView	-10.9917
ash	-10.9918
▁kitchen	-10.9919
eng	-10.9919
▁reflect	-10.9923
hide	-10.9927
AR	-10.9927
▁friendly	-10.993
▁Property	-10.9936
▁Description	-10.9936
DC	-10.9938
)=	-10.9938
▁Mad	-10.9941
▁posting	-10.9942
▁Integer	-10.9942
▁curve	-10.9942
rest	-10.9944
opt	-10.9945
psi	-10.9946
full	-10.9946
▁courses	-10.9951
az	-10.9953
▁explains	-10.9955
▁$$\	-10.9959
▁Say	-10.9959
▁territory	-10.9961
▁mouth	-10.9962
▁younger	-10.9966
ati	-10.9971
▁conduct	-10.9973
ans	-10.9975
▁Ministry	-10.9976
▁UN	-10.9976
▁decisions	-10.9977
▁participated	-10.9977
▁reliable	-10.9978
▁owners	-10.9978
white	-10.9981
▁Wa	-10.9987
▁vary	-10.9987
▁Task	-10.9991
▁Function	-10.9993
▁drivers	-10.9995
▁resulted	-10.9997
▁Columbia	-10.9999
▁locally	-11.0001
▁preferred	-11.0002
▁Case	-11.0006
▁Children	-11.0006
wing	-11.0008
▁printing	-11.001
▁websites	-11.0011
ora	-11.0015
▁killing	-11.0018
▁Ed	-11.0018
▁completion	-11.002
▁finite	-11.0031
▁hundred	-11.0031
▁serial	-11.0032
lim	-11.0034
▁buying	-11.0035
pin	-11.0037
▁foundation	-11.0043
▁skill	-11.0044
▁ob	-11.0044
▁tip	-11.0049
▁delivered	-11.0049
+\	-11.005
▁snippet	-11.0052
handle	-11.0054
▁hoping	-11.0054
▁Welcome	-11.0057
note	-11.0057
▁charges	-11.0057
▁Com	-11.0059
▁Ah	-11.0059
▁Stone	-11.0066
▁Watch	-11.0066
▁{}	-11.0068
▁politician	-11.007
▁CO	-11.0072
▁boy	-11.0073
▁bed	-11.0075
▁recovery	-11.0076
▁acid	-11.0077
▁configure	-11.008
round	-11.0084
▁establish	-11.0087
▁communicate	-11.0088
FA	-11.0089
▁slot	-11.0093
▁hall	-11.0094
▁Kong	-11.0095
csv	-11.0095
exp	-11.0097
big	-11.0098
▁op	-11.01
▁rid	-11.0101
▁solar	-11.0106
▁miss	-11.0107
loop	-11.0109
▁Event	-11.0111
▁Method	-11.0116
з	-11.0117
▁contemporary	-11.0117
▁Modern	-11.012
▁Thursday	-11.012
ele	-11.012
padding	-11.0121
=>	-11.0121
hash	-11.0122
eq	-11.0126
activity	-11.0126
▁boat	-11.0126
[$	-11.0128
▁desire	-11.0129
▁Save	-11.013
ax	-11.013
▁arms	-11.0132
fire	-11.0132
▁tail	-11.0132
wikipedia	-11.0134
▁laptop	-11.0137
▁Mal	-11.0139
▁qualified	-11.014
bottom	-11.0143
▁cursor	-11.0146
▁willing	-11.0147
gan	-11.0149
▁Airport	-11.0157
▁Iran	-11.016
▁universe	-11.016
▁Mu	-11.0164
▁adjust	-11.0164
▁Ju	-11.0168
Char	-11.0169
access	-11.0172
eth	-11.0172
apply	-11.0173
modules	-11.0173
▁Blog	-11.0173
++;	-11.0174
PC	-11.0176
dan	-11.0183
▁styles	-11.0184
▁interior	-11.0185
▁Plot	-11.0194
ML	-11.0195
▁`$	-11.0197
_{\	-11.0197
▁logs	-11.0198
▁storm	-11.0199
▁Hong	-11.02
▁rotation	-11.02
▁explicit	-11.0202
MA	-11.0206
▁sa	-11.0207
▁не	-11.0207
▁registration	-11.0209
▁Rose	-11.0213
ick	-11.0214
▁;)	-11.0216
>>	-11.0216
▁citizens	-11.0217
▁Digital	-11.0217
▁Fe	-11.0218
▁separated	-11.0221
▁wing	-11.0224
▁bag	-11.0225
▁participate	-11.0226
via	-11.0228
▁renamed	-11.0229
▁tradition	-11.023
▁adds	-11.0231
▁produces	-11.0233
dict	-11.0233
▁Korea	-11.0234
Ref	-11.0234
▁notable	-11.0237
но	-11.024
▁platforms	-11.0243
▁calendar	-11.0246
nn	-11.0249
="{	-11.0249
BC	-11.0256
Call	-11.0257
none	-11.0259
▁minister	-11.0266
▁poly	-11.0266
▁fetch	-11.027
▁journal	-11.027
▁experiment	-11.0276
▁sync	-11.0282
▁PA	-11.0283
DF	-11.0285
yes	-11.0285
gate	-11.0288
normal	-11.0289
▁campus	-11.029
mel	-11.0291
▁twenty	-11.0291
▁Ball	-11.0293
▁mask	-11.0295
▁violence	-11.0297
DD	-11.0297
*/	-11.0298
▁ref	-11.0302
utf	-11.0304
▁solo	-11.0304
▁router	-11.0307
▁batch	-11.0308
â	-11.031
▁settlement	-11.0314
dic	-11.0315
render	-11.0316
▁Among	-11.0318
▁integration	-11.0319
delete	-11.0319
front	-11.0322
MB	-11.0326
▁indicates	-11.0329
▁Box	-11.033
▁CEO	-11.0331
▁representing	-11.0334
ika	-11.0342
▁Ham	-11.0343
hidden	-11.0343
▁BBC	-11.0344
▁tank	-11.0344
uch	-11.0345
params	-11.0349
▁Holy	-11.0351
▁labor	-11.0353
▁paste	-11.0353
FF	-11.0355
>(	-11.0357
▁incident	-11.0359
▁runtime	-11.0361
math	-11.0368
▁Ste	-11.037
yard	-11.0371
EC	-11.0371
▁feels	-11.0373
▁signs	-11.0376
▁Author	-11.0382
oma	-11.0383
▁guarantee	-11.0384
▁Alex	-11.0385
▁institutions	-11.0388
▁Country	-11.0388
▁hundreds	-11.0389
Helper	-11.0389
exec	-11.0393
▁False	-11.0397
fetch	-11.04
▁favor	-11.0401
▁assignment	-11.0404
▁Multi	-11.0406
power	-11.0406
▁Yu	-11.0407
▁arrays	-11.0413
ws	-11.0414
nie	-11.0415
*)	-11.0415
▁Was	-11.0416
▁applying	-11.0419
▁Whether	-11.042
▁ArrayList	-11.0423
▁dynamically	-11.0425
▁$("#	-11.0426
▁peak	-11.0427
▁Pen	-11.0427
ye	-11.0427
▁Elizabeth	-11.0428
och	-11.0429
▁Ch	-11.043
tl	-11.043
▁cur	-11.0431
▁Tuesday	-11.0431
▁Member	-11.0439
cpp	-11.044
▁retirement	-11.0445
▁realized	-11.0445
▁Wednesday	-11.0447
▁broke	-11.0449
▁attempted	-11.0449
▁connecting	-11.0453
?”	-11.0455
▁Harry	-11.0455
gems	-11.0457
▁submitted	-11.0459
RA	-11.046
▁Jackson	-11.0463
▁electronic	-11.0464
▁discover	-11.0464
▁Gra	-11.0464
▁suffered	-11.0469
▁adapt	-11.0469
topic	-11.0469
▁nested	-11.0473
tur	-11.0483
ising	-11.0483
▁layers	-11.0486
ros	-11.0486
▁homes	-11.0488
▁titled	-11.0491
▁Biography	-11.0493
"));	-11.0496
▁Matt	-11.0497
omega	-11.0498
▁charged	-11.0498
▁carbon	-11.05
▁medicine	-11.0502
posts	-11.0504
▁interests	-11.0506
▁Policy	-11.0506
nan	-11.0506
▁Standard	-11.0506
▁Polish	-11.0507
sys	-11.0507
dt	-11.0508
▁Pur	-11.0513
pen	-11.0514
▁Excel	-11.0517
▁canvas	-11.0521
▁Unit	-11.0522
AndroidRuntime	-11.0522
▁emergency	-11.0523
tle	-11.0526
▁scripts	-11.0534
▁Below	-11.0535
zy	-11.0537
▁Sal	-11.0539
▁Nov	-11.054
▁Pu	-11.0541
gra	-11.0541
Dir	-11.0545
▁craft	-11.0546
▁("	-11.0547
DA	-11.0552
CREATE	-11.0553
AD	-11.0555
Obj	-11.0557
..."	-11.0558
sur	-11.0567
ö	-11.0568
▁evaluate	-11.0568
its	-11.0569
ли	-11.0575
Changed	-11.0578
▁shares	-11.058
about	-11.0584
▁«	-11.0584
▁Core	-11.0589
▁median	-11.0594
▁Mountain	-11.0594
▁infrastructure	-11.0595
▁reputation	-11.0596
▁cheap	-11.0598
qu	-11.0601
▁Ken	-11.0601
▁Short	-11.0602
▁restaurant	-11.0603
”.	-11.0604
α	-11.0606
▁ticket	-11.0608
▁em	-11.0609
▁Pass	-11.0616
▁abuse	-11.0618
▁Down	-11.0619
▁Register	-11.062
▁discussed	-11.0622
▁disc	-11.0623
say	-11.0626
Some	-11.0627
▁Magento	-11.0628
▁Ge	-11.0629
▁Energy	-11.0631
▁efficiency	-11.0638
▁Illinois	-11.0639
▁Ab	-11.0642
she	-11.0644
mic	-11.0644
▁weapon	-11.0648
▁Link	-11.0649
▁faced	-11.0651
▁scan	-11.0653
▁Alexander	-11.0656
▁approaches	-11.0656
▁Oct	-11.0657
▁ch	-11.0658
elle	-11.0663
▁collaboration	-11.0663
▁Round	-11.0664
sample	-11.0665
ken	-11.0666
▁segment	-11.067
▁YouTube	-11.067
▁extreme	-11.0673
▁reduction	-11.0678
▁nuclear	-11.0679
▁Total	-11.0681
▁Steve	-11.0682
▁Ukraine	-11.0685
▁museum	-11.0685
▁classical	-11.0687
ute	-11.0689
▁Rome	-11.0692
▁Current	-11.0696
▁greatest	-11.0696
Book	-11.0696
▁Anyway	-11.0698
▁tri	-11.0698
byte	-11.07
▁Jean	-11.07
▁Wikipedia	-11.07
▁kinds	-11.0701
▁Berlin	-11.0706
▁seats	-11.0706
▁clicked	-11.0709
lab	-11.0713
▁governor	-11.0713
high	-11.0714
mas	-11.0717
chan	-11.0717
delta	-11.0718
▁household	-11.0718
▁bin	-11.0721
▁attend	-11.0723
ston	-11.0724
▁Hand	-11.0726
Configuration	-11.0726
mal	-11.0726
An	-11.0726
▁displays	-11.0727
zip	-11.0728
"];	-11.0729
▁watching	-11.073
gal	-11.0731
ther	-11.0734
▁Notable	-11.0735
▁fundamental	-11.074
package	-11.074
▁res	-11.0742
Socket	-11.0744
▁Sh	-11.0744
▁mini	-11.075
Display	-11.0758
▁roughly	-11.0759
▁rooms	-11.076
▁dating	-11.0762
▁entering	-11.0763
▁Jr	-11.0763
▁accident	-11.0765
BA	-11.0765
)+	-11.0766
▁Bell	-11.0767
lor	-11.077
Integer	-11.0775
record	-11.0778
GA	-11.0783
used	-11.0784
▁Cap	-11.0785
▁Toronto	-11.0787
▁Stephen	-11.0787
▁Word	-11.0793
▁religion	-11.0793
EL	-11.0793
▁cr	-11.0793
▁Bu	-11.0793
▁brings	-11.0794
sta	-11.0795
▁recognition	-11.0798
pack	-11.0798
▁liquid	-11.0799
▁Za	-11.0801
Writer	-11.0805
▁races	-11.0805
▁clicking	-11.081
▁functional	-11.0819
▁educational	-11.082
Interface	-11.0825
gh	-11.0825
▁visitors	-11.0825
▁ASP	-11.0826
▁Double	-11.0828
▁restore	-11.0831
bed	-11.0832
▁Release	-11.0833
▁Small	-11.0834
▁hosting	-11.0837
▁simpler	-11.0841
UP	-11.0845
▁sudo	-11.0845
▁hits	-11.0846
▁spirit	-11.0849
▁composer	-11.0851
▁maps	-11.0853
▁MVC	-11.0854
lum	-11.0855
▁underlying	-11.0856
console	-11.086
▁herself	-11.0861
▁Looking	-11.0862
▁engines	-11.0863
alert	-11.0866
Host	-11.0876
matic	-11.0879
▁Pakistan	-11.0879
▁grand	-11.088
▁Taylor	-11.088
Folder	-11.0881
▁choices	-11.0881
▁diet	-11.0883
▁interval	-11.0883
hen	-11.0884
▁checks	-11.0885
▁attempting	-11.0887
▁Sin	-11.0888
▁duration	-11.0888
▁Bad	-11.0892
Man	-11.0893
▁doc	-11.0903
transform	-11.0904
FROM	-11.0907
▁seed	-11.091
▁estimate	-11.0911
▁trained	-11.0913
▁producing	-11.0915
ami	-11.0916
▁heavily	-11.0917
▁Plus	-11.0918
▁pointing	-11.0919
connection	-11.092
▁Fi	-11.0922
▁Ash	-11.0922
▁Thread	-11.0923
AA	-11.0923
▁physics	-11.0923
▁Way	-11.0925
▁Travel	-11.0929
Project	-11.093
▁confusing	-11.0931
rich	-11.094
Reader	-11.094
▁visa	-11.0941
▁consumer	-11.0942
▁meat	-11.0944
How	-11.0944
▁complexity	-11.0946
▁introduction	-11.0947
ext	-11.0948
install	-11.0956
▁experts	-11.0957
▁crisis	-11.0957
plugin	-11.0957
▁[…]	-11.0958
Body	-11.0959
▁pipe	-11.096
▁paths	-11.0961
▁episodes	-11.0962
▁sitting	-11.0964
▁boundary	-11.097
▁FC	-11.0971
▁transactions	-11.0972
▁summary	-11.0973
▁pl	-11.0974
▁speaker	-11.0974
▁chemical	-11.0974
▁Sydney	-11.0976
Num	-11.0978
ר	-11.0978
▁teach	-11.0981
▁Ze	-11.0982
language	-11.0982
▁Victoria	-11.0989
▁combine	-11.0991
▁Node	-11.0991
Le	-11.0992
▁households	-11.0994
▁worst	-11.0994
▁bringing	-11.0996
▁infinite	-11.0996
▁macro	-11.0996
▁figured	-11.0997
▁filename	-11.1
report	-11.1001
▁objective	-11.1001
▁shopping	-11.1002
▁Photo	-11.1003
izer	-11.1003
▁lay	-11.1007
▁dual	-11.1009
apex	-11.101
▁logged	-11.101
▁differently	-11.1011
Save	-11.1012
▁orbit	-11.1013
▁fund	-11.1013
▁Player	-11.1014
▁Jun	-11.1015
elli	-11.1017
▁involves	-11.1017
▁GUI	-11.1017
rangle	-11.1017
▁literally	-11.1018
<%=	-11.1019
▁Op	-11.1021
CH	-11.1023
instance	-11.1023
▁breaking	-11.1024
▁SC	-11.1025
mor	-11.1026
▁joining	-11.1027
DR	-11.1027
▁Scottish	-11.1028
who	-11.103
▁AI	-11.1031
▁membership	-11.1034
▁appeal	-11.1035
▁Such	-11.1035
dc	-11.1036
sec	-11.1038
Mo	-11.1039
▁Nothing	-11.1039
ct	-11.1041
Parameter	-11.1041
▁valuable	-11.1042
▁Books	-11.1045
Write	-11.1048
TC	-11.1048
▁sessions	-11.1048
▁wins	-11.1051
▁headers	-11.1051
▁IT	-11.1051
▁Simple	-11.1052
▁kick	-11.1052
▁docs	-11.1058
▁teachers	-11.1059
▁reporting	-11.106
]`	-11.106
▁markets	-11.1061
▁worldwide	-11.1062
▁compute	-11.1063
▁Forest	-11.1063
▁strip	-11.1065
▁Heart	-11.1066
▁finance	-11.1066
Process	-11.1069
account	-11.1073
eri	-11.1079
loc	-11.1084
▁Language	-11.1084
ei	-11.1084
▁sat	-11.1085
▁yards	-11.1087
▁walking	-11.1089
east	-11.1089
abc	-11.1092
▁grant	-11.1098
▁instruction	-11.1105
▁retain	-11.1107
env	-11.1107
▁Arm	-11.1108
ava	-11.1109
mit	-11.111
▁thin	-11.111
upload	-11.1113
bc	-11.1114
▁immediate	-11.1115
▁Third	-11.1117
▁Americans	-11.1118
▁Ri	-11.1119
Doc	-11.1121
##	-11.1121
▁pot	-11.1122
▁Winter	-11.1123
▁fabric	-11.1127
Last	-11.1131
▁Maria	-11.1133
blue	-11.1137
▁harder	-11.1139
▁ride	-11.114
▁Ol	-11.114
▁Ali	-11.1142
▁anchor	-11.1144
▁shoot	-11.1146
▁concert	-11.1146
▁trading	-11.1147
▁shooting	-11.1147
▁pet	-11.1149
▁и	-11.1151
▁delegate	-11.1151
▁Client	-11.1152
auth	-11.1153
▁Fox	-11.1158
▁Han	-11.1159
OK	-11.1165
▁hang	-11.117
▁Tag	-11.1172
LC	-11.1173
▁composition	-11.1176
yo	-11.1179
▁Cloud	-11.118
▁pen	-11.1189
й	-11.119
▁Region	-11.1193
▁Sp	-11.1193
Directory	-11.1194
▁LED	-11.1194
▁promotion	-11.1198
▁Doctor	-11.1204
▁severe	-11.1205
ration	-11.1206
▁selector	-11.1207
ET	-11.1207
▁captain	-11.1207
▁movies	-11.1209
▁Sc	-11.1216
▁Korean	-11.1221
▁curious	-11.1222
▁fragment	-11.1223
▁illegal	-11.1223
▁align	-11.1228
▁bright	-11.1229
▁refused	-11.1229
qua	-11.1232
▁Ray	-11.1233
▁interaction	-11.1241
▁angular	-11.1243
▁readers	-11.1244
▁Bal	-11.1245
▁Bio	-11.1248
▁champion	-11.125
▁conclusion	-11.1251
▁elsewhere	-11.1251
▁Path	-11.1256
super	-11.1256
▁pilot	-11.1259
▁mirror	-11.126
▁tea	-11.1261
help	-11.1261
▁Everything	-11.1263
▁Between	-11.1265
▁commission	-11.1269
▁paying	-11.1271
▁drag	-11.1271
▁Person	-11.1272
▁topics	-11.1275
▁refresh	-11.1279
▁labels	-11.128
▁rel	-11.1286
▁configured	-11.1287
▁powers	-11.1287
nar	-11.1287
ement	-11.1291
▁Tech	-11.1293
Framework	-11.1293
▁careful	-11.1295
▁updating	-11.1295
▁paragraph	-11.1298
▁designs	-11.1301
▁Sky	-11.1301
▁len	-11.1302
CL	-11.1302
roll	-11.1308
▁exposure	-11.1311
א	-11.1312
▁Pra	-11.1312
DP	-11.1312
▁Console	-11.1316
▁Olympic	-11.1322
Unit	-11.1322
▁finds	-11.1327
Mar	-11.1327
▁prompt	-11.1328
▁SharePoint	-11.1335
Target	-11.1336
printf	-11.1337
▁fault	-11.1338
Child	-11.134
▁females	-11.1341
▁Brazil	-11.1341
▁notification	-11.1342
ios	-11.1343
▁Javascript	-11.1343
▁Several	-11.1344
▁Je	-11.1347
▁ease	-11.1349
▁optional	-11.1351
▁Adam	-11.1353
▁coding	-11.1353
▁Bible	-11.1353
▁pairs	-11.1354
apple	-11.1356
▁edges	-11.1356
'))	-11.1357
▁boxes	-11.1359
Max	-11.1359
Contact	-11.1361
ima	-11.1363
kan	-11.1363
▁Ann	-11.1365
▁Premier	-11.137
▁adapter	-11.1379
ida	-11.1379
▁Location	-11.1381
к	-11.1383
▁routine	-11.1389
vel	-11.1392
ale	-11.1392
▁st	-11.1397
▁Yo	-11.1397
filename	-11.1399
ern	-11.1399
▁calculated	-11.1401
▁Mid	-11.1404
▁Version	-11.1405
▁picked	-11.1406
database	-11.1409
▁sizes	-11.141
mid	-11.1411
Go	-11.1411
iff	-11.1413
▁automatic	-11.1414
▁arts	-11.1414
▁entities	-11.1415
▁justice	-11.1416
pic	-11.1416
flow	-11.1418
Password	-11.1419
contact	-11.1424
CE	-11.1424
▁implements	-11.1427
▁sport	-11.1428
▁plug	-11.143
|\	-11.1431
Player	-11.1432
FILE	-11.1433
RI	-11.1436
▁logo	-11.1439
▁dependencies	-11.1439
▁Ber	-11.144
▁guard	-11.1442
▁uniform	-11.1443
Fi	-11.1446
while	-11.1446
▁beauty	-11.1447
▁Ser	-11.1448
▁opposition	-11.1452
▁seeking	-11.1456
▁sand	-11.1457
▁festival	-11.1457
▁threat	-11.1458
▁Tar	-11.1459
counter	-11.1459
▁Ocean	-11.1462
stack	-11.1463
Note	-11.1465
Layer	-11.1466
sion	-11.1467
▁glad	-11.1467
▁designer	-11.1469
▁entitled	-11.1472
EA	-11.1472
▁symptoms	-11.1472
xi	-11.1473
raw	-11.1476
▁spiritual	-11.1476
UTF	-11.1481
▁scenes	-11.1482
fully	-11.1482
So	-11.1485
fd	-11.1489
▁parish	-11.1491
▁eating	-11.1491
Core	-11.1496
▁confusion	-11.1499
ets	-11.1499
und	-11.15
▁evil	-11.1502
eu	-11.1502
▁Senior	-11.1503
▁declaration	-11.1503
Queue	-11.1504
Check	-11.1505
▁Engineering	-11.1505
▁destroy	-11.1506
cb	-11.1508
▁clubs	-11.151
▁corporate	-11.1511
Cache	-11.1513
▁albums	-11.1514
▁breaks	-11.1514
job	-11.1514
▁steam	-11.1519
Access	-11.1521
▁involving	-11.1521
▁hurt	-11.1522
impl	-11.1522
▁inputs	-11.1524
▁unlikely	-11.1527
ban	-11.153
▁timer	-11.1531
gt	-11.1531
▁graduate	-11.1532
XML	-11.1533
HTTP	-11.1534
▁Child	-11.1536
▁participants	-11.1537
▁networks	-11.1537
ear	-11.1538
▁intelligence	-11.1539
▁compete	-11.1541
▁maintained	-11.1545
▁schema	-11.1546
ubuntu	-11.155
▁Range	-11.1551
▁Massachusetts	-11.1562
Part	-11.1562
▁Bishop	-11.1564
PL	-11.1565
▁el	-11.1567
▁arrested	-11.1577
Total	-11.1581
▁logging	-11.1582
iya	-11.1583
▁Em	-11.1584
customer	-11.1586
▁bear	-11.1586
▁implies	-11.1586
La	-11.1591
▁drink	-11.1595
▁Corps	-11.1595
▁buried	-11.1596
theme	-11.1598
▁technologies	-11.1607
▁unfortunately	-11.1607
▁Activity	-11.1608
RC	-11.161
®	-11.1611
▁strict	-11.1613
▁fees	-11.1614
etic	-11.1616
there	-11.1616
Ad	-11.1617
▁decade	-11.1617
▁rendering	-11.1622
▁INTO	-11.1623
▁lets	-11.1623
Database	-11.1623
▁implementing	-11.1627
▁thick	-11.1633
Bo	-11.1637
ona	-11.1637
▁translate	-11.1638
▁Production	-11.1638
stylesheet	-11.1639
▁lawyer	-11.1641
Custom	-11.1642
>";	-11.1643
▁associate	-11.1644
sun	-11.1649
sim	-11.1657
▁gap	-11.166
green	-11.1661
▁Golden	-11.1661
▁Th	-11.1664
ira	-11.1667
▁Cre	-11.1668
▁exposed	-11.167
CG	-11.1671
TM	-11.1671
▁Training	-11.1672
▁milk	-11.1674
▁mount	-11.1674
mate	-11.1674
▁os	-11.1677
▁Drive	-11.1681
▁cookies	-11.1682
▁duty	-11.1683
axis	-11.1684
▁inline	-11.1687
▁graphics	-11.1688
TH	-11.1691
Selected	-11.1692
hibernate	-11.1692
ged	-11.1695
Program	-11.1697
▁Through	-11.1698
ole	-11.1701
Values	-11.1701
▁neutral	-11.1701
▁stops	-11.1701
▁Kim	-11.1705
xx	-11.1706
▁dependency	-11.1707
▁symbols	-11.171
▁chair	-11.171
▁okay	-11.1711
▁Ve	-11.1714
Parent	-11.1716
▁writes	-11.1717
break	-11.1717
▁slowly	-11.1729
▁Square	-11.173
pop	-11.1734
▁Castle	-11.1734
▁Put	-11.1735
▁validate	-11.1735
▁restart	-11.1735
▁tower	-11.1736
▁flying	-11.1737
▁installing	-11.1738
▁assumption	-11.174
CD	-11.1741
▁rely	-11.1741
Description	-11.1742
press	-11.1745
comment	-11.1751
▁Char	-11.1754
specific	-11.1755
Per	-11.1756
▁Title	-11.1757
▁fired	-11.1757
▁compatible	-11.1759
▁Captain	-11.176
▁Marine	-11.1761
▁designated	-11.1762
▁lens	-11.1763
quot	-11.1763
▁cleaning	-11.1764
▁resolved	-11.1772
SS	-11.1774
▁Problem	-11.1776
pers	-11.1777
Async	-11.1778
LA	-11.1778
▁Furthermore	-11.1778
▁Wild	-11.178
▁plate	-11.1781
▁priority	-11.1784
oz	-11.1785
▁loads	-11.1787
▁engaged	-11.1788
▁integral	-11.179
▁transformation	-11.1791
▁su	-11.1795
$('#	-11.1795
score	-11.1797
▁Oxford	-11.1797
▁mar	-11.1799
SET	-11.1799
take	-11.1801
▁Silver	-11.1801
▁arbitrary	-11.1805
▁Process	-11.1807
▁Request	-11.1807
▁lake	-11.1807
▁von	-11.1808
vm	-11.1808
ua	-11.1809
sol	-11.1809
▁electrical	-11.1813
▁DOM	-11.1815
las	-11.1816
▁Officer	-11.1818
▁theorem	-11.1821
▁squad	-11.1824
ME	-11.1826
family	-11.1828
▁cookie	-11.1829
servlet	-11.1829
▁Wilson	-11.1829
fish	-11.1829
▁Tra	-11.1829
sudo	-11.1836
^\	-11.1837
Category	-11.1838
▁cl	-11.184
▁tiny	-11.1841
▁Dark	-11.1842
Work	-11.1846
▁consecutive	-11.1847
▁Moon	-11.1847
▁CS	-11.185
ister	-11.185
▁Row	-11.1852
▁employed	-11.1852
▁confidence	-11.1856
▁Executive	-11.1857
Bean	-11.186
▁forgot	-11.1862
▁VS	-11.1863
▁scoring	-11.1865
▁Fund	-11.1869
▁ranked	-11.187
gon	-11.1871
Col	-11.1873
There	-11.1877
Price	-11.1878
▁Studies	-11.188
▁Cur	-11.1881
rel	-11.1885
▁improvement	-11.1886
Output	-11.1889
▁representative	-11.1894
aki	-11.1894
▁partners	-11.1895
▁crowd	-11.1899
▁Cu	-11.19
▁sensor	-11.19
panel	-11.1902
▁strategies	-11.1904
▁clinical	-11.1904
▁highway	-11.1905
▁philosophy	-11.1905
wise	-11.1906
route	-11.1907
▁Netherlands	-11.1907
▁Lady	-11.1911
▁survive	-11.1912
shire	-11.1916
▁Tan	-11.1918
▁Net	-11.1918
▁belongs	-11.1922
▁earn	-11.1923
▁shut	-11.1925
="#	-11.1927
▁Daily	-11.193
▁javax	-11.1934
▁Duke	-11.1935
▁Learn	-11.1936
▁shipping	-11.1939
▁Py	-11.194
pad	-11.194
▁ban	-11.194
burg	-11.1942
ln	-11.1943
▁harm	-11.1944
▁till	-11.1948
▁recipe	-11.1949
▁charts	-11.1949
Fragment	-11.195
▁Simon	-11.1951
▁patch	-11.1951
des	-11.1952
▁constantly	-11.1955
▁Prior	-11.1959
MC	-11.1962
▁surprise	-11.1964
▁Remove	-11.1966
▁velocity	-11.1968
photo	-11.1969
▁recall	-11.1969
layer	-11.1971
▁reaching	-11.1972
▁residence	-11.1973
fc	-11.1975
rus	-11.1976
▁beach	-11.1977
▁stating	-11.1979
▁tough	-11.1981
vy	-11.1983
une	-11.1986
▁Philadelphia	-11.1987
▁fiction	-11.1987
▁poll	-11.1988
▁lights	-11.1989
▁Apache	-11.1989
▁carefully	-11.1991
▁prop	-11.1992
▁Reading	-11.1993
▁quantity	-11.1993
Right	-11.1993
Customer	-11.1997
▁Singapore	-11.2002
▁Stock	-11.2004
▁pe	-11.2006
▁asks	-11.2007
▁sight	-11.2008
▁Grant	-11.201
▁succeeded	-11.2011
sign	-11.2012
▁entrance	-11.2015
▁np	-11.2019
PI	-11.2021
▁atmosphere	-11.2022
▁rail	-11.2022
▁merely	-11.2029
▁interact	-11.203
▁Sri	-11.2031
before	-11.2033
▁Born	-11.2034
▁denied	-11.2034
▁reads	-11.2034
▁"\	-11.2035
▁{"	-11.2035
▁integrated	-11.2041
FT	-11.2044
▁surprised	-11.2044
ender	-11.2046
▁holiday	-11.2046
▁Chapter	-11.2049
ml	-11.2051
OL	-11.2052
▁encounter	-11.2057
▁publish	-11.206
▁establishment	-11.2061
lot	-11.2064
▁repeated	-11.2065
▁skip	-11.2068
Val	-11.2068
▁evaluation	-11.2068
▁founder	-11.2069
Tag	-11.2069
▁Machine	-11.2069
▁proved	-11.2071
▁divide	-11.2072
dll	-11.2075
season	-11.2078
ux	-11.2082
▁workaround	-11.2082
uid	-11.2084
dal	-11.2085
▁adults	-11.2085
▁Channel	-11.2086
▁Military	-11.2086
▁sys	-11.209
dist	-11.2091
ory	-11.2092
▁theatre	-11.2095
▁ho	-11.2098
hello	-11.2099
stan	-11.2101
black	-11.2101
▁presentation	-11.2103
▁moral	-11.2104
▁dump	-11.2106
▁comp	-11.2107
▁pump	-11.211
inner	-11.2111
▁passage	-11.2111
▁appointment	-11.2115
▁hack	-11.2118
▁neighborhood	-11.2119
▁laid	-11.2122
▁Eric	-11.2122
▁copied	-11.2123
▁employment	-11.2126
▁guidance	-11.2128
Local	-11.2128
▁ST	-11.2132
▁rose	-11.2136
fix	-11.2139
ath	-11.2139
▁Phone	-11.2139
▁Leave	-11.2139
ular	-11.2141
▁Nations	-11.2141
aria	-11.2141
▁cook	-11.2141
Rows	-11.2142
▁Archives	-11.2143
clear	-11.2143
▁Credit	-11.2145
▁Native	-11.2148
nch	-11.215
▁Item	-11.215
▁Firefox	-11.2151
▁Student	-11.2151
▁MA	-11.2154
▁channels	-11.2154
▁strike	-11.2155
cmd	-11.2161
||	-11.2162
▁Fu	-11.2163
▁settled	-11.2163
▁Mass	-11.2164
▁approval	-11.2169
▁cm	-11.217
▁partnership	-11.2171
▁handled	-11.2171
repeat	-11.2173
Device	-11.2174
▁alloc	-11.2174
hour	-11.2175
▁Colorado	-11.2176
▁Sar	-11.2177
una	-11.2179
▁aim	-11.218
▁covering	-11.2182
▁commander	-11.2182
▁Tax	-11.2182
▁по	-11.2186
▁dimension	-11.2187
▁Tree	-11.2188
▁mat	-11.219
▁damaged	-11.2191
▁assessment	-11.2191
pool	-11.2191
▁landing	-11.2193
entity	-11.2193
▁afraid	-11.2194
▁MD	-11.2194
share	-11.2195
Min	-11.2199
▁invited	-11.2199
bad	-11.2199
▁Ontario	-11.22
fields	-11.2203
▁Trade	-11.2204
い	-11.2204
▁thrown	-11.2206
▁Miss	-11.2209
▁oldest	-11.2212
▁contest	-11.2213
▁browsers	-11.2216
▁Output	-11.2218
▁Boy	-11.2218
▁calculation	-11.2218
▁react	-11.2218
▁PhD	-11.2218
▁append	-11.2222
▁mill	-11.2222
▁translated	-11.2224
▁Garden	-11.2224
▁Mobile	-11.2229
▁comfort	-11.2229
▁Song	-11.223
▁Highway	-11.2231
▁geo	-11.2234
team	-11.224
▁applicable	-11.2245
mus	-11.2248
fall	-11.2248
▁bond	-11.2249
TR	-11.225
▁wp	-11.225
▁VM	-11.2251
▁Direct	-11.2253
▁revenue	-11.2253
IA	-11.2255
▁comedy	-11.2257
move	-11.2258
▁males	-11.2261
▁concepts	-11.2264
▁shorter	-11.2267
RS	-11.2267
▁cutting	-11.2268
▁encourage	-11.227
▁competitive	-11.227
▁Farm	-11.2273
ened	-11.2274
bert	-11.2275
boot	-11.2275
▁Stadium	-11.2276
▁performances	-11.2278
▁convention	-11.2279
▁Atlantic	-11.228
▁boss	-11.2282
▁promise	-11.2282
=(	-11.2282
▁transmission	-11.2286
(*	-11.2287
zz	-11.2288
▁WordPress	-11.229
Settings	-11.2295
san	-11.2296
Login	-11.2297
▁awesome	-11.2299
▁ownership	-11.23
▁branches	-11.23
▁voted	-11.2303
▁somebody	-11.2303
TYPE	-11.2307
▁writers	-11.2308
▁busy	-11.231
Top	-11.231
Ma	-11.2313
▁dimensions	-11.2316
▁Carl	-11.2316
bat	-11.2317
ook	-11.2317
drawable	-11.2322
▁Low	-11.2322
tin	-11.2323
Hello	-11.2323
▁FOR	-11.2326
▁reform	-11.2328
▁acceptable	-11.2328
▁Database	-11.2329
▁lift	-11.2331
▁Davis	-11.2333
▁flowers	-11.2335
▁differ	-11.234
'],	-11.2342
▁prefix	-11.2345
▁intersection	-11.2347
west	-11.2348
▁Ly	-11.2349
▁Administration	-11.2355
▁visiting	-11.2355
▁banks	-11.2356
▁Fall	-11.2357
▁Historic	-11.2358
Al	-11.236
task	-11.2368
▁printf	-11.237
▁span	-11.2375
▁Islands	-11.2378
▁Rights	-11.2378
▁programme	-11.238
▁Level	-11.2385
▁monthly	-11.2385
dot	-11.2386
▁Ci	-11.2387
angular	-11.2387
▁falls	-11.2388
▁Cook	-11.2389
Transform	-11.2389
▁shortly	-11.239
▁Ag	-11.2392
▁DO	-11.2393
▁generating	-11.2397
▁rec	-11.2397
DATE	-11.2399
▁indicated	-11.2401
▁failing	-11.2405
▁Os	-11.2408
cp	-11.2409
▁logical	-11.2409
▁Hello	-11.241
▁Lewis	-11.2411
▁Kan	-11.2412
Library	-11.2413
▁alcohol	-11.2413
arm	-11.2415
ches	-11.2418
▁sought	-11.242
▁spoke	-11.2421
▁tape	-11.2421
▁Oil	-11.2421
Reference	-11.2422
▁api	-11.2424
lash	-11.243
▁operators	-11.2431
▁Story	-11.2432
{%	-11.2435
▁characteristics	-11.2435
▁cent	-11.2439
▁Sources	-11.244
▁commitment	-11.2442
▁Trans	-11.2444
▁ill	-11.2445
▁Pay	-11.2446
▁Comment	-11.2446
maps	-11.2447
TextBox	-11.2447
▁attach	-11.2447
arch	-11.2447
▁difficulty	-11.2448
track	-11.2448
▁Oracle	-11.2448
▁subset	-11.2449
▁hate	-11.2449
▁exceptions	-11.2451
Ho	-11.2451
▁separately	-11.2454
▁baseball	-11.2456
▁Mill	-11.2456
▁Sciences	-11.2456
▁temple	-11.2456
export	-11.2458
▁Jews	-11.2458
inter	-11.2459
▁marks	-11.2462
▁ocean	-11.2462
▁EP	-11.2463
<!--	-11.2464
▁persons	-11.2464
ition	-11.247
▁storing	-11.247
▁manufacturing	-11.2472
▁classification	-11.2472
avi	-11.2473
▁thousand	-11.2479
Run	-11.248
▁dollars	-11.2485
▁tall	-11.2486
fb	-11.2487
register	-11.2491
▁Nick	-11.2492
>`	-11.2492
▁dataset	-11.2493
making	-11.2493
▁procedures	-11.2494
▁accuracy	-11.2496
▁Nu	-11.2496
▁Exception	-11.2497
▁Father	-11.2497
Enabled	-11.2499
р	-11.2501
▁pack	-11.2503
▁outcome	-11.2504
CS	-11.2506
▁`\	-11.2506
collection	-11.2507
als	-11.2508
▁cream	-11.2509
ico	-11.251
ATION	-11.2512
▁downloaded	-11.2519
rin	-11.2521
linux	-11.2529
▁voting	-11.253
Port	-11.253
▁expressions	-11.2536
role	-11.254
▁surname	-11.2543
▁Upon	-11.2543
▁dr	-11.2544
▁Sur	-11.2545
▁Bowl	-11.2547
made	-11.2548
▁Magazine	-11.2551
ient	-11.2553
"""	-11.2555
ENT	-11.2556
▁Arizona	-11.2556
▁Software	-11.2556
▁receiver	-11.2556
▁regard	-11.2557
pet	-11.2557
ace	-11.2558
▁Dream	-11.2558
tri	-11.2561
AT	-11.2563
▁Comp	-11.2567
EE	-11.2568
API	-11.2569
▁advertising	-11.2569
▁choosing	-11.2569
▁rendered	-11.257
live	-11.257
▁forum	-11.2574
rick	-11.2576
▁Khan	-11.2577
▁providers	-11.2579
device	-11.258
schemas	-11.2583
▁tie	-11.2585
▁Side	-11.2586
▁signing	-11.2587
▁Turkey	-11.2588
iness	-11.2592
▁vi	-11.2592
attribute	-11.2593
▁royal	-11.2593
member	-11.2594
OP	-11.2594
▁collections	-11.2596
▁Bibliography	-11.2596
artifactId	-11.2597
▁Answer	-11.2597
}^{	-11.2598
▁unusual	-11.2602
▁puts	-11.2602
▁Jacob	-11.2603
▁overflow	-11.2603
▁Television	-11.2604
bel	-11.2605
JS	-11.2609
▁studying	-11.261
something	-11.2613
Repository	-11.2615
▁Sho	-11.2615
▁deploy	-11.2615
▁Customer	-11.2616
Db	-11.2619
▁footballer	-11.262
▁ver	-11.2622
▁grab	-11.2622
ל	-11.2624
care	-11.2626
▁enjoyed	-11.2629
▁taxes	-11.2629
spring	-11.2629
Car	-11.2634
gue	-11.2636
▁Ford	-11.2636
lay	-11.2647
▁tr	-11.2648
Level	-11.2649
>';	-11.2649
▁brick	-11.265
ila	-11.2651
▁publishing	-11.2653
TE	-11.2655
▁deck	-11.2656
+"	-11.2657
▁precise	-11.2658
phy	-11.2658
▁mess	-11.2659
š	-11.2662
Active	-11.2663
ien	-11.2666
▁cancel	-11.2666
▁rent	-11.2666
▁constraints	-11.2669
▁aid	-11.267
xxx	-11.2673
▁cart	-11.2674
án	-11.2676
▁comprehensive	-11.2677
▁surgery	-11.2679
fr	-11.2679
▁versus	-11.268
▁Cro	-11.2682
pan	-11.2682
answer	-11.2684
▁engineer	-11.2685
sel	-11.2685
▁Mas	-11.2686
}[	-11.2686
▁Common	-11.2687
scala	-11.2687
▁Brand	-11.2688
▁Website	-11.2688
hill	-11.2691
▁restrictions	-11.2692
▁sky	-11.2692
▁initialize	-11.2693
Report	-11.2699
▁birds	-11.2702
▁IV	-11.2702
▁sorted	-11.2702
▁hint	-11.2702
Var	-11.2702
▁rotate	-11.2704
▁brothers	-11.2705
▁carrying	-11.2711
NULL	-11.2715
▁Express	-11.2716
▁POST	-11.2721
UN	-11.2722
CR	-11.2722
▁arch	-11.2723
▁}}	-11.2725
band	-11.2725
▁rejected	-11.2728
▁на	-11.2729
▁predict	-11.273
▁mining	-11.273
▁GET	-11.2731
▁Join	-11.2731
global	-11.2732
▁Rob	-11.2734
▁Hor	-11.2735
▁utility	-11.2738
▁wearing	-11.2739
▁exp	-11.2739
chen	-11.274
▁Foreign	-11.2741
success	-11.2744
▁Count	-11.2745
shift	-11.2747
groupId	-11.2747
▁principles	-11.2748
▁Mat	-11.2749
ре	-11.275
▁computers	-11.2752
▁therapy	-11.2752
▁loose	-11.2754
▁Tags	-11.2754
aya	-11.2754
▁Anna	-11.2754
arrow	-11.2757
ras	-11.2765
called	-11.2765
▁Aug	-11.2767
small	-11.2769
▁ALL	-11.2774
JSON	-11.2775
owner	-11.2776
driver	-11.2779
▁fi	-11.2779
▁Bus	-11.2781
complete	-11.2782
▁<!--	-11.2785
▁Den	-11.2785
cin	-11.2787
▁centuries	-11.2787
▁mayor	-11.2788
▁Print	-11.279
tha	-11.279
CP	-11.279
▁supplies	-11.279
▁mesh	-11.2791
lip	-11.2792
▁finishing	-11.2793
ident	-11.2793
▁merged	-11.2793
▁grown	-11.2795
Widget	-11.2799
ington	-11.2801
quality	-11.2802
gamma	-11.2805
▁pointers	-11.2806
Callback	-11.2806
▁actress	-11.2808
LD	-11.2811
Delta	-11.2814
dump	-11.2816
fn	-11.282
▁Mexican	-11.2822
ת	-11.2824
▁Swedish	-11.2825
▁McC	-11.283
▁Culture	-11.2831
▁contributed	-11.2832
▁alive	-11.2833
Pos	-11.2834
[\	-11.2834
nil	-11.2836
▁rarely	-11.284
▁Return	-11.2841
▁poet	-11.2841
▁describing	-11.2846
▁ingredients	-11.2848
▁DNA	-11.2849
setText	-11.2849
▁decimal	-11.285
▁trend	-11.2852
▁reducing	-11.2853
▁sixth	-11.2856
speed	-11.2856
▁compilation	-11.2858
▁lowest	-11.2858
▁sensitive	-11.2859
▁Prize	-11.286
WriteLine	-11.2861
▁regulations	-11.2862
▁trains	-11.2864
▁Hence	-11.2865
gr	-11.2866
▁Further	-11.2866
ense	-11.2869
▁SA	-11.287
▁tied	-11.287
ral	-11.2871
rho	-11.2874
▁Disney	-11.2877
▁pi	-11.2878
▁exhibition	-11.2881
mont	-11.2882
yr	-11.2883
▁Collection	-11.2888
▁Bor	-11.2889
folder	-11.289
rant	-11.2894
▁Medal	-11.2894
्	-11.2894
▁curl	-11.2895
▁tracking	-11.2895
PO	-11.2897
▁Minnesota	-11.2898
▁Spirit	-11.2899
▁cluster	-11.2901
▁params	-11.2902
▁hosts	-11.2902
▁managing	-11.2905
rian	-11.2907
▁reserve	-11.2907
▁subjects	-11.2908
▁nominated	-11.2908
▁Got	-11.2909
eta	-11.291
▁bold	-11.291
▁Remember	-11.2911
Foo	-11.2911
▁DVD	-11.2919
▁Jay	-11.2919
▁NFL	-11.2924
▁relief	-11.2926
▁meters	-11.2927
ré	-11.2929
▁Sweden	-11.2931
packages	-11.2932
▁trivial	-11.2932
▁Convert	-11.2934
▁Email	-11.2937
▁btn	-11.294
▁keyword	-11.2943
▁alt	-11.2944
▁preserve	-11.2944
▁fa	-11.2946
Enter	-11.2946
▁Brian	-11.2946
▁Arab	-11.2948
jan	-11.2948
▁optimization	-11.2948
wide	-11.2948
NSString	-11.295
▁Being	-11.2952
▁Junior	-11.296
▁Stack	-11.2961
SO	-11.2963
▁digits	-11.2963
cing	-11.2965
▁embedded	-11.2965
Variable	-11.2967
Home	-11.2971
▁Working	-11.2971
▁organic	-11.2972
▁compact	-11.2972
▁burn	-11.2973
▁Yet	-11.2974
▁respective	-11.298
▁literal	-11.298
Root	-11.2981
▁amounts	-11.2981
▁anybody	-11.2982
▁privacy	-11.2984
▁drugs	-11.2984
▁Sign	-11.2984
▁Article	-11.2985
Entry	-11.2986
▁inspiration	-11.2987
PATH	-11.2988
LOG	-11.2992
▁hyper	-11.2993
▁heads	-11.2994
reg	-11.2995
▁worker	-11.2995
CI	-11.2996
▁HD	-11.2997
▁commented	-11.2997
م	-11.2999
AB	-11.3007
▁chairman	-11.3008
▁proposal	-11.3013
▁listening	-11.3013
minute	-11.3019
bridge	-11.302
▁Eclipse	-11.3021
century	-11.3022
▁preparation	-11.3024
ste	-11.3025
▁Dam	-11.3026
▁personnel	-11.3028
▁Session	-11.3033
away	-11.3035
▁boys	-11.3036
▁img	-11.3037
▁Active	-11.3037
▁moon	-11.3041
▁swap	-11.3043
▁Block	-11.3044
▁Buy	-11.3045
▁situated	-11.3045
▁Egypt	-11.3046
▁Capital	-11.3046
▁dogs	-11.3047
uv	-11.3047
aw	-11.3047
tte	-11.3048
▁everywhere	-11.3051
▁introduce	-11.3054
▁eliminate	-11.3055
▁Sound	-11.3059
vid	-11.3059
▁Parent	-11.306
▁Writing	-11.3061
▁payments	-11.3063
▁tap	-11.3067
stock	-11.3068
rk	-11.3069
▁ip	-11.3074
▁Ye	-11.3075
▁RAM	-11.3075
week	-11.3075
Xml	-11.3077
meter	-11.3077
▁Assuming	-11.3077
▁forever	-11.3079
▁recover	-11.3079
▁Medicine	-11.3083
HS	-11.3083
▁adjacent	-11.3089
▁blind	-11.3089
▁offices	-11.309
]=	-11.309
▁manufacturer	-11.309
bra	-11.3091
▁increment	-11.3097
▁func	-11.3098
▁tight	-11.3098
▁Natural	-11.3099
▁Intent	-11.3099
ean	-11.3101
▁arrival	-11.3102
▁Ger	-11.3104
▁hat	-11.3104
▁suffering	-11.3105
(&	-11.3106
SL	-11.3106
ators	-11.3111
▁Moreover	-11.3112
aging	-11.3112
safe	-11.3114
▁Tab	-11.3114
▁displaying	-11.3116
▁giant	-11.3116
▁equations	-11.3118
▁WP	-11.312
ore	-11.312
▁attacked	-11.3123
▁institution	-11.3126
drop	-11.3128
▁suddenly	-11.3129
▁Sand	-11.313
▁racing	-11.3134
ulation	-11.3138
▁Exchange	-11.3138
▁Message	-11.3138
▁filed	-11.314
aire	-11.3141
Person	-11.3145
▁professionals	-11.3145
▁fleet	-11.3146
▁flexible	-11.3151
AF	-11.3152
▁MB	-11.3155
▁filters	-11.3155
▁monitoring	-11.3156
▁falling	-11.3157
Rect	-11.316
▁weekly	-11.316
Day	-11.3162
▁builder	-11.3164
▁Rails	-11.3169
}$$	-11.3172
▁Mag	-11.3173
country	-11.3176
▁algorithms	-11.3178
▁elaborate	-11.3179
▁guns	-11.318
▁measured	-11.318
Bytes	-11.3182
schema	-11.3183
aa	-11.3184
▁Organization	-11.3185
▁Pop	-11.3189
require	-11.319
ben	-11.3191
]+	-11.3191
▁mock	-11.3192
▁stages	-11.3192
▁Students	-11.3193
▁seriously	-11.3196
ters	-11.3196
▁Ltd	-11.3197
▁Muslim	-11.3197
▁Things	-11.3198
Site	-11.3198
pol	-11.3201
▁impression	-11.3201
▁Pet	-11.3203
▁Vice	-11.3204
SM	-11.3205
results	-11.3206
▁'/	-11.3208
AN	-11.321
▁Miller	-11.3211
rand	-11.3212
▁Gor	-11.3212
INSERT	-11.3216
rank	-11.3224
▁Index	-11.3225
▁aggregate	-11.3225
▁Ruby	-11.3227
▁Matthew	-11.3227
▁generator	-11.3227
▁Wisconsin	-11.3228
▁agents	-11.3229
school	-11.323
common	-11.3232
din	-11.3232
▁\$	-11.3233
▁NY	-11.3233
nbsp	-11.3233
▁Job	-11.3234
bury	-11.3234
▁executing	-11.3236
▁Francis	-11.3237
▁guests	-11.3238
▁occupied	-11.324
▁async	-11.3244
▁aside	-11.3245
▁inserted	-11.3245
▁sons	-11.3248
iva	-11.3248
▁pixel	-11.3249
▁alter	-11.3252
defined	-11.3253
▁referenced	-11.326
oth	-11.326
late	-11.3264
rid	-11.3265
Your	-11.3266
▁gene	-11.3266
ю	-11.3266
▁argue	-11.3267
hold	-11.3269
aff	-11.3271
▁capabilities	-11.3275
▁creature	-11.3275
***	-11.3276
SU	-11.3276
▁startup	-11.3278
▁hired	-11.328
▁Micro	-11.328
▁closure	-11.3282
▁reception	-11.3289
EP	-11.3289
▁encryption	-11.3291
▁gem	-11.3291
ij	-11.3292
▁hip	-11.3292
▁Events	-11.3295
tus	-11.3295
socket	-11.3296
▁Feb	-11.3296
▁influenced	-11.3297
checkbox	-11.3298
uf	-11.3304
LY	-11.3306
▁lie	-11.3307
▁clone	-11.3308
ency	-11.3312
emp	-11.3312
▁decrease	-11.3316
▁Int	-11.332
▁rewrite	-11.3321
unt	-11.3321
▁contributions	-11.3322
▁workflow	-11.3324
і	-11.3328
lg	-11.3329
▁involve	-11.3329
▁struggle	-11.333
▁pdf	-11.333
▁bread	-11.3331
▁Much	-11.3334
▁ongoing	-11.3337
osis	-11.3339
▁scratch	-11.3341
▁Cape	-11.3341
zen	-11.3343
▁teeth	-11.3344
▁Stra	-11.3344
▁stroke	-11.3353
▁drain	-11.3353
▁prize	-11.3357
▁GL	-11.3358
▁engage	-11.3359
strong	-11.3359
▁signals	-11.3361
▁lo	-11.3362
▁loops	-11.3363
▁Nor	-11.3365
▁pulled	-11.3368
zer	-11.337
unk	-11.3371
Ex	-11.3372
▁transparent	-11.3373
▁fought	-11.3379
▁independence	-11.3381
ú	-11.3383
▁kit	-11.3384
▁Future	-11.3388
"+	-11.3393
▁mechanical	-11.3393
▁Anne	-11.3394
Servlet	-11.3395
▁Village	-11.3395
▁Ross	-11.3395
▁easiest	-11.3396
acy	-11.3397
pu	-11.3402
▁Front	-11.3402
▁Iron	-11.3403
▁quantum	-11.3406
▁bash	-11.3406
▁dinner	-11.3406
ה	-11.341
▁fl	-11.3415
▁contribute	-11.3418
oli	-11.342
mov	-11.3423
▁Rev	-11.3423
Parameters	-11.3424
KEY	-11.3425
▁iterate	-11.3426
▁Build	-11.3426
ч	-11.3426
news	-11.3436
protected	-11.3437
▁SDK	-11.3437
▁distinction	-11.3441
▁alternate	-11.3441
▁tech	-11.3442
BO	-11.3442
mir	-11.3443
framework	-11.3444
▁Hay	-11.3446
▁migration	-11.3447
gov	-11.3448
▁Houston	-11.3449
▁Entertainment	-11.345
dra	-11.345
hor	-11.3451
▁Five	-11.3451
▁goods	-11.3454
▁Vietnam	-11.3461
▁Ak	-11.3463
▁fluid	-11.3463
TIME	-11.3464
Json	-11.3464
▁afterwards	-11.3466
▁consisting	-11.3467
▁joy	-11.3467
gs	-11.3468
▁Private	-11.3469
▁Cambridge	-11.3472
▁optimal	-11.3472
▁excited	-11.3475
▁aged	-11.3475
▁Federation	-11.3476
▁arg	-11.3477
▁residential	-11.3477
▁researchers	-11.3477
▁Arthur	-11.3479
▁faculty	-11.3479
▁horizontal	-11.348
▁Dun	-11.3481
lands	-11.3481
Make	-11.3484
prod	-11.3485
▁castle	-11.3486
mission	-11.3486
▁['	-11.3488
▁resort	-11.3489
▁zip	-11.3489
▁abandoned	-11.3489
▁innovation	-11.3489
lf	-11.3491
▁fr	-11.3496
ы	-11.3499
▁driven	-11.3499
▁Fan	-11.35
▁Las	-11.3501
▁meetings	-11.3503
▁Course	-11.3508
ect	-11.3508
▁Basic	-11.3509
ography	-11.351
▁Del	-11.3512
▁honest	-11.3512
RO	-11.3513
many	-11.3515
▁debugging	-11.3515
rule	-11.3516
ids	-11.3516
tis	-11.3517
▁consumption	-11.3518
▁emails	-11.3519
nal	-11.3519
Microsoft	-11.3521
▁Tele	-11.3523
▁definitions	-11.3523
▁deposit	-11.3523
▁naturally	-11.3528
wind	-11.3528
▁documentary	-11.3531
▁Bel	-11.3535
LS	-11.3535
stein	-11.3537
▁essay	-11.354
▁Room	-11.3541
▁Category	-11.3546
Tree	-11.3549
▁virus	-11.3549
anda	-11.355
USER	-11.3555
eur	-11.3557
▁Memorial	-11.3561
▁emotional	-11.3563
download	-11.3563
()->	-11.3564
▁protest	-11.3565
▁hasn	-11.3565
▁Jon	-11.3566
}%	-11.357
▁Staff	-11.357
▁Hal	-11.3572
awa	-11.3573
▁golf	-11.3573
▁crack	-11.3576
▁ceremony	-11.3579
Details	-11.3583
▁blow	-11.3584
angle	-11.3584
LinearLayout	-11.3588
FC	-11.359
olo	-11.3591
▁doors	-11.3594
Screen	-11.3598
ude	-11.3599
▁Come	-11.36
▁headquarters	-11.36
Trigger	-11.3601
▁Financial	-11.3601
▁injured	-11.3602
▁cor	-11.3606
▁outdoor	-11.3608
▁bullet	-11.3608
▁expecting	-11.3609
▁stronger	-11.361
▁critics	-11.3612
_\	-11.3614
sie	-11.3615
▁Phil	-11.362
▁Emperor	-11.3624
ending	-11.3625
▁cited	-11.3628
▁Race	-11.3631
▁exclusive	-11.3631
Div	-11.3633
▁distinguish	-11.3636
'])	-11.3636
▁deployed	-11.3638
▁zoom	-11.3639
party	-11.3639
▁Performance	-11.3642
▁intention	-11.3642
▁qui	-11.3643
]$	-11.3643
▁Kansas	-11.3644
▁Luc	-11.3644
zero	-11.3648
▁js	-11.3649
▁consideration	-11.3649
▁screenshot	-11.365
▁jar	-11.3651
▁bid	-11.3651
hood	-11.3654
▁repo	-11.3654
▁si	-11.3655
▁singles	-11.3655
▁Address	-11.3656
▁piano	-11.3657
ening	-11.3658
▁substitute	-11.3659
ast	-11.366
Auto	-11.366
children	-11.366
ка	-11.3662
▁currency	-11.3664
Year	-11.3664
▁legs	-11.3668
▁loans	-11.3669
▁conditional	-11.3672
▁processed	-11.3673
▁hi	-11.3674
▁encountered	-11.3676
▁grammar	-11.3676
ord	-11.3677
oy	-11.3678
craft	-11.368
scroll	-11.368
▁truck	-11.3684
▁birthday	-11.3685
aux	-11.3685
▁apt	-11.3686
▁unclear	-11.369
▁selecting	-11.369
▁entertainment	-11.369
▁Geography	-11.369
▁Regional	-11.3693
▁speakers	-11.3694
Sheet	-11.3696
II	-11.3696
^{\	-11.3697
▁puzzle	-11.3699
dl	-11.37
good	-11.3702
▁Len	-11.3703
▁agencies	-11.3703
$("#	-11.3703
checked	-11.3704
▁enum	-11.3705
PR	-11.3705
▁FA	-11.3706
▁passenger	-11.3707
▁smoke	-11.3709
▁Button	-11.3711
▁hunt	-11.3713
itz	-11.3714
▁convenient	-11.3714
---	-11.3714
cor	-11.3715
▁opera	-11.3717
▁enhance	-11.3721
edu	-11.3723
▁theater	-11.3726
▁Display	-11.373
UL	-11.3734
channel	-11.3737
aj	-11.3737
▁retail	-11.3738
▁admit	-11.3738
▁closest	-11.3739
▁suffer	-11.3742
▁Files	-11.3744
beans	-11.3745
▁towns	-11.3745
▁decline	-11.3745
▁imp	-11.3751
▁Computer	-11.3752
▁constraint	-11.3753
▁sends	-11.3757
▁deals	-11.3757
WHERE	-11.3757
Game	-11.376
▁variant	-11.3761
ي	-11.3761
▁frequent	-11.3762
Close	-11.3763
ops	-11.3764
▁superior	-11.3766
▁Dead	-11.3766
▁hero	-11.3771
▁SSL	-11.3771
▁Match	-11.3773
▁highlight	-11.3773
▁reflection	-11.3773
▁employer	-11.3774
▁Ros	-11.3774
▁penalty	-11.3778
▁coordinate	-11.3779
▁Marketing	-11.3779
allow	-11.3781
▁succeed	-11.3781
utter	-11.3784
▁tunnel	-11.3785
▁AP	-11.3786
▁advise	-11.3791
▁reproduce	-11.3791
▁franchise	-11.3793
▁slower	-11.3795
▁continuing	-11.3796
rad	-11.3796
▁Ryan	-11.3799
▁Style	-11.3799
▁Think	-11.3803
▁contribution	-11.3803
)*	-11.3803
▁opens	-11.3808
▁ne	-11.381
è	-11.381
▁god	-11.381
ome	-11.3811
▁arrive	-11.3812
▁legislation	-11.3814
▁increasingly	-11.3816
▁sed	-11.3818
But	-11.3818
iter	-11.3819
▁Sep	-11.3821
▁copyright	-11.3823
▁Magic	-11.3828
▁junior	-11.3829
▁Affairs	-11.383
ante	-11.3833
▁prints	-11.3834
verse	-11.3837
▁guidelines	-11.3837
▁roots	-11.3837
▁legend	-11.3839
burn	-11.3841
INFO	-11.3841
here	-11.3843
▁`<	-11.3845
▁Sure	-11.3846
▁Plant	-11.3848
▁Oregon	-11.3849
CT	-11.385
▁Tony	-11.385
comp	-11.3852
▁timeout	-11.3854
▁Kra	-11.3855
▁switching	-11.3859
fu	-11.3859
▁Foo	-11.386
▁Record	-11.386
▁poetry	-11.3862
epsilon	-11.3862
keys	-11.3863
▁dec	-11.3864
▁concluded	-11.3865
VA	-11.3866
▁Getting	-11.3868
▁publications	-11.387
acc	-11.3871
▁losses	-11.3872
▁talks	-11.3873
(...)	-11.3874
▁Jul	-11.3875
▁Sen	-11.3876
▁varchar	-11.388
▁Fre	-11.3882
▁DateTime	-11.3882
ו	-11.3883
▁defining	-11.3886
▁listener	-11.3886
▁Screen	-11.3886
sey	-11.3888
AND	-11.3891
▁Six	-11.3891
▁argued	-11.3893
mobile	-11.3895
▁organisation	-11.3896
▁worship	-11.3897
▁floating	-11.3898
▁wrapper	-11.3899
▁Smart	-11.39
Delegate	-11.3901
gui	-11.3902
▁absence	-11.3903
▁sec	-11.3904
dx	-11.3905
▁Either	-11.3909
▁inform	-11.3912
▁danger	-11.3916
▁Temple	-11.3916
▁Br	-11.3916
Com	-11.3917
ا	-11.3918
▁grey	-11.392
catch	-11.392
DT	-11.392
▁vast	-11.3921
archive	-11.3922
ש	-11.3923
▁PR	-11.3923
encode	-11.3926
▁meets	-11.3927
tant	-11.3927
Parser	-11.3931
▁criticism	-11.3931
▁Edition	-11.3933
▁Same	-11.3934
PER	-11.3935
▁cooking	-11.3935
▁anonymous	-11.3938
▁lyrics	-11.3939
▁arrest	-11.394
▁roads	-11.3943
▁integers	-11.3945
▁belief	-11.3945
reflect	-11.3947
▁precision	-11.3949
▁polynomial	-11.395
▁ports	-11.3952
▁sharp	-11.3953
▁und	-11.3954
because	-11.3955
(@	-11.3955
Font	-11.3957
ically	-11.3958
▁Fri	-11.3958
course	-11.3958
▁trail	-11.3961
gin	-11.3962
▁Chart	-11.3962
req	-11.3967
▁valley	-11.3969
▁responses	-11.3969
▁Instagram	-11.3975
When	-11.3975
▁ignored	-11.3976
▁Had	-11.3976
False	-11.3978
▁neck	-11.3979
cia	-11.398
PE	-11.398
▁accused	-11.398
NI	-11.3981
']['	-11.3982
Word	-11.3985
▁faces	-11.3986
ERROR	-11.3986
cover	-11.3987
aga	-11.3989
▁Var	-11.3992
tric	-11.3993
▁Reply	-11.3993
▁geometry	-11.3994
MO	-11.3995
▁literary	-11.3995
▁variation	-11.3997
▁Philippines	-11.3999
▁apartment	-11.4
inch	-11.4001
▁yeah	-11.4001
▁attorney	-11.4005
Option	-11.4005
▁Agency	-11.4005
▁€	-11.4005
▁bass	-11.4006
__(	-11.4009
radio	-11.401
▁comparing	-11.4012
ifying	-11.4012
▁Indeed	-11.4012
▁gate	-11.4013
▁CC	-11.4015
tableView	-11.4017
worth	-11.4022
enable	-11.4022
▁radius	-11.4023
▁lab	-11.4024
▁Ring	-11.4025
▁particles	-11.4028
▁Lar	-11.403
▁wealth	-11.4031
ón	-11.4031
dale	-11.4031
▁pushed	-11.4031
tail	-11.4032
▁iteration	-11.4033
▁Grid	-11.4033
▁ca	-11.404
▁identifier	-11.404
alt	-11.4043
ра	-11.4043
▁equally	-11.4044
▁stood	-11.4044
▁animated	-11.4045
shop	-11.4045
▁tick	-11.4046
▁deployment	-11.4047
condition	-11.4047
▁struggling	-11.4048
ony	-11.4048
generated	-11.4049
▁Sat	-11.4052
▁Allen	-11.4053
▁Mis	-11.4054
▁Ter	-11.4061
leq	-11.4062
Begin	-11.4067
▁Cho	-11.4067
modal	-11.4067
▁Hy	-11.4067
oh	-11.4069
▁frames	-11.407
release	-11.4071
▁heading	-11.4072
▁concerning	-11.4073
bool	-11.4073
▁gravity	-11.4075
lies	-11.4075
stat	-11.4076
▁Dog	-11.4077
▁grep	-11.4077
▁ES	-11.4077
▁Forum	-11.4078
▁Fo	-11.4081
▁Write	-11.4082
▁emphasis	-11.4087
have	-11.4088
▁Learning	-11.409
▁behalf	-11.4091
gun	-11.4092
None	-11.4096
▁Updated	-11.4096
▁consumers	-11.4099
▁fake	-11.41
▁sw	-11.4101
▁Never	-11.4101
ד	-11.4106
without	-11.4106
▁Obama	-11.4107
hover	-11.4108
St	-11.4109
▁KEY	-11.411
will	-11.4112
▁bulk	-11.4113
wick	-11.4115
Ha	-11.4115
▁Gro	-11.4116
tter	-11.4116
FE	-11.4117
Cells	-11.4117
mac	-11.4118
▁Dor	-11.4119
wall	-11.4121
owned	-11.4123
MI	-11.4124
▁Reception	-11.4124
resource	-11.4125
tau	-11.4126
▁simulation	-11.4127
▁slide	-11.4129
▁Dave	-11.413
settings	-11.4131
rated	-11.4131
▁viewed	-11.4134
▁lifetime	-11.4134
▁briefly	-11.4136
▁rapidly	-11.4138
▁patent	-11.4138
ifier	-11.4138
▁villages	-11.4139
Ra	-11.4139
met	-11.4143
▁appearing	-11.4143
ela	-11.4144
%%	-11.4145
▁streets	-11.415
ego	-11.415
▁fiddle	-11.415
▁IDE	-11.4151
▁reign	-11.4151
▁modal	-11.4152
▁Rich	-11.4153
▁bishop	-11.4158
▁Quick	-11.4159
▁Geo	-11.4162
gro	-11.4163
enter	-11.4163
▁timestamp	-11.4163
▁Indiana	-11.4165
BS	-11.4165
▁Sim	-11.4166
}`	-11.4166
▁blend	-11.4166
cle	-11.4167
▁Mission	-11.4168
story	-11.4168
bre	-11.4168
▁proud	-11.4169
▁counts	-11.417
Auth	-11.417
ates	-11.417
▁injuries	-11.4173
▁consequences	-11.4174
▁profit	-11.4175
▁Adding	-11.4179
cer	-11.4183
dependency	-11.4183
CF	-11.4185
▁cmd	-11.4186
href	-11.4188
▁Pin	-11.419
▁fe	-11.4191
▁dress	-11.4192
▁sentences	-11.4194
▁Dim	-11.4194
▁instrument	-11.4197
ato	-11.4199
▁mathematical	-11.4199
▁expertise	-11.4203
▁engagement	-11.4206
dInstanceState	-11.4207
▁IF	-11.4208
mos	-11.4209
▁removal	-11.4211
▁supplement	-11.4212
▁chicken	-11.4213
lig	-11.4214
foot	-11.4215
Param	-11.4215
▁belong	-11.4216
VM	-11.4219
▁Within	-11.4219
▁Wil	-11.422
▁invasion	-11.4221
grad	-11.4222
buf	-11.4222
▁Islam	-11.4227
▁precisely	-11.4228
Find	-11.4229
▁restricted	-11.423
shot	-11.4232
▁pitch	-11.4233
▁informed	-11.4234
ites	-11.4235
▁Gre	-11.424
tim	-11.4243
▁Cam	-11.4244
▁df	-11.4244
▁diverse	-11.4245
▁Related	-11.4247
▁concentration	-11.4248
▁Dragon	-11.4248
ander	-11.4249
cli	-11.4249
▁compound	-11.4252
▁hire	-11.4253
▁whilst	-11.4255
▁crucial	-11.4258
▁Estate	-11.4258
▁Shu	-11.4259
quote	-11.4261
bol	-11.4262
▁Drupal	-11.4262
▁diameter	-11.4262
▁DNS	-11.4262
▁journalist	-11.4263
Where	-11.4264
cip	-11.4265
▁jurisdiction	-11.4265
gle	-11.4265
▁crystal	-11.4267
far	-11.4267
iel	-11.4268
▁diagram	-11.4268
▁mu	-11.4269
▁Kit	-11.4269
▁grounds	-11.427
▁guaranteed	-11.4272
ı	-11.4273
▁Miami	-11.4275
▁periods	-11.4279
▁bronze	-11.4279
▁admitted	-11.4282
▁Know	-11.4283
That	-11.4284
svg	-11.4286
▁electricity	-11.4287
▁instruments	-11.4288
▁assert	-11.4288
Pre	-11.4288
▁Israeli	-11.4289
▁Regiment	-11.4289
limit	-11.4291
libs	-11.4292
region	-11.4294
▁incorporated	-11.4294
dle	-11.4296
▁mathematics	-11.43
gam	-11.4301
▁dropdown	-11.4302
▁ruled	-11.4304
▁notation	-11.4305
▁Found	-11.4306
Please	-11.4306
▁accordingly	-11.4307
Render	-11.4307
▁vertex	-11.4308
Job	-11.4308
▁***	-11.4308
▁Meanwhile	-11.4309
▁pixels	-11.4309
▁muscle	-11.431
▁Mil	-11.4311
▁Places	-11.4313
▁Jordan	-11.4319
▁universal	-11.4323
▁Clark	-11.4324
multi	-11.4326
▁Pope	-11.4326
▁bird	-11.4327
fl	-11.4327
En	-11.433
▁ordinary	-11.4333
bf	-11.4334
eau	-11.4335
▁Hollywood	-11.4336
compile	-11.4337
▁Exp	-11.4342
▁transportation	-11.4343
▁risks	-11.4344
▁manifest	-11.4345
▁occasionally	-11.4348
DateTime	-11.4349
ounce	-11.4349
▁SD	-11.4349
▁parking	-11.4351
cus	-11.4351
vent	-11.4352
▁Sarah	-11.4352
▁Hey	-11.4353
▁adventure	-11.4354
bul	-11.4356
intent	-11.4356
▁Manchester	-11.4358
▁Rad	-11.436
▁cake	-11.4362
pc	-11.4363
▁Lincoln	-11.4365
▁Jeff	-11.4366
▁consisted	-11.4367
los	-11.4367
▁eligible	-11.4367
▁afford	-11.4372
design	-11.4372
chain	-11.4375
▁orientation	-11.4376
▁Mont	-11.4377
▁Political	-11.4377
▁Published	-11.4378
▁lookup	-11.4378
cart	-11.4379
ни	-11.4379
▁elegant	-11.438
berry	-11.438
▁gr	-11.438
Empty	-11.438
pattern	-11.4381
Interval	-11.4382
lst	-11.4384
▁Challenge	-11.4385
Down	-11.4387
▁afternoon	-11.4388
▁navigate	-11.439
▁relay	-11.4392
▁Alternatively	-11.4393
Files	-11.4395
▁Tre	-11.4397
▁arr	-11.4398
▁painted	-11.4399
▁genetic	-11.44
Case	-11.4401
▁Starting	-11.4402
▁Lin	-11.4403
▁placing	-11.4404
▁Islamic	-11.4406
boy	-11.4408
▁maintaining	-11.441
TP	-11.4412
hole	-11.4412
▁bands	-11.4415
▁mac	-11.4417
▁pa	-11.442
IE	-11.4421
▁singing	-11.4424
TT	-11.4429
▁decent	-11.4429
▁Donald	-11.443
▁equipped	-11.443
bur	-11.4431
Operation	-11.4432
▁templates	-11.4434
▁chip	-11.4434
very	-11.4435
▁smell	-11.4435
ail	-11.4437
”,	-11.4438
▁Tennessee	-11.4438
uint	-11.4439
▁Classic	-11.4439
▁presidential	-11.444
▁legacy	-11.4441
▁Kal	-11.4441
matrix	-11.4441
nc	-11.4444
▁seal	-11.4445
▁Nice	-11.4448
▁Construction	-11.4452
▁bottle	-11.4452
▁fits	-11.4452
▁opt	-11.4453
component	-11.4453
eva	-11.4454
▁partially	-11.4458
Magento	-11.4459
▁pos	-11.4459
▁Billboard	-11.4461
▁accessing	-11.4468
▁assault	-11.4474
Api	-11.4475
▁Members	-11.4481
▁portfolio	-11.4482
▁Controller	-11.4482
▁vital	-11.4482
▁Suppose	-11.4484
▁crossing	-11.4484
▁bo	-11.4485
▁existed	-11.4486
▁inches	-11.4486
cess	-11.4487
▁throwing	-11.449
▁interpret	-11.4497
▁proceed	-11.4498
handler	-11.45
points	-11.4501
▁documented	-11.4501
▁abilities	-11.4501
▁hill	-11.4502
;}	-11.4503
▁[...]	-11.4504
▁Episode	-11.4505
▁Size	-11.4506
dec	-11.4507
▁Give	-11.4507
▁Missouri	-11.4509
stra	-11.4509
queue	-11.4509
offset	-11.451
million	-11.4514
▁examine	-11.4514
▁Para	-11.4516
▁celebrate	-11.4517
was	-11.4519
kit	-11.4519
ancy	-11.4521
ison	-11.4524
Build	-11.4524
▁newer	-11.4525
▁simultaneously	-11.4528
ALL	-11.4528
UR	-11.453
▁regarded	-11.453
▁Maryland	-11.4533
created	-11.4535
▁narrative	-11.4536
▁cabinet	-11.4539
▁Depending	-11.454
▁Lock	-11.4541
Icon	-11.4541
▁crazy	-11.4542
▁conf	-11.4542
lift	-11.4542
inc	-11.4543
IL	-11.4543
▁subscription	-11.4545
▁Paper	-11.4545
ello	-11.4546
ulate	-11.4548
▁Melbourne	-11.4548
▁disagree	-11.4549
▁CBD	-11.4553
slide	-11.4556
▁evolution	-11.4558
▁Cost	-11.456
Route	-11.4561
].[	-11.4563
▁scores	-11.4564
▁Switzerland	-11.4564
vor	-11.4566
▁DE	-11.4568
tool	-11.4569
documentclass	-11.4569
▁Hol	-11.4571
shell	-11.4573
Match	-11.4574
▁printer	-11.4575
▁regression	-11.4575
▁Philip	-11.4576
▁tube	-11.4577
▁prototype	-11.4578
▁pic	-11.4578
NT	-11.458
een	-11.4583
Cl	-11.4587
▁coal	-11.4588
▁Independent	-11.4588
▁Youth	-11.4589
ike	-11.4591
ied	-11.4591
▁observation	-11.4593
▁Albert	-11.4593
NR	-11.4594
Loader	-11.4594
short	-11.4596
{{	-11.4597
▁brands	-11.4599
▁reload	-11.46
▁Intel	-11.4607
lev	-11.461
Member	-11.461
LL	-11.4612
developer	-11.4613
▁unnecessary	-11.4613
DATA	-11.4614
▁Jane	-11.4614
bank	-11.4615
▁nations	-11.4616
kel	-11.4617
▁stupid	-11.4617
▁adapted	-11.4619
▁duties	-11.4621
▁regime	-11.4622
▁universities	-11.4623
▁targets	-11.4624
▁Nazi	-11.4626
plus	-11.4627
webkit	-11.463
FO	-11.4631
▁recommendations	-11.4633
▁Diego	-11.4634
▁fishing	-11.4635
GO	-11.4636
plane	-11.4636
▁Bro	-11.4639
▁consent	-11.4641
▁photography	-11.4641
oni	-11.4642
exit	-11.4642
▁shield	-11.4644
▁unexpected	-11.4644
▁Revolution	-11.4647
▁Mah	-11.4647
▁Notice	-11.4648
▁awareness	-11.4649
▁Patrick	-11.465
▁Roll	-11.4652
▁Okay	-11.4653
▁Sales	-11.4654
▁tele	-11.4656
own	-11.4656
▁talent	-11.4656
▁Moscow	-11.4657
bot	-11.4659
▁ABC	-11.466
nis	-11.466
▁architect	-11.466
simple	-11.4663
▁timing	-11.4663
▁fewer	-11.4664
▁educated	-11.4664
CB	-11.4664
▁Unlike	-11.4666
▁personality	-11.4667
ти	-11.4668
▁comic	-11.467
▁EC	-11.4671
▁noun	-11.4673
▁ssh	-11.4674
▁Response	-11.4674
scape	-11.4679
▁Ac	-11.4682
trans	-11.4684
▁Editor	-11.4687
chart	-11.4689
Math	-11.469
▁searched	-11.469
▁Bon	-11.4691
...)	-11.4695
▁Better	-11.4695
▁Walter	-11.4696
▁LA	-11.4696
▁©	-11.47
▁orange	-11.4702
▁founding	-11.4704
▁Self	-11.4704
sis	-11.4704
company	-11.4706
▁holes	-11.471
▁lighting	-11.471
▁Bureau	-11.4711
****************	-11.4711
▁operates	-11.4711
▁twelve	-11.4711
rah	-11.4711
▁districts	-11.4711
▁Kevin	-11.4714
▁digit	-11.4714
▁bone	-11.4715
▁communications	-11.4715
▁Inside	-11.4716
▁Unless	-11.4721
oke	-11.4724
>"	-11.4724
rib	-11.4725
edge	-11.4726
▁stayed	-11.4728
▁Zo	-11.4731
▁Probably	-11.4734
▁twin	-11.4735
uz	-11.4737
▁DM	-11.4739
▁parsing	-11.474
▁helper	-11.4742
▁await	-11.4746
Encoding	-11.4746
▁spoken	-11.4747
Submit	-11.4747
▁hub	-11.475
▁switched	-11.475
REQUEST	-11.475
▁archive	-11.4751
▁formerly	-11.4752
IR	-11.4752
services	-11.4757
▁overhead	-11.4757
▁folders	-11.4762
▁rapid	-11.4763
▁receives	-11.4764
ert	-11.4766
)$.	-11.4767
▁:(	-11.4768
▁actors	-11.4768
gn	-11.4768
]];	-11.4768
▁challenging	-11.4769
▁Euro	-11.477
lio	-11.4771
▁["	-11.4772
▁Fast	-11.4774
▁reject	-11.4774
▁possession	-11.4775
▁bowl	-11.4777
▁formatting	-11.4778
Exp	-11.478
▁epi	-11.4782
▁integrate	-11.479
ars	-11.479
▁typo	-11.4791
▁asset	-11.4792
▁THEN	-11.4792
rightarrow	-11.4792
Now	-11.4794
▁SET	-11.4796
PT	-11.4797
ough	-11.4797
▁Cy	-11.4797
▁victims	-11.4798
▁passengers	-11.4802
Plot	-11.4805
▁stretch	-11.4806
▁clothing	-11.4807
▁investigate	-11.481
▁Norway	-11.4814
▁injection	-11.4814
hn	-11.4816
▁FM	-11.4817
▁inherit	-11.4818
rails	-11.4819
▁aired	-11.4824
х	-11.4826
NG	-11.4829
▁improving	-11.4829
Can	-11.4829
▁Happy	-11.4832
▁mile	-11.4832
ali	-11.4834
▁Iraq	-11.4834
ines	-11.4834
▁Turkish	-11.4835
▁commissioned	-11.4837
▁Nar	-11.4838
▁clothes	-11.4838
kh	-11.4845
▁Framework	-11.485
variable	-11.485
▁Swiss	-11.4851
▁Metro	-11.4852
itch	-11.4853
▁projection	-11.4854
▁magnetic	-11.4854
▁unlike	-11.4855
bash	-11.4855
▁childhood	-11.4855
atic	-11.4855
though	-11.4855
dimensional	-11.4855
Center	-11.4856
ack	-11.4857
aro	-11.4858
vir	-11.4859
▁Mayor	-11.4861
engine	-11.4862
Animation	-11.4862
Section	-11.4867
▁threshold	-11.4875
since	-11.4876
▁po	-11.4877
▁Pl	-11.4877
bie	-11.4879
▁pit	-11.4879
DO	-11.488
▁Tagged	-11.4881
Worker	-11.4883
ssl	-11.4884
▁''	-11.4884
▁scientists	-11.4885
▁arc	-11.4886
▁suggesting	-11.4888
▁collapse	-11.4889
▁Besides	-11.489
Pi	-11.4891
▁earliest	-11.4891
▁Dy	-11.4894
▁linux	-11.4895
Func	-11.4897
▁Greece	-11.4897
▁ruling	-11.4897
Proxy	-11.4898
▁onclick	-11.49
arian	-11.49
▁ourselves	-11.49
ake	-11.4901
▁excel	-11.4902
Native	-11.4904
▁solving	-11.4905
▁NCAA	-11.4905
they	-11.4905
rink	-11.4906
CM	-11.4909
itis	-11.4911
`)	-11.4912
▁particle	-11.4912
▁armed	-11.4913
▁sphere	-11.4916
▁ISO	-11.4921
▁permit	-11.4921
▁tension	-11.4922
}_	-11.4923
▁Settings	-11.4924
▁rough	-11.4925
▁explaining	-11.4926
▁Pick	-11.4926
APP	-11.4929
toggle	-11.4929
('/	-11.4929
}$.	-11.4932
▁cheese	-11.4935
▁%}	-11.4935
eclipse	-11.4937
▁wake	-11.4938
ш	-11.4941
▁wet	-11.4942
à	-11.4942
▁bars	-11.4943
▁fantastic	-11.4944
itive	-11.4946
EX	-11.4947
lk	-11.4947
▁tickets	-11.4948
▁conventional	-11.4951
▁reserved	-11.4952
▁Constitution	-11.4953
-->	-11.4955
▁Ur	-11.4955
▁intend	-11.4956
▁themes	-11.4957
sender	-11.4957
atter	-11.4957
================	-11.4958
▁vertices	-11.4961
▁tile	-11.4963
fp	-11.4964
▁raid	-11.4966
▁detection	-11.497
▁converting	-11.4974
▁Defense	-11.4978
▁pr	-11.4978
▁submission	-11.498
CU	-11.4981
done	-11.4981
▁proven	-11.4981
▁Au	-11.4981
▁healthcare	-11.4982
▁rescue	-11.4985
▁rectangle	-11.4985
▁kid	-11.4986
▁mounted	-11.4986
cycle	-11.4986
magento	-11.4987
▁notion	-11.4988
▁unsigned	-11.4991
▁popularity	-11.4991
▁oxygen	-11.4998
▁experimental	-11.4998
▁discount	-11.5
coming	-11.5001
▁Visit	-11.5005
Detail	-11.5005
Print	-11.5007
▁measurement	-11.5009
▁Arch	-11.501
▁Query	-11.5011
▁eggs	-11.5011
nam	-11.5013
bootstrap	-11.5013
▁Us	-11.5014
▁reaches	-11.5015
▁intervention	-11.5015
▁pleasure	-11.5016
▁calculations	-11.5016
mination	-11.5017
▁observe	-11.5018
▁temperatures	-11.5023
ImageView	-11.5027
lia	-11.5028
tty	-11.5028
paper	-11.5029
onic	-11.503
▁supplied	-11.5031
▁Usually	-11.5035
▁substantial	-11.5036
▁feelings	-11.5038
Ro	-11.5038
▁Sale	-11.5039
の	-11.5041
ito	-11.5041
▁guessing	-11.5041
▁possibilities	-11.5043
▁diff	-11.5044
too	-11.5044
▁rising	-11.5047
ential	-11.505
▁ear	-11.505
▁invoke	-11.505
BL	-11.505
▁boundaries	-11.5051
pages	-11.5051
▁expectations	-11.5053
tile	-11.5053
tags	-11.5054
books	-11.5056
shape	-11.5057
▁regiment	-11.506
▁starring	-11.5062
ille	-11.5064
▁offensive	-11.5065
▁adaptation	-11.5066
zu	-11.5066
▁outputs	-11.5067
RP	-11.5068
▁ethnic	-11.5068
▁regards	-11.5069
standard	-11.5069
▁discovery	-11.507
▁Opera	-11.5071
▁participation	-11.5071
cup	-11.5071
▁CE	-11.5071
▁trap	-11.5071
▁credentials	-11.5072
▁Meta	-11.5073
▁indexes	-11.5074
▁insight	-11.5074
▁Motor	-11.5074
DataSource	-11.5075
ova	-11.5075
facebook	-11.5076
ways	-11.5077
▁brush	-11.5078
▁Mode	-11.5078
]*	-11.508
▁facts	-11.508
▁Gas	-11.5085
gel	-11.5089
Matrix	-11.509
=""	-11.5093
InputStream	-11.5094
▁parser	-11.5095
▁Tr	-11.5096
▁Turn	-11.5099
convert	-11.5099
▁exciting	-11.5099
uma	-11.5102
Columns	-11.5102
▁Mother	-11.5103
▁flows	-11.5107
▁Random	-11.5107
BE	-11.511
summary	-11.511
▁restored	-11.5114
Star	-11.5118
mond	-11.5119
ech	-11.5122
cost	-11.5123
sar	-11.5124
ND	-11.5125
▁Anderson	-11.5126
▁exam	-11.5128
▁classified	-11.513
▁placeholder	-11.5132
َ	-11.5132
▁releases	-11.5133
▁folks	-11.5133
adi	-11.5133
▁handles	-11.5136
▁Advanced	-11.5137
то	-11.5137
▁Seattle	-11.5138
▁Ron	-11.5138
market	-11.5142
▁Alice	-11.5143
▁directive	-11.5143
should	-11.5144
▁addressed	-11.5146
▁courts	-11.5146
▁beam	-11.5147
▁grass	-11.5149
▁Sy	-11.5149
▁Mus	-11.515
▁tu	-11.515
▁contacts	-11.515
enberg	-11.5151
▁yesterday	-11.5151
▁investors	-11.5151
▁demonstrate	-11.5152
properties	-11.5154
▁finger	-11.5154
▁funny	-11.5155
ground	-11.5155
FR	-11.5161
▁Lang	-11.5168
▁Earl	-11.5169
▁meaningful	-11.5169
▁Him	-11.5172
▁Possible	-11.5172
▁checkbox	-11.5172
▁advantages	-11.5173
▁Iowa	-11.5173
▁metres	-11.5175
▁strategic	-11.5176
Card	-11.5178
▁pseudo	-11.5178
!”	-11.5179
▁belt	-11.5179
▁mortgage	-11.5181
▁bomb	-11.5186
▁Hamilton	-11.519
▁@"	-11.519
eff	-11.5192
determin	-11.5192
▁Guard	-11.5193
▁flood	-11.5195
▁ms	-11.5196
Long	-11.5197
ر	-11.5198
▁Ever	-11.5199
▁occasion	-11.52
once	-11.5202
▁lunch	-11.5203
▁Clo	-11.5206
▁anniversary	-11.5207
▁headed	-11.5208
rock	-11.5209
▁moments	-11.5209
▁victim	-11.5209
had	-11.5211
▁wider	-11.5214
():	-11.5216
▁directions	-11.5216
▁kingdom	-11.522
▁codes	-11.522
▁triggered	-11.5221
Month	-11.5222
LP	-11.5224
emi	-11.5225
factory	-11.5225
▁Austria	-11.5226
▁processor	-11.5228
Engine	-11.523
▁generates	-11.5231
▁Judge	-11.5233
ind	-11.5234
▁rental	-11.5235
▁Enterprise	-11.5236
▁VALUES	-11.5237
▁Bat	-11.5238
SD	-11.5242
gif	-11.5244
amount	-11.5249
▁swing	-11.5249
▁Gun	-11.5251
▁Ty	-11.5252
▁Girl	-11.5252
lb	-11.5253
▁Ana	-11.5254
Back	-11.5254
▁executable	-11.5255
▁hitting	-11.5261
equals	-11.5261
▁safely	-11.5262
▁tone	-11.5264
▁quit	-11.5266
▁Reserve	-11.5267
Offset	-11.5268
▁slice	-11.5269
ics	-11.5272
▁opponent	-11.5272
▁Obviously	-11.5273
pel	-11.5274
▁knee	-11.5274
▁Labour	-11.5275
wait	-11.5275
▁requiring	-11.5276
▁permitted	-11.5277
required	-11.528
▁Bitcoin	-11.528
▁})	-11.528
▁SS	-11.5287
imp	-11.5288
▁Atlanta	-11.5289
▁Input	-11.5289
although	-11.5291
▁Send	-11.5291
▁Too	-11.5293
Copy	-11.5296
▁Anyone	-11.5299
ION	-11.5299
▁dust	-11.53
▁Insurance	-11.5301
▁quiet	-11.5302
nom	-11.5302
▁uploaded	-11.5303
▁forth	-11.5304
▁agricultural	-11.5304
▁marine	-11.5306
▁apparent	-11.5307
nik	-11.5308
▁Shop	-11.5309
▁Device	-11.5309
▁naming	-11.531
▁onCreate	-11.5311
▁grain	-11.5314
oe	-11.5315
Publish	-11.5315
▁drives	-11.5316
▁coin	-11.5317
▁Products	-11.5319
proc	-11.5321
▁Senator	-11.5321
▁hover	-11.5322
▁Mail	-11.5322
▁artificial	-11.5324
iti	-11.5324
lp	-11.5325
▁na	-11.5327
ht	-11.5328
▁Gil	-11.5328
▁DS	-11.5329
▁blocked	-11.5329
plan	-11.533
▁Ob	-11.5331
▁mixture	-11.5331
Delete	-11.5334
▁painter	-11.5334
▁Stop	-11.5339
getString	-11.534
“	-11.5342
▁Move	-11.5344
MAX	-11.5346
▁comma	-11.5346
▁publicly	-11.5347
permission	-11.5349
▁Large	-11.5349
▁Eye	-11.535
▁Continue	-11.5354
▁paintings	-11.5357
Send	-11.5358
rw	-11.5359
roid	-11.5359
▁Ukrainian	-11.5361
▁winners	-11.5361
▁passion	-11.5362
ن	-11.5363
▁Es	-11.5365
▁Rain	-11.5367
{$	-11.5367
▁Limited	-11.5368
▁improvements	-11.537
▁Clear	-11.5373
▁venture	-11.5374
▁Animal	-11.5375
▁Seven	-11.5376
▁survived	-11.5377
»	-11.5378
▁Kh	-11.5379
▁Looks	-11.5379
curr	-11.538
▁Single	-11.5382
▁convey	-11.5382
kg	-11.5383
▁Tro	-11.5387
▁extensions	-11.539
▁interpreted	-11.5391
products	-11.5391
▁worried	-11.5392
▁isolated	-11.5396
▁Until	-11.5396
▁wooden	-11.5397
present	-11.5401
through	-11.5401
Ba	-11.5402
▁reveal	-11.5405
Properties	-11.5405
▁gallery	-11.5407
▁Howard	-11.5407
го	-11.5408
▁AT	-11.5408
▁Mind	-11.5409
loss	-11.5412
Runtime	-11.5412
▁Dean	-11.5413
▁Flash	-11.5414
asa	-11.5417
ario	-11.5419
fast	-11.542
▁wallet	-11.5421
▁typing	-11.5423
▁Host	-11.5424
▁arrow	-11.5424
▁Samuel	-11.5428
wo	-11.5428
VC	-11.5429
▁restaurants	-11.543
Cursor	-11.543
ī	-11.5432
▁resistor	-11.5432
▁Original	-11.5434
▁analyze	-11.5434
(@"	-11.5434
▁millions	-11.5435
apt	-11.5437
pri	-11.5437
▁environments	-11.5438
Move	-11.5441
TAG	-11.5442
esh	-11.5444
rv	-11.5445
▁accessed	-11.5445
▁pressed	-11.5446
pub	-11.5446
▁Anthony	-11.5447
Ch	-11.5449
ree	-11.5451
▁sing	-11.5453
▁resume	-11.5459
▁Cover	-11.546
OM	-11.5461
▁defensive	-11.5461
except	-11.5461
▁Regular	-11.5463
lation	-11.5463
▁stadium	-11.5463
HC	-11.5466
▁acquisition	-11.5467
▁Cell	-11.5468
▁salary	-11.5469
HTML	-11.5469
▁Der	-11.5471
▁upcoming	-11.5472
▁racial	-11.5472
▁preference	-11.5474
▁GB	-11.5476
Unknown	-11.5476
area	-11.5479
Vector	-11.5479
zone	-11.548
conn	-11.5483
lop	-11.5483
▁Ant	-11.5484
▁py	-11.5484
▁everyday	-11.5485
ø	-11.5487
gmail	-11.5487
▁licensed	-11.5489
til	-11.5492
▁Moore	-11.5493
▁contracts	-11.5494
GridView	-11.5497
▁bedroom	-11.5499
▁encrypted	-11.5499
▁allocated	-11.5502
▁nobody	-11.5502
osa	-11.5503
att	-11.5505
ess	-11.5505
▁Economic	-11.5506
▁Portuguese	-11.5506
▁wise	-11.5507
▁Entity	-11.5507
▁clue	-11.5508
▁chamber	-11.5508
lee	-11.5509
flag	-11.5509
▁Liberal	-11.551
hit	-11.551
El	-11.5512
ups	-11.5512
▁Additional	-11.5512
ache	-11.5516
Omega	-11.5519
hol	-11.552
John	-11.5521
▁disaster	-11.5521
types	-11.5521
▁conservative	-11.5522
▁hockey	-11.5525
▁sick	-11.5525
▁significance	-11.5526
than	-11.5529
▁plugins	-11.5529
▁radiation	-11.553
▁qualify	-11.5531
▁valve	-11.5532
▁quoted	-11.5535
▁minimize	-11.5536
▁movements	-11.5536
▁AJAX	-11.5538
▁slight	-11.5539
brand	-11.554
▁err	-11.5541
▁defines	-11.5541
best	-11.5548
▁Sk	-11.5549
names	-11.555
▁lands	-11.5551
rating	-11.5551
▁provision	-11.5552
▁Sol	-11.5553
▁spectrum	-11.5553
▁Clean	-11.5554
▁Township	-11.5555
▁Reference	-11.5556
▁fastest	-11.5557
▁outstanding	-11.5561
▁genre	-11.5562
question	-11.5564
AV	-11.5564
▁fiber	-11.5567
▁affiliate	-11.5568
▁tune	-11.5569
▁meal	-11.557
▁lifestyle	-11.557
=[	-11.5571
▁Bush	-11.5573
▁arranged	-11.5573
▁Convention	-11.5576
▁Environment	-11.5576
▁secretary	-11.5577
▁flavor	-11.5578
Amount	-11.5578
▁detected	-11.5579
Security	-11.5579
▁Want	-11.558
▁marker	-11.5583
▁mom	-11.5583
bg	-11.5587
▁Experience	-11.5587
▁colleagues	-11.5588
▁Easy	-11.5589
▁Operation	-11.5591
▁encouraged	-11.5592
▁Employee	-11.5592
square	-11.5594
▁widget	-11.5598
validate	-11.5598
▁Azure	-11.5598
▁locked	-11.5599
▁sole	-11.56
▁Lab	-11.5601
▁exclude	-11.5601
▁deeper	-11.5601
▁pursue	-11.5601
▁reboot	-11.5602
▁churches	-11.5602
lau	-11.5603
▁Kin	-11.5603
▁Enter	-11.5603
sil	-11.5604
▁inhabitants	-11.5605
מ	-11.5607
hot	-11.5608
Bitmap	-11.5609
ivity	-11.5609
ва	-11.5612
▁Die	-11.5613
ago	-11.5623
Po	-11.5625
▁traveling	-11.5625
rat	-11.5628
▁USD	-11.563
▁belonging	-11.5632
SR	-11.5636
▁Cons	-11.5639
▁nearest	-11.564
vision	-11.5644
mph	-11.5645
▁illness	-11.5645
manager	-11.5645
▁Des	-11.5647
▁Harris	-11.5647
▁proportion	-11.5651
▁physically	-11.5652
▁bathroom	-11.5653
на	-11.5653
fold	-11.5654
▁chances	-11.5655
▁strain	-11.5656
▁premium	-11.5656
ologist	-11.5656
ique	-11.566
▁Kentucky	-11.5662
▁bull	-11.5662
▁Tokyo	-11.5663
▁surrounded	-11.5664
▁Peace	-11.567
▁hybrid	-11.5671
▁accompanied	-11.5671
rent	-11.5673
▁bra	-11.5674
ality	-11.5675
lit	-11.5676
▁rails	-11.568
ér	-11.5682
clean	-11.5682
▁Similarly	-11.5683
nit	-11.5683
▁bugs	-11.5684
▁endpoint	-11.5685
▁Reg	-11.5688
Dictionary	-11.5688
▁ju	-11.5689
▁Attorney	-11.5689
=\"	-11.5691
▁mistakes	-11.5691
views	-11.5691
▁mountains	-11.5692
CODE	-11.5692
▁streaming	-11.5693
▁Oak	-11.5694
▁'\	-11.5697
▁bath	-11.5698
▁alias	-11.5699
night	-11.5699
fil	-11.57
▁Safety	-11.5704
▁wanting	-11.5705
GS	-11.5706
Python	-11.5709
▁Connection	-11.5709
yu	-11.5712
Scroll	-11.5714
▁favourite	-11.5715
▁vectors	-11.5715
Pa	-11.5715
kill	-11.5716
▁technically	-11.5718
▁intellectual	-11.5721
▁Burn	-11.5721
hh	-11.5723
PP	-11.5726
ν	-11.5726
bird	-11.5729
▁Dance	-11.5731
ald	-11.5733
▁Hart	-11.5736
▁Vic	-11.5738
▁Alabama	-11.5739
▁certified	-11.5739
▁Tips	-11.574
▁Study	-11.574
gre	-11.574
▁innovative	-11.5741
▁gotten	-11.5746
HA	-11.5747
ska	-11.5747
ked	-11.5748
▁acc	-11.5749
eck	-11.575
Media	-11.5754
▁dir	-11.5759
▁mentions	-11.5759
▁Bull	-11.5761
▁Norwegian	-11.5763
▁favour	-11.5766
▁invest	-11.5768
▁straightforward	-11.5768
writer	-11.5768
both	-11.5769
▁praised	-11.577
▁focuses	-11.5771
▁resize	-11.5771
▁Tower	-11.5772
▁Mrs	-11.5777
ulator	-11.5777
▁Industry	-11.5777
▁hopefully	-11.5779
LI	-11.5779
OnClickListener	-11.578
▁Ren	-11.578
xsd	-11.5781
▁volunteer	-11.5781
▁alpha	-11.5786
DI	-11.5789
▁Austin	-11.5789
dat	-11.5789
▁qu	-11.5791
▁filling	-11.5793
▁copying	-11.5796
LM	-11.5796
▁folk	-11.5797
▁Douglas	-11.58
eon	-11.5804
▁Fame	-11.5805
▁Pad	-11.5811
▁Dev	-11.5813
\$	-11.5813
FL	-11.5813
▁passport	-11.5814
▁confident	-11.5815
bas	-11.5815
Msg	-11.5817
ा	-11.582
anti	-11.5822
Invoke	-11.5823
▁Sel	-11.5827
▁runat	-11.5828
large	-11.5828
▁breast	-11.5828
Timer	-11.5828
▁Greg	-11.583
^(	-11.583
▁advisor	-11.5831
abs	-11.5831
findViewById	-11.5831
▁smile	-11.5831
▁waves	-11.5832
­	-11.5832
mc	-11.5833
Append	-11.5833
▁holder	-11.5836
piece	-11.5836
▁attacker	-11.5836
aly	-11.5837
▁actively	-11.5837
tens	-11.5838
▁gather	-11.5838
▁singular	-11.5838
▁amongst	-11.5839
▁br	-11.584
▁Alan	-11.584
▁Pri	-11.5841
xl	-11.5842
▁Med	-11.5843
▁Alliance	-11.5843
▁satellite	-11.5845
pose	-11.5846
finals	-11.5846
linear	-11.5846
▁centers	-11.5849
▁stem	-11.5852
▁pipeline	-11.5853
{}	-11.5855
▁gambling	-11.5858
Handle	-11.5859
▁gray	-11.586
sson	-11.5861
▁Arc	-11.5862
▁strictly	-11.5863
Expression	-11.5863
▁radical	-11.5864
▁preview	-11.5865
▁recommendation	-11.5865
DAY	-11.5866
▁Villa	-11.5866
▁Steel	-11.5866
▁riding	-11.5867
Java	-11.5867
▁utilize	-11.587
▁seventh	-11.5871
ser	-11.5871
▁rated	-11.5871
▁tokens	-11.5873
▁peer	-11.5877
▁incorporate	-11.5879
▁Sum	-11.588
ges	-11.5881
▁interactive	-11.5881
▁egg	-11.5882
▁ceiling	-11.5882
▁Anonymous	-11.5883
sheet	-11.5884
thing	-11.5887
▁WHEN	-11.5888
uni	-11.589
▁gaming	-11.589
▁attract	-11.589
Measure	-11.5891
wrapper	-11.5892
▁depression	-11.5892
▁Mars	-11.5897
▁Wind	-11.5898
Package	-11.5899
train	-11.5901
▁facilitate	-11.5901
▁Gal	-11.5902
▁Bag	-11.5903
▁shoes	-11.5904
▁tons	-11.5904
▁struck	-11.5906
ill	-11.591
▁variations	-11.5913
ao	-11.5914
▁packet	-11.5915
▁Kelly	-11.5916
▁overlap	-11.5916
▁heaven	-11.5918
▁END	-11.592
BI	-11.5921
friendly	-11.5921
▁drinking	-11.5922
▁leaf	-11.5922
;">	-11.5922
Chart	-11.5925
▁tabs	-11.5926
▁Boolean	-11.5929
▁metric	-11.5929
▁verse	-11.593
▁computing	-11.593
▁Detroit	-11.5933
General	-11.5937
▁overcome	-11.5938
fx	-11.5938
▁Virtual	-11.5938
dog	-11.5943
▁habit	-11.5944
▁tropical	-11.5945
nate	-11.5945
Pane	-11.5945
ctor	-11.5945
▁Kat	-11.595
▁stability	-11.5953
▁Secret	-11.5956
▁Making	-11.5956
directory	-11.5956
▁robust	-11.5957
bon	-11.5957
▁Vector	-11.5957
▁Nan	-11.5958
bean	-11.5959
▁limitations	-11.596
▁algebra	-11.596
▁MO	-11.5961
="/	-11.5962
rec	-11.5963
כ	-11.5964
▁Wolf	-11.5968
▁imported	-11.5969
nia	-11.5969
textarea	-11.597
▁longest	-11.5971
SIZE	-11.5972
▁REST	-11.5973
▁musicians	-11.5975
▁Assistant	-11.5977
▁Fred	-11.5978
▁successor	-11.5978
▁industries	-11.5978
▁acquire	-11.5978
▁shadow	-11.5978
▁popup	-11.598
▁PO	-11.5982
▁operational	-11.5982
▁destruction	-11.5983
▁Ky	-11.5984
▁coat	-11.5984
▁scholars	-11.5985
▁flights	-11.5985
▁Pla	-11.5986
▁Ang	-11.5989
ActivityThread	-11.5989
▁Dictionary	-11.599
▁resident	-11.5992
▁poverty	-11.5992
ult	-11.5995
▁Protection	-11.5996
▁bow	-11.5996
▁Mini	-11.5997
▁slots	-11.5998
▁poem	-11.5998
uke	-11.5999
▁metadata	-11.5999
▁scholarship	-11.6001
▁Document	-11.6003
▁Hit	-11.6004
shared	-11.6008
▁Ask	-11.6008
configuration	-11.6008
▁retained	-11.6008
▁intermediate	-11.6009
cas	-11.601
▁Deep	-11.6011
program	-11.6012
▁initiative	-11.6018
▁Orange	-11.602
▁ranking	-11.6022
▁sacrifice	-11.6025
bytes	-11.6026
▁expenses	-11.6026
▁focusing	-11.6027
▁ski	-11.6028
▁sustainable	-11.6032
▁resigned	-11.6032
▁infection	-11.6033
Bound	-11.6034
profit	-11.6038
▁Gr	-11.6038
▁apple	-11.604
▁combinations	-11.6041
▁beer	-11.6044
▁Luke	-11.6044
wal	-11.6045
▁Made	-11.6046
▁Mir	-11.6049
▁tomorrow	-11.605
▁Complete	-11.6053
▁statue	-11.6055
▁Wait	-11.6055
▁flags	-11.6055
duct	-11.6056
▁homo	-11.6056
aud	-11.6059
▁outcomes	-11.6059
▁Heritage	-11.606
▁cube	-11.6061
apk	-11.6063
▁Dallas	-11.6063
??	-11.6064
ili	-11.6065
ature	-11.6066
▁Close	-11.6068
Two	-11.6069
▁Follow	-11.6072
▁loud	-11.6072
maker	-11.6072
rim	-11.6073
▁bat	-11.6075
▁magnitude	-11.6076
▁breath	-11.6076
mg	-11.6076
г	-11.6077
▁islands	-11.608
mot	-11.6083
▁Bou	-11.6084
▁Systems	-11.6087
tier	-11.6087
itter	-11.6088
▁Stan	-11.6088
leg	-11.6089
▁Share	-11.609
▁Load	-11.6091
▁SEO	-11.6094
hai	-11.6094
▁indicating	-11.6095
▁gang	-11.6095
▁alternatives	-11.6096
▁consume	-11.6098
mean	-11.6101
▁considerable	-11.6101
▁surely	-11.6101
▁exclusively	-11.6104
gor	-11.6105
cross	-11.6107
▁alarm	-11.6108
▁CF	-11.6109
<<	-11.6109
▁circular	-11.611
="#">	-11.6112
▁slave	-11.6114
▁revision	-11.6117
▁Schedule	-11.6119
▁Honor	-11.6121
č	-11.6122
Win	-11.6123
▁Mur	-11.6124
▁Mai	-11.6126
▁sail	-11.6127
▁VI	-11.6131
▁chrome	-11.6132
sized	-11.6133
▁formally	-11.6133
*"	-11.6136
▁lessons	-11.6139
Execute	-11.6139
radius	-11.614
▁backend	-11.614
▁Body	-11.6141
▁Hills	-11.6142
mask	-11.6143
▁examination	-11.6143
lem	-11.6143
▁Shin	-11.6143
▁carrier	-11.6146
Vi	-11.6146
'));	-11.6146
htaccess	-11.6148
▁ui	-11.6148
tick	-11.6149
},{	-11.6149
▁Apr	-11.6151
▁honour	-11.6152
▁aimed	-11.6153
▁Analysis	-11.6153
bro	-11.6154
ded	-11.6156
UM	-11.6157
▁Morgan	-11.6158
▁priest	-11.6161
▁defend	-11.6162
▁Bol	-11.6164
▁conclude	-11.6164
("%	-11.6165
LO	-11.6167
Resources	-11.6168
PRO	-11.617
iling	-11.6171
▁jazz	-11.6171
▁Finance	-11.6171
▁Seems	-11.6172
▁Resources	-11.6172
▁announce	-11.6174
▁Blood	-11.6175
▁Money	-11.618
interface	-11.618
Role	-11.6181
▁wireless	-11.6183
▁inspect	-11.6184
▁databases	-11.6187
▁Trail	-11.6187
▁Sample	-11.6187
▁departure	-11.6188
▁iPad	-11.6188
▁Gordon	-11.6189
▁enemies	-11.6189
▁rounds	-11.619
▁diseases	-11.6191
▁furniture	-11.6191
around	-11.6195
▁${	-11.6198
▁Authority	-11.6201
▁occupation	-11.6203
▁Harvard	-11.6205
▁Ay	-11.6209
▁Les	-11.621
و	-11.621
ural	-11.6211
▁CI	-11.6212
▁Hebrew	-11.6216
▁interfaces	-11.6216
Wrapper	-11.6217
▁desert	-11.6217
election	-11.6218
shadow	-11.6218
▁encode	-11.6218
▁elevation	-11.622
▁cricket	-11.6222
▁copper	-11.6222
▁powder	-11.6222
▁Audio	-11.6222
▁seeds	-11.6223
wer	-11.6224
▁Rio	-11.6224
▁motivation	-11.6224
▁escort	-11.6225
lis	-11.6226
▁Bri	-11.6227
▁panels	-11.6228
▁bias	-11.6229
Debug	-11.6229
▁Walker	-11.623
▁---	-11.6231
loader	-11.6231
▁Running	-11.6232
▁Default	-11.6232
dam	-11.6233
▁complement	-11.6233
▁rocket	-11.6233
expr	-11.6238
▁armor	-11.6239
▁rice	-11.6241
▁municipal	-11.6241
▁artistic	-11.6242
▁impressive	-11.6243
▁satisfied	-11.6243
ART	-11.6245
▁IIS	-11.6247
geo	-11.6248
▁imply	-11.6248
sia	-11.6249
▁independently	-11.6251
▁pushing	-11.6255
chin	-11.6258
uit	-11.6259
▁<?	-11.6261
vendor	-11.6264
▁sal	-11.6264
▁msg	-11.6265
logical	-11.6265
ced	-11.6266
▁grows	-11.627
▁abroad	-11.627
▁Oklahoma	-11.6271
ić	-11.6273
▁graphic	-11.6274
▁simplest	-11.6276
▁CR	-11.6278
▁separation	-11.6282
USE	-11.6282
guide	-11.6282
▁Ry	-11.6282
bundle	-11.6282
▁habitat	-11.6283
▁sword	-11.6283
▁Lower	-11.6284
▁fraction	-11.6284
ire	-11.6284
▁Transport	-11.6286
msdn	-11.6286
▁Living	-11.6286
▁Cla	-11.6287
▁casting	-11.6288
building	-11.6288
lets	-11.6289
Notification	-11.6294
▁Late	-11.6295
mis	-11.6296
ket	-11.6297
Scope	-11.63
▁horses	-11.6301
▁behave	-11.6302
▁у	-11.6304
▁completing	-11.6305
▁о	-11.6306
resources	-11.6306
ente	-11.6307
▁Tur	-11.6308
▁shore	-11.6308
▁correlation	-11.631
▁Bit	-11.6311
▁matched	-11.6313
▁dense	-11.6315
▁Girls	-11.6316
OD	-11.6316
Dis	-11.6318
ро	-11.6319
▁automated	-11.6321
▁Raj	-11.6322
Sort	-11.6324
▁spots	-11.6324
▁specialized	-11.633
▁coins	-11.6333
Cookie	-11.6333
▁downtown	-11.6333
Domain	-11.6336
Over	-11.6338
Red	-11.6338
▁sorting	-11.6339
▁directories	-11.6339
▁Snow	-11.6339
Cat	-11.634
fun	-11.6343
▁raising	-11.6343
▁joke	-11.6346
▁bay	-11.6348
Double	-11.6348
scan	-11.635
▁venue	-11.6351
turn	-11.6351
▁Nigeria	-11.6351
smith	-11.6352
ssh	-11.6352
rot	-11.6352
ees	-11.6353
mouse	-11.6354
illo	-11.6354
uro	-11.6355
▁Rep	-11.6355
np	-11.6357
▁Weight	-11.6358
nl	-11.6358
▁powered	-11.636
▁Ji	-11.6361
▁useless	-11.6361
▁Rather	-11.6363
▁enforcement	-11.6363
▁availability	-11.6364
logy	-11.6364
kov	-11.6364
▁heap	-11.6367
▁relating	-11.6367
▁Jason	-11.6368
figure	-11.6369
Feature	-11.6369
argv	-11.637
▁restrict	-11.6375
why	-11.6375
▁expose	-11.6375
▁Issue	-11.6377
▁modifier	-11.6377
floor	-11.638
teen	-11.6381
▁reveals	-11.6383
▁heritage	-11.6384
OT	-11.6384
▁Left	-11.6384
▁alleged	-11.6386
▁ה	-11.6386
▁populate	-11.6386
▁Singles	-11.6387
ListView	-11.6388
tors	-11.6388
▁Swift	-11.6388
▁Dynamic	-11.6391
▁historian	-11.6391
$-	-11.6391
▁sequences	-11.6393
▁letting	-11.6396
▁NC	-11.6397
▁pur	-11.6398
▁characteristic	-11.64
▁defence	-11.6401
iving	-11.6401
pay	-11.6402
Mail	-11.6403
▁interactions	-11.6403
▁accepting	-11.6404
Schema	-11.6404
▁gradually	-11.6404
▁Fin	-11.6406
DIR	-11.6407
mount	-11.6408
▁est	-11.6409
desc	-11.6409
dots	-11.641
▁locate	-11.6411
▁Kon	-11.6412
▁'#	-11.6414
ет	-11.6417
▁den	-11.6418
▁CH	-11.642
▁indoor	-11.6421
▁Primary	-11.6425
stage	-11.6425
▁compensation	-11.6427
???	-11.6427
▁Fun	-11.6428
▁Option	-11.6429
navbar	-11.6431
▁Lan	-11.6432
▁Czech	-11.6432
▁Years	-11.6433
▁affordable	-11.6434
▁clip	-11.6434
▁GA	-11.6438
▁blocking	-11.6438
▁grace	-11.6438
▁competing	-11.6442
▁BE	-11.6443
▁novels	-11.6444
▁announcement	-11.6446
▁Result	-11.645
plugins	-11.645
Logger	-11.6451
ific	-11.6452
▁Lane	-11.6453
LU	-11.6456
▁cas	-11.6459
▁triple	-11.6459
WA	-11.6459
ori	-11.646
▁computation	-11.6461
▁revolution	-11.6461
▁observations	-11.6463
▁swimming	-11.6465
▁Bird	-11.6466
▁Grade	-11.6466
▁collision	-11.6467
pat	-11.6468
▁laser	-11.6469
fect	-11.6471
Phone	-11.6472
▁Census	-11.6476
▁Forces	-11.6476
▁dialogue	-11.6476
amo	-11.6479
▁localhost	-11.6482
peak	-11.6483
▁Nature	-11.6483
▁subscribe	-11.6485
ла	-11.6485
rug	-11.6487
INT	-11.6488
▁Queensland	-11.6488
);`	-11.6489
▁Different	-11.6491
▁visits	-11.6491
SERVER	-11.6492
▁Cool	-11.6493
▁ages	-11.6494
unique	-11.6495
▁exhibit	-11.6496
VI	-11.6497
UT	-11.6498
jdbc	-11.6499
Init	-11.6501
▁Engine	-11.6502
Na	-11.6502
▁occasions	-11.6502
▁intense	-11.6503
▁bother	-11.6505
▁watched	-11.6505
LR	-11.6506
"},	-11.6507
▁manufacturers	-11.6508
▁Dublin	-11.6508
dh	-11.6509
lm	-11.651
generate	-11.6511
▁sake	-11.6511
▁Ward	-11.6512
▁observer	-11.6515
▁arrangement	-11.6519
EST	-11.652
tam	-11.652
▁publisher	-11.6522
▁Agreement	-11.6522
▁Ce	-11.6523
▁Chamber	-11.6523
▁bearing	-11.6523
ope	-11.6526
wit	-11.6528
Return	-11.6528
maven	-11.6528
eli	-11.6528
▁remainder	-11.6529
▁Juan	-11.6529
deb	-11.6531
usa	-11.6532
▁forming	-11.6533
ido	-11.6534
▁Package	-11.6536
▁Thi	-11.6538
▁ORDER	-11.6541
▁Hat	-11.6542
chu	-11.6542
▁hierarchy	-11.6543
▁Install	-11.6545
▁shots	-11.6546
▁Hindu	-11.6546
▁notably	-11.6549
single	-11.655
Video	-11.655
▁rational	-11.6552
hon	-11.6553
Step	-11.6553
fra	-11.6553
▁Kam	-11.6554
▁leak	-11.6554
▁possess	-11.6556
MD	-11.6557
TI	-11.6559
quit	-11.6561
hook	-11.6562
▁satisfy	-11.6562
TF	-11.6563
▁Solution	-11.6567
ode	-11.657
addr	-11.657
▁Electric	-11.6572
▁dose	-11.6572
▁sizeof	-11.6572
Hi	-11.6573
▁Face	-11.6573
▁Official	-11.6574
azi	-11.6574
▁Profile	-11.6576
ι	-11.6576
depth	-11.6577
▁persist	-11.6578
▁judgment	-11.6581
Texture	-11.6582
▁demands	-11.6588
feed	-11.659
▁Drop	-11.659
▁snap	-11.6591
▁LLC	-11.6592
ь	-11.6593
▁Pos	-11.6593
curl	-11.6595
▁trim	-11.6595
▁Target	-11.6596
▁cousin	-11.6599
ching	-11.6601
]],	-11.6603
ign	-11.6605
▁similarly	-11.6608
Stack	-11.661
▁Malaysia	-11.6612
▁suicide	-11.6613
ло	-11.6613
details	-11.662
Parse	-11.6622
▁stake	-11.6623
▁Ice	-11.6623
hang	-11.6623
]}	-11.6623
▁Generally	-11.6623
▁Reviews	-11.6624
▁claiming	-11.6625
ctl	-11.6625
▁sha	-11.6626
▁photographer	-11.6629
oil	-11.663
▁targeted	-11.663
pal	-11.6631
▁Bear	-11.6632
▁coaching	-11.6634
sal	-11.6634
▁structural	-11.6639
Admin	-11.6642
▁Imperial	-11.6644
▁Simply	-11.6644
▁biological	-11.6653
ε	-11.6653
nor	-11.6653
▁dam	-11.6655
▁demonstrated	-11.6655
▁cave	-11.6655
Play	-11.6656
▁conservation	-11.6658
▁difficulties	-11.6659
ether	-11.6663
ished	-11.6664
diff	-11.6666
SESSION	-11.6667
▁Margaret	-11.6669
▁Filter	-11.6669
correct	-11.667
▁'%	-11.6671
network	-11.6673
links	-11.6675
▁Delhi	-11.6676
▁spark	-11.6678
▁repeatedly	-11.668
▁Golf	-11.668
LINE	-11.668
▁viewing	-11.6684
sburg	-11.6684
Yes	-11.6684
▁inherited	-11.6684
switch	-11.6684
printStackTrace	-11.6685
▁enterprise	-11.6685
▁Zone	-11.6686
.....	-11.6689
aught	-11.6689
focus	-11.669
tho	-11.669
CON	-11.669
ush	-11.6691
▁certification	-11.6691
rag	-11.6695
sty	-11.6696
rr	-11.6696
▁"";	-11.6698
▁Perfect	-11.6701
▁formats	-11.6701
▁organ	-11.6702
three	-11.6702
▁Angular	-11.6702
▁estimates	-11.6703
Big	-11.6704
▁deeply	-11.6705
▁Fine	-11.6705
canvas	-11.6707
shaped	-11.6709
▁specification	-11.6709
innerHTML	-11.671
See	-11.6715
▁guilty	-11.6715
▁wires	-11.6718
yer	-11.6719
▁cleaner	-11.6721
igo	-11.6724
▁evaluated	-11.6728
▁randomly	-11.6728
▁SR	-11.673
▁managers	-11.673
▁dig	-11.6731
▁Selected	-11.6731
mem	-11.6733
Full	-11.6733
▁classroom	-11.6737
EM	-11.6739
▁Memory	-11.674
▁ordering	-11.6741
▁chocolate	-11.6742
demo	-11.6743
▁foods	-11.6747
▁affairs	-11.6748
decode	-11.6748
▁GM	-11.6749
Byte	-11.6749
▁ranges	-11.6749
▁datetime	-11.6749
objects	-11.6751
▁Mississippi	-11.6753
▁accommodate	-11.6755
lc	-11.6756
(!	-11.6756
▁tennis	-11.6756
▁vulnerable	-11.6757
▁Hell	-11.6758
▁voters	-11.6758
dynamic	-11.6759
▁affects	-11.676
▁musician	-11.6761
▁Originally	-11.6765
▁Annual	-11.6767
▁Mage	-11.6767
May	-11.6768
▁shapes	-11.6771
Free	-11.6771
▁eclipse	-11.6773
Enum	-11.6774
namespace	-11.6777
▁inject	-11.6777
▁Argentina	-11.6777
wear	-11.6778
▁Indonesia	-11.6781
▁Maha	-11.6781
▁temporarily	-11.6782
▁butter	-11.6782
ACT	-11.6785
▁excess	-11.6785
rp	-11.6787
▁Bow	-11.6787
▁suspended	-11.6788
▁assumptions	-11.6789
▁responded	-11.6789
▁consistently	-11.679
▁stays	-11.6792
▁romantic	-11.6795
▁involvement	-11.6797
▁deaths	-11.6797
hir	-11.6797
▁bootstrap	-11.6798
▁Az	-11.68
▁dated	-11.6801
▁Representatives	-11.6803
▁vacation	-11.6804
▁Categories	-11.6805
▁Antonio	-11.6805
▁Legal	-11.6807
issue	-11.6807
▁portal	-11.6807
▁Communist	-11.6808
▁Unity	-11.6808
subject	-11.6808
▁borders	-11.6809
▁credits	-11.6809
▁Nat	-11.6809
Don	-11.681
▁garage	-11.681
▁anxiety	-11.681
original	-11.6814
Space	-11.6815
▁Sport	-11.6815
▁readable	-11.6816
▁rolling	-11.6817
fin	-11.6818
▁Copy	-11.6819
"?>	-11.6819
lap	-11.6821
▁weren	-11.6824
xe	-11.6824
▁bean	-11.6824
▁vendor	-11.6824
▁Demo	-11.6825
Channel	-11.6826
gas	-11.6827
isset	-11.6827
▁Weekly	-11.683
▁Font	-11.6832
▁gradient	-11.6833
▁Leader	-11.6834
▁Vegas	-11.6836
▁Ship	-11.6839
▁amateur	-11.6839
cloud	-11.6842
'.$	-11.6842
▁jail	-11.6843
▁Crown	-11.6847
▁sad	-11.6851
▁memories	-11.6851
▁celebrated	-11.6851
▁forecast	-11.6854
▁Fer	-11.6855
*(	-11.6856
▁Shah	-11.6856
▁opinions	-11.6858
▁gay	-11.6858
▁retreat	-11.6858
▁Tools	-11.6859
wn	-11.6859
▁qualifying	-11.686
▁podcast	-11.6863
▁ads	-11.6867
pair	-11.6867
▁sn	-11.6868
▁Belgium	-11.6868
may	-11.6869
▁csv	-11.6869
selector	-11.687
те	-11.687
▁shops	-11.6871
да	-11.6872
▁Naval	-11.6872
serv	-11.6872
atory	-11.6873
sdk	-11.6875
],[	-11.6876
third	-11.6877
▁Multiple	-11.688
▁TCP	-11.6882
▁flexibility	-11.6882
▁Cannot	-11.6884
▁numeric	-11.6887
▁suite	-11.6888
touch	-11.6889
lus	-11.689
▁Buck	-11.689
▁resist	-11.6891
▁segments	-11.6892
▁MC	-11.6892
dialog	-11.6895
Stop	-11.6896
▁Talk	-11.6896
▁shelter	-11.6896
abi	-11.6899
built	-11.69
udge	-11.6902
▁activate	-11.6903
▁liberal	-11.6903
▁counting	-11.6904
Redirect	-11.6904
▁violent	-11.6904
typename	-11.6905
Profile	-11.6905
events	-11.6906
▁sauce	-11.6909
▁Honours	-11.691
▁vessel	-11.6915
▁VPN	-11.6916
ock	-11.6917
▁Stage	-11.6918
▁compression	-11.6919
▁Conservative	-11.6919
п	-11.692
▁eg	-11.6922
Ver	-11.6923
▁volumes	-11.6924
works	-11.6924
▁Urban	-11.6927
▁Denmark	-11.6927
▁farmers	-11.6932
▁tar	-11.6933
guard	-11.6934
▁attending	-11.6936
▁Palace	-11.6937
▁Whit	-11.6938
▁ultimate	-11.6939
▁Hockey	-11.6941
▁believes	-11.6943
ces	-11.6944
▁findings	-11.6945
Area	-11.6947
▁incredibly	-11.6947
Runner	-11.6949
▁Choose	-11.6952
Sql	-11.6956
▁enables	-11.6958
▁chest	-11.6959
▁legitimate	-11.696
tone	-11.696
morph	-11.6961
▁Bruce	-11.6964
▁param	-11.6965
▁parliament	-11.6966
▁slip	-11.6969
▁pace	-11.6971
DL	-11.6972
Identifier	-11.6972
▁Ottoman	-11.6972
▁hell	-11.6972
▁experiments	-11.6973
▁Schools	-11.6973
RM	-11.6974
Mon	-11.6977
callback	-11.6977
▁crop	-11.6977
hara	-11.6978
▁shock	-11.6979
ū	-11.6979
mag	-11.6979
▁lazy	-11.698
▁Cut	-11.6981
▁tweet	-11.6982
▁smallest	-11.6983
▁savings	-11.6983
lv	-11.6983
▁convinced	-11.6983
rem	-11.6984
graphic	-11.6984
wd	-11.6985
▁encoded	-11.6986
Mu	-11.6988
avan	-11.6988
erman	-11.6989
▁forcing	-11.6991
▁Portugal	-11.6993
▁Tam	-11.6993
editor	-11.6993
ifies	-11.6994
▁recipient	-11.6997
nz	-11.6998
Required	-11.6998
▁gathering	-11.6998
▁thesis	-11.6999
▁Chu	-11.7
▁invite	-11.7
▁secured	-11.7
▁attractive	-11.7001
"`	-11.7002
▁screw	-11.7002
▁flip	-11.7005
setup	-11.7005
VP	-11.7006
▁simplify	-11.7006
love	-11.7006
▁realistic	-11.7009
▁Around	-11.7011
▁Singh	-11.7011
▁trials	-11.7013
▁numerical	-11.7013
Null	-11.7014
UB	-11.7014
▁Draw	-11.7015
▁clicks	-11.7016
▁correction	-11.7017
words	-11.7019
wire	-11.702
▁upgraded	-11.702
▁experiencing	-11.7021
▁recursive	-11.7021
ried	-11.7023
▁Former	-11.7023
▁populated	-11.7024
▁В	-11.7027
▁batteries	-11.7028
▁flex	-11.703
▁Tell	-11.7032
models	-11.7034
dim	-11.7035
htm	-11.7037
Gen	-11.7038
▁Upper	-11.7041
▁Wing	-11.7041
▁Jar	-11.7045
contents	-11.7046
▁dish	-11.7046
ل	-11.7048
▁Glen	-11.705
▁adopt	-11.705
▁climb	-11.7051
▁Rick	-11.7051
▁Marie	-11.7052
Photo	-11.7052
kes	-11.7053
idx	-11.7055
sville	-11.7058
▁Script	-11.706
▁medieval	-11.7061
Selection	-11.7061
Graphics	-11.7062
▁Wars	-11.7063
▁Baker	-11.7063
▁companion	-11.7064
}_{	-11.7064
▁Train	-11.7065
anna	-11.7065
▁accepts	-11.7065
▁solely	-11.7065
lac	-11.7066
▁namely	-11.7067
▁Rod	-11.7068
▁Month	-11.7069
nel	-11.707
▁Sex	-11.7071
€	-11.7072
people	-11.7075
▁Gulf	-11.7076
▁Louisiana	-11.7077
▁presents	-11.7079
▁Commander	-11.7079
HL	-11.7079
cro	-11.708
▁fraud	-11.7082
Services	-11.7083
did	-11.7085
anga	-11.7086
Pixel	-11.7087
rep	-11.7089
flat	-11.7091
HI	-11.7091
▁dt	-11.7093
commit	-11.7094
ema	-11.7095
VE	-11.7095
▁Hunter	-11.7097
▁nose	-11.7098
City	-11.71
boat	-11.71
lick	-11.7102
▁'$	-11.7105
▁marking	-11.7106
▁alien	-11.7109
circ	-11.7109
−	-11.711
jsp	-11.7111
▁Angel	-11.7111
▁dragon	-11.7112
▁Kent	-11.7115
▁warnings	-11.7117
▁pour	-11.7119
▁inspection	-11.7121
visible	-11.7121
▁CSV	-11.7123
▁widespread	-11.7123
Objects	-11.7123
▁CP	-11.7123
▁participating	-11.7128
▁outline	-11.7128
Bind	-11.7129
▁$('.	-11.7132
▁inheritance	-11.7133
▁pink	-11.7133
FileName	-11.7135
After	-11.7136
▁momentum	-11.7137
yne	-11.7137
▁premiered	-11.7139
mates	-11.7141
▁attitude	-11.7142
rake	-11.7142
▁Survey	-11.7142
▁monument	-11.7144
FP	-11.7145
uge	-11.7145
▁sur	-11.7146
▁bot	-11.7146
▁tissue	-11.7146
intersect	-11.7149
▁Chair	-11.7151
▁answering	-11.7151
▁Stream	-11.7152
▁Players	-11.7152
▁prayer	-11.7153
▁lucky	-11.7156
immer	-11.7157
▁Deputy	-11.7159
Network	-11.7161
youtube	-11.7164
▁Chairman	-11.7168
▁institute	-11.7168
Contract	-11.7169
▁decides	-11.7171
▁liked	-11.7175
▁staying	-11.7176
▁filtering	-11.7176
factor	-11.7178
▁Casino	-11.7178
▁heating	-11.718
▁Rest	-11.7181
▁Module	-11.7183
▁linking	-11.7184
▁Brazilian	-11.7184
▁gauge	-11.7185
▁critic	-11.7188
▁Ran	-11.719
▁employ	-11.719
holder	-11.7192
▁Danish	-11.7197
▁Creating	-11.7198
▁HP	-11.7198
▁Gray	-11.7199
▁Christians	-11.72
▁crashes	-11.7201
▁clinic	-11.7201
▁Guy	-11.7205
▁calm	-11.7205
Temp	-11.7205
▁bypass	-11.7205
chy	-11.7206
▁EF	-11.7206
‘	-11.7206
ibility	-11.7207
▁Palm	-11.7207
indexPath	-11.7209
Minute	-11.721
▁alignment	-11.7211
▁variance	-11.7212
▁BA	-11.7213
▁Eu	-11.7214
NP	-11.7217
Behavior	-11.722
▁Russell	-11.7221
▁Together	-11.7222
bow	-11.7222
character	-11.7222
▁Heat	-11.7224
kk	-11.7224
Processor	-11.7225
▁Always	-11.7225
Prop	-11.7226
▁expedition	-11.7227
FM	-11.7227
imo	-11.7227
▁Bachelor	-11.7228
▁++	-11.7231
▁debugger	-11.7231
▁Baseball	-11.7234
▁SM	-11.7235
▁theories	-11.7235
enc	-11.7235
▁preferences	-11.7235
▁settle	-11.7235
▁vessels	-11.7238
letter	-11.7239
▁Ref	-11.724
▁diversity	-11.7241
▁plural	-11.7243
▁Deal	-11.7246
ViewModel	-11.7246
▁Puerto	-11.7246
та	-11.7249
trim	-11.7249
}$,	-11.725
wave	-11.725
▁Bangladesh	-11.725
▁Spa	-11.725
XX	-11.7251
▁everybody	-11.7251
agh	-11.7252
▁Kil	-11.7254
HR	-11.7255
rit	-11.7257
ο	-11.7258
gnu	-11.7261
▁subtle	-11.7261
Any	-11.7262
stick	-11.7262
▁preventing	-11.7263
▁Mathematica	-11.7267
▁Wal	-11.7268
▁representatives	-11.7269
▁reasoning	-11.727
▁compliance	-11.7271
ע	-11.7271
▁TRUE	-11.7272
▁Rule	-11.7274
▁reflected	-11.7277
extension	-11.7279
▁Por	-11.7279
▁Legend	-11.7279
browser	-11.728
▁grave	-11.728
▁pressing	-11.7281
▁Column	-11.7281
▁Days	-11.7282
▁fitness	-11.7283
▁Practice	-11.7284
STR	-11.7285
▁Role	-11.7287
cial	-11.7287
▁interviews	-11.7288
urb	-11.7289
logic	-11.729
▁Edge	-11.7291
▁creatures	-11.7292
▁criticized	-11.7292
Holder	-11.7293
nce	-11.7294
bib	-11.7294
▁Lawrence	-11.7297
ко	-11.7297
▁terrible	-11.7297
▁Cleveland	-11.7297
extend	-11.7298
Editor	-11.7298
▁firing	-11.7298
▁lawsuit	-11.7299
▁hypothesis	-11.7299
▁declined	-11.7299
strip	-11.7301
sten	-11.7301
▁marry	-11.7304
▁theoretical	-11.7304
ved	-11.7305
▁Regarding	-11.7308
reset	-11.7308
rig	-11.7308
▁Setting	-11.7309
merge	-11.731
isa	-11.731
▁implicit	-11.7312
▁scenarios	-11.7312
▁Baby	-11.7313
ease	-11.7313
later	-11.7315
▁thumb	-11.7315
dies	-11.7317
wards	-11.7318
▁Meeting	-11.7318
▁audit	-11.732
▁perception	-11.7322
▁HR	-11.7323
lle	-11.7324
Direction	-11.7325
▁ME	-11.7325
▁Along	-11.7327
▁delayed	-11.7327
▁sponsor	-11.7327
▁oh	-11.7327
platform	-11.7328
▁trusted	-11.733
▁Pal	-11.7332
▁routing	-11.7334
nas	-11.7334
▁fo	-11.7334
▁reviewed	-11.7335
▁northeast	-11.7335
▁Technical	-11.7335
▁webpage	-11.7336
▁Craft	-11.7337
MR	-11.7338
']);	-11.7338
]))	-11.7339
▁Arduino	-11.7341
▁breed	-11.7342
▁optimize	-11.7343
uda	-11.7344
▁gonna	-11.7344
▁Sil	-11.7345
▁measuring	-11.7346
▁deputy	-11.7346
▁Infantry	-11.7346
▁Personnel	-11.7347
▁underground	-11.7348
detail	-11.7349
▁(`	-11.735
▁Sai	-11.735
▁Metal	-11.7353
▁purely	-11.7354
Use	-11.7355
▁citizen	-11.7357
tom	-11.7358
▁thirty	-11.7359
▁neuro	-11.7364
▁burning	-11.7366
▁administrator	-11.7366
▁deleting	-11.7366
▁telephone	-11.7367
eration	-11.737
▁instructor	-11.737
▁Toast	-11.7371
▁expanding	-11.7371
▁Questions	-11.7372
▁witness	-11.7372
▁allocation	-11.7373
awt	-11.7373
working	-11.7375
▁eliminated	-11.7375
▁Climate	-11.7375
circle	-11.7375
▁boards	-11.7377
rain	-11.7377
PG	-11.7379
("/	-11.738
▁controversial	-11.7381
▁reward	-11.7381
logo	-11.7383
Sa	-11.7384
▁Frederick	-11.7385
▁Knight	-11.7389
▁SW	-11.7389
BEGIN	-11.7391
▁Critical	-11.7391
AI	-11.7392
▁preserved	-11.7393
forward	-11.7393
▁wings	-11.7394
▁modification	-11.7395
got	-11.7395
▁airline	-11.7395
ftp	-11.7396
▁NBA	-11.7396
▁besides	-11.7396
▁vocal	-11.7397
▁railroad	-11.7397
▁vague	-11.7397
▁meter	-11.7398
▁pulling	-11.7402
▁Explorer	-11.7404
▁Brigade	-11.7405
cil	-11.7407
erry	-11.7408
▁equals	-11.7408
▁Rural	-11.7409
cam	-11.7409
▁ERROR	-11.741
▁differential	-11.741
Mapping	-11.7411
▁begun	-11.7412
RewriteRule	-11.7412
▁Glass	-11.7413
Axis	-11.7413
▁cancelled	-11.7413
sequence	-11.7413
▁cameras	-11.7414
▁golden	-11.7415
▁BTW	-11.7415
▁Susan	-11.7415
▁Qui	-11.7416
NE	-11.7417
▁trends	-11.7417
posed	-11.7418
▁authorized	-11.742
}=	-11.742
▁Connecticut	-11.7421
miss	-11.7421
ann	-11.7421
▁Kids	-11.7422
▁Views	-11.7426
▁worn	-11.7427
tk	-11.7427
ides	-11.7428
▁Rank	-11.7429
Visible	-11.7429
▁incredible	-11.7429
TU	-11.7429
quad	-11.743
same	-11.743
▁admission	-11.7431
voc	-11.7431
▁Developer	-11.7435
▁crypto	-11.7435
cel	-11.7437
▁Kennedy	-11.7437
▁soap	-11.7438
▁varying	-11.7439
rio	-11.744
Spec	-11.7441
▁flower	-11.7441
lea	-11.7441
helper	-11.7442
▁Commercial	-11.7443
▁consist	-11.7444
▁aggressive	-11.7445
▁equality	-11.7445
swing	-11.7446
▁mechanics	-11.7446
▁rev	-11.7446
BB	-11.7447
cade	-11.7447
sian	-11.7447
izz	-11.7448
TD	-11.7451
▁Mono	-11.7453
▁varies	-11.7453
▁Bla	-11.7454
▁Cemetery	-11.7455
▁Pot	-11.7455
▁regulation	-11.7457
▁overview	-11.7457
Download	-11.7458
paste	-11.746
▁&=	-11.7461
▁Voice	-11.7461
gri	-11.7462
▁annually	-11.7462
▁INFO	-11.7462
▁texts	-11.7464
▁beneficial	-11.7465
VO	-11.7465
Attributes	-11.7466
TEST	-11.7466
▁Figure	-11.7468
sam	-11.7469
▁Bond	-11.7469
ridge	-11.747
GC	-11.7471
▁hunting	-11.7472
chat	-11.7473
lov	-11.7474
▁Adams	-11.7474
▁Commissioner	-11.7475
▁Than	-11.7478
para	-11.7479
important	-11.748
▁poster	-11.748
▁gross	-11.7483
four	-11.7483
ogen	-11.7484
omo	-11.7486
▁cheaper	-11.7487
++){	-11.749
▁Info	-11.749
▁Beck	-11.749
▁Apart	-11.749
▁crown	-11.7491
▁Roger	-11.7491
▁onClick	-11.7495
▁tricky	-11.7496
crypt	-11.7497
ight	-11.7497
б	-11.7498
▁Driver	-11.7502
™	-11.7503
▁DJ	-11.7505
gent	-11.7508
redirect	-11.7511
riot	-11.7511
perform	-11.7516
▁incoming	-11.752
▁enters	-11.7521
▁wrapped	-11.7521
▁Tea	-11.7523
▁dispute	-11.7523
Converter	-11.7524
Driver	-11.7525
?!	-11.7527
▁survival	-11.7528
binding	-11.7529
▁Pool	-11.7531
▁disorder	-11.7532
▁tagged	-11.7532
onym	-11.7534
▁campaigns	-11.7535
▁Universal	-11.7535
▁beta	-11.7536
▁preparing	-11.7536
▁exploit	-11.7537
▁ret	-11.7537
▁mood	-11.7537
▁dominant	-11.7538
▁nicely	-11.7538
▁ta	-11.7542
▁collective	-11.7542
eno	-11.7543
▁constituency	-11.7545
▁mentor	-11.7549
elo	-11.7549
aba	-11.755
▁sink	-11.755
▁neo	-11.7552
ле	-11.7556
▁substance	-11.7557
cie	-11.7559
▁township	-11.756
▁Really	-11.7562
contains	-11.7562
iate	-11.7563
▁Details	-11.7565
forms	-11.7565
Insert	-11.7566
▁Egyptian	-11.7567
▁elementary	-11.7568
▁phones	-11.7568
▁primitive	-11.757
urn	-11.7571
▁disappear	-11.7572
AG	-11.7573
▁reporter	-11.7574
cv	-11.7575
▁colonial	-11.7575
▁initialized	-11.7578
kind	-11.7579
▁orchestra	-11.7579
IV	-11.7579
pens	-11.758
▁conform	-11.7582
HOME	-11.7582
▁flush	-11.7583
▁Django	-11.7583
construct	-11.7585
×	-11.7585
▁switches	-11.7585
▁healing	-11.7585
▁chunk	-11.7585
▁breach	-11.7586
▁conflicts	-11.7588
alia	-11.759
▁Charlotte	-11.7591
▁fantasy	-11.7591
▁ul	-11.7592
▁sorts	-11.7593
▁instant	-11.7595
▁confirmation	-11.7595
▁connects	-11.7596
▁bounds	-11.7596
▁Labor	-11.7597
road	-11.7598
▁promoting	-11.7598
▁FL	-11.7599
▁GT	-11.7599
${	-11.76
etta	-11.7603
▁Mol	-11.7604
▁Din	-11.7607
iga	-11.7608
▁pp	-11.7609
▁Speed	-11.7609
▁accordance	-11.7609
Sample	-11.761
▁hydro	-11.761
tax	-11.7614
▁reasonably	-11.7615
▁measurements	-11.7615
lower	-11.7617
▁threatened	-11.7617
▁drew	-11.7617
approx	-11.762
▁Monte	-11.7625
▁silent	-11.7626
▁checkout	-11.7626
▁PL	-11.7626
▁illustrate	-11.7627
bd	-11.7628
ador	-11.7631
("\	-11.7631
▁lovely	-11.7631
soft	-11.7632
▁capability	-11.7635
▁triangle	-11.7635
audio	-11.7635
tics	-11.7636
▁pole	-11.7636
▁cuts	-11.7638
▁Nevertheless	-11.7638
dbo	-11.7639
ched	-11.7639
itation	-11.7641
▁transit	-11.7642
▁Adult	-11.7643
▁efficiently	-11.7643
URI	-11.7647
sleep	-11.7649
▁Movement	-11.765
being	-11.765
▁fade	-11.7651
▁dealer	-11.7651
▁aims	-11.7651
▁tends	-11.7652
▁Jet	-11.7652
kins	-11.7652
▁streams	-11.7653
Employee	-11.7654
▁spells	-11.7655
human	-11.7657
▁corn	-11.7658
\}$	-11.7658
Float	-11.7658
▁yo	-11.7659
▁Commonwealth	-11.766
▁Examples	-11.7661
נ	-11.7663
Ga	-11.7664
▁coastal	-11.767
▁AR	-11.7671
zh	-11.7671
sz	-11.7672
▁agriculture	-11.7673
vote	-11.7673
▁Studios	-11.7675
stmt	-11.7675
▁pounds	-11.7676
Results	-11.7677
bell	-11.7678
&&	-11.7678
▁Bru	-11.7679
tf	-11.768
▁connector	-11.768
▁rect	-11.7683
yyyy	-11.7683
grade	-11.7684
ination	-11.7685
▁stopping	-11.7685
Batch	-11.7685
▁visibility	-11.7686
▁integrity	-11.7687
▁Distribution	-11.7687
▁virtually	-11.7688
roy	-11.7688
agent	-11.7688
▁Boot	-11.7689
dispatch	-11.7689
▁Cer	-11.7689
▁Git	-11.7693
▁champions	-11.7695
▁Status	-11.7697
ages	-11.7697
▁Solar	-11.7698
▁Rules	-11.7698
▁jet	-11.7702
▁hiding	-11.7706
)$,	-11.7708
ote	-11.7708
▁attracted	-11.771
▁dies	-11.7711
▁assumes	-11.7713
▁competitions	-11.7714
▁soccer	-11.7715
cio	-11.7715
hm	-11.7716
▁NEW	-11.7718
MT	-11.772
▁convenience	-11.7721
flex	-11.7722
▁indication	-11.7723
Ticket	-11.7725
▁accidentally	-11.7726
▁immigration	-11.7726
▁shower	-11.7728
▁hydrogen	-11.773
MG	-11.7731
▁desk	-11.7732
▁ensuring	-11.7732
lier	-11.7732
▁altitude	-11.7733
▁AL	-11.7734
▁Kenya	-11.7735
▁Thailand	-11.7735
▁cycles	-11.7736
pk	-11.7736
▁horror	-11.7738
origin	-11.7739
▁vocals	-11.774
▁warrant	-11.774
▁Kir	-11.774
Remove	-11.7741
▁governments	-11.7741
▁controllers	-11.7742
▁Prix	-11.7742
▁Added	-11.7745
▁Quebec	-11.7746
--------------	-11.7746
rab	-11.7748
series	-11.7749
found	-11.775
sley	-11.7751
▁Kings	-11.7752
▁credited	-11.7754
oi	-11.7754
▁northwest	-11.7755
Final	-11.7756
▁bubble	-11.7759
▁vol	-11.776
▁Sto	-11.7761
▁directors	-11.7762
PF	-11.7762
▁Wu	-11.7762
▁Individual	-11.7763
▁bacteria	-11.7763
▁Jerusalem	-11.7763
umble	-11.7764
escape	-11.7764
skip	-11.7764
▁Baltimore	-11.7765
▁picking	-11.7766
▁Fr	-11.7767
▁Chan	-11.7767
▁Circuit	-11.7767
▁violation	-11.7768
▁rap	-11.7769
▁simplified	-11.777
▁electron	-11.7771
▁extending	-11.7773
▁Kill	-11.7774
▁subclass	-11.7776
ttle	-11.7776
▁petition	-11.7778
──	-11.7778
▁junction	-11.7779
▁inclusion	-11.7779
▁Dia	-11.778
itude	-11.7781
▁brackets	-11.7783
▁collector	-11.7783
nick	-11.7784
▁pad	-11.7784
▁Platform	-11.7784
(*)	-11.7785
▁Wow	-11.7785
proxy	-11.7786
attributes	-11.7786
▁dict	-11.7786
▁inverse	-11.7787
pul	-11.7787
▁noble	-11.7787
▁UTF	-11.7789
▁reg	-11.7789
▁Dal	-11.7789
▁cre	-11.7789
▁Thompson	-11.779
IST	-11.7794
ROW	-11.7794
▁doctors	-11.7794
▁statistical	-11.7797
▁Kur	-11.7798
Pass	-11.7798
▁annoying	-11.7799
▁highlighted	-11.78
▁Lieutenant	-11.7801
▁Qu	-11.7805
▁Karl	-11.7806
▁implementations	-11.7806
▁Xcode	-11.7807
▁YOU	-11.7807
;`	-11.7807
▁demonstration	-11.7808
▁wounded	-11.7809
nk	-11.7809
▁INT	-11.781
▁Tamil	-11.7812
twitter	-11.7812
"],	-11.7813
▁replicate	-11.7813
▁enforce	-11.7814
Catalog	-11.7815
▁VB	-11.7817
▁Merc	-11.7818
GP	-11.782
BR	-11.7821
▁rugby	-11.7822
ONE	-11.7824
▁Wo	-11.7824
▁mag	-11.7826
▁Ny	-11.7828
▁makeup	-11.7828
▁Ground	-11.7828
▁mal	-11.7829
▁Horse	-11.7829
▁debuted	-11.7829
▁Brooklyn	-11.783
▁Mun	-11.783
▁suck	-11.783
mx	-11.7831
▁thermal	-11.7832
▁Component	-11.7833
▁laugh	-11.7835
remote	-11.7835
columns	-11.7836
▁Pack	-11.7836
▁ultra	-11.7838
▁Champions	-11.7839
PD	-11.784
▁stamp	-11.7841
Sum	-11.7841
▁accent	-11.7842
▁partly	-11.7843
rac	-11.7843
▁electro	-11.7843
▁dollar	-11.7843
alter	-11.7844
▁oven	-11.7846
▁designing	-11.7847
▁betting	-11.7849
xyz	-11.7851
▁tackle	-11.7852
NN	-11.7852
▁attributed	-11.7852
▁counties	-11.7856
prepare	-11.7857
▁divisions	-11.7858
▁Squadron	-11.7859
▁cha	-11.7859
▁Freedom	-11.786
▁Properties	-11.786
▁luxury	-11.7861
▁Bha	-11.7861
▁drill	-11.7862
Background	-11.7863
ITY	-11.7864
▁Kel	-11.7864
AX	-11.7865
▁artwork	-11.7866
▁spare	-11.7867
distance	-11.7867
uli	-11.7869
Console	-11.7869
catalina	-11.7869
oso	-11.7869
limb	-11.787
sti	-11.787
▁shirt	-11.7871
▁handy	-11.7873
▁Salt	-11.7875
wl	-11.7875
▁TX	-11.7876
configure	-11.7877
▁derivative	-11.7879
Am	-11.788
▁Fat	-11.7884
▁magical	-11.7885
▁Hur	-11.7887
Score	-11.7887
▁squadron	-11.7888
▁Christopher	-11.7889
▁talked	-11.7889
WS	-11.7893
uses	-11.7894
arc	-11.7894
▁Draft	-11.7894
▁daughters	-11.7895
▁$('	-11.7896
ered	-11.7896
▁reduces	-11.7897
▁"#	-11.7897
▁restoration	-11.7897
▁Cold	-11.7898
▁centered	-11.7898
Utils	-11.79
▁adjective	-11.7903
heat	-11.7905
▁portrait	-11.7905
RN	-11.7907
▁architectural	-11.7907
▁CV	-11.7908
▁Movie	-11.7909
▁fitting	-11.7911
▁spray	-11.7911
lining	-11.7912
▁followers	-11.7915
his	-11.7915
corp	-11.7915
NY	-11.7915
▁Nation	-11.7916
▁moth	-11.7917
Sync	-11.7919
rey	-11.792
ota	-11.792
▁upvote	-11.7922
▁cal	-11.7923
cra	-11.7924
▁placement	-11.7924
ask	-11.7925
cookie	-11.7927
▁insist	-11.793
▁Utah	-11.793
▁Newton	-11.7932
▁Jam	-11.7932
▁rename	-11.7933
▁%{	-11.7936
Mac	-11.7936
▁colours	-11.7937
▁relate	-11.7938
▁antenna	-11.7938
▁Tournament	-11.7939
▁textbox	-11.794
structure	-11.794
writing	-11.7941
▁charm	-11.7944
▁Flight	-11.7946
▁athletes	-11.7948
▁wheels	-11.7948
▁couples	-11.7949
▁Volume	-11.7949
rail	-11.7951
MENT	-11.7952
look	-11.7953
▁Taiwan	-11.7953
▁propose	-11.7956
▁Neo	-11.7957
iso	-11.7958
▁Copyright	-11.7959
▁TODO	-11.7959
Lock	-11.7961
▁mild	-11.7962
Fields	-11.7964
▁garbage	-11.7964
unsigned	-11.7966
VALUE	-11.7968
▁Hungarian	-11.7968
▁Industrial	-11.7969
▁Democrats	-11.7969
inger	-11.797
sure	-11.7971
▁Campbell	-11.7972
▁provincial	-11.7977
gene	-11.7978
GR	-11.7979
▁sep	-11.798
eval	-11.798
▁tweak	-11.798
▁gathered	-11.7981
▁PE	-11.7981
hall	-11.7981
sound	-11.7982
▁Environmental	-11.7982
▁ranging	-11.7982
rash	-11.7983
▁lambda	-11.7983
CHAR	-11.7983
▁Austrian	-11.7984
▁Nelson	-11.7987
▁Grey	-11.7987
▁harvest	-11.7992
tie	-11.7993
extra	-11.7994
stroke	-11.7994
bug	-11.7997
▁Graham	-11.8001
ily	-11.8002
▁acknowledge	-11.8004
footer	-11.8005
▁Cos	-11.8005
▁ge	-11.8006
uce	-11.8007
▁delicious	-11.8007
▁carries	-11.8008
▁photographs	-11.801
▁corruption	-11.801
fan	-11.801
▁pose	-11.8013
▁breakfast	-11.8013
CN	-11.8013
windows	-11.8013
▁opponents	-11.8014
▁bucket	-11.8014
▁gifts	-11.8015
mato	-11.8015
▁Montreal	-11.8015
COM	-11.8016
▁clarification	-11.8018
▁Biden	-11.8019
▁yard	-11.8019
WR	-11.8019
▁fur	-11.8019
▁Campaign	-11.802
▁activated	-11.8022
▁Kor	-11.8022
Kit	-11.8023
▁Marc	-11.8024
▁toggle	-11.8024
▁expense	-11.8024
trace	-11.8026
▁aesthetic	-11.8026
RF	-11.8027
▁firewall	-11.8027
▁leather	-11.8029
lyn	-11.8029
sync	-11.803
▁sees	-11.803
▁Planning	-11.803
lore	-11.8034
trust	-11.8038
▁Window	-11.8039
student	-11.8039
rai	-11.8039
▁Clinton	-11.8041
nut	-11.8041
▁Liverpool	-11.8043
▁rot	-11.8043
Rule	-11.8043
▁Orleans	-11.8044
▁Flu	-11.8044
▁producers	-11.805
▁Andy	-11.805
▁specialist	-11.8052
ads	-11.8052
TextField	-11.8053
▁irrelevant	-11.8054
▁fer	-11.8054
pot	-11.8056
▁Mountains	-11.8061
▁arise	-11.8062
▁Extra	-11.8064
▁triggers	-11.8064
cons	-11.8065
Params	-11.8068
▁acre	-11.8069
▁acted	-11.807
▁presumably	-11.8072
▁"%	-11.8074
▁identification	-11.8075
phil	-11.8075
iko	-11.8075
▁internally	-11.8078
▁earning	-11.8079
▁performs	-11.808
Ctrl	-11.8081
▁establishing	-11.8081
ть	-11.8082
▁nest	-11.8083
▁GPU	-11.8084
Scale	-11.8085
▁brew	-11.8086
odo	-11.8086
ulating	-11.8087
▁pulse	-11.8089
ANT	-11.8089
winning	-11.8089
▁ritual	-11.809
▁Poly	-11.809
▁forests	-11.809
pf	-11.809
▁individually	-11.8091
▁continuously	-11.8092
▁compatibility	-11.8093
▁modes	-11.8094
▁surfaces	-11.8096
▁lying	-11.8097
▁inventory	-11.8097
▁supporters	-11.8097
▁programmer	-11.8098
///	-11.8099
▁timeline	-11.81
choice	-11.81
sight	-11.81
▁disadvantage	-11.8102
▁Connect	-11.8103
xy	-11.8104
▁Alt	-11.8105
exception	-11.8107
▁Legislative	-11.8108
▁rival	-11.8109
▁Overall	-11.8109
▁viewers	-11.8109
stic	-11.811
▁Dick	-11.8112
▁labour	-11.8113
▁cleared	-11.8113
▁psychological	-11.8113
Plugin	-11.8115
▁PRO	-11.8115
Master	-11.8116
<%	-11.8116
Audio	-11.8116
▁Branch	-11.8117
Sp	-11.8117
▁Vancouver	-11.8122
TL	-11.8122
▁Chat	-11.8124
prefix	-11.8125
▁Past	-11.8128
Serial	-11.8128
mile	-11.8129
▁Boys	-11.813
▁Kind	-11.8131
▁charity	-11.8131
proof	-11.8132
▁Safari	-11.8132
▁Fellow	-11.8135
Clear	-11.8136
anta	-11.8137
$('.	-11.8138
▁Roy	-11.8138
▁cooperation	-11.814
▁Sad	-11.814
▁Phoenix	-11.8145
▁emerged	-11.8146
XXX	-11.8146
asi	-11.8147
▁Syria	-11.8147
tikz	-11.8147
▁Rugby	-11.8149
▁FI	-11.8149
▁Sounds	-11.8151
TER	-11.8151
▁bell	-11.8151
="<?	-11.8153
▁Privacy	-11.8154
▁recovered	-11.8155
Mock	-11.8156
Storage	-11.8159
▁mixing	-11.8159
}(\	-11.816
▁crimes	-11.8161
▁GPS	-11.8161
dem	-11.8162
exists	-11.8162
▁Replace	-11.8162
▁Arabic	-11.8163
categories	-11.8163
Jo	-11.8163
▁LP	-11.8163
science	-11.8164
▁saves	-11.8165
▁Franklin	-11.8167
▁Switch	-11.8167
written	-11.8168
▁convince	-11.8168
▁pub	-11.8169
onia	-11.8169
ée	-11.8169
hur	-11.817
▁weights	-11.817
plain	-11.8172
seq	-11.8173
▁Portland	-11.8174
▁charging	-11.8174
▁funded	-11.8174
▁за	-11.8174
▁Hans	-11.8175
MF	-11.8175
equation	-11.818
▁shed	-11.8183
▁initialization	-11.8184
▁ranks	-11.8189
bach	-11.819
▁Cra	-11.819
▁starred	-11.819
▁deemed	-11.819
▁missions	-11.8192
thy	-11.8192
▁Agent	-11.8194
radi	-11.8198
▁interrupt	-11.8198
▁Panel	-11.8199
▁Finland	-11.82
▁exercises	-11.82
▁GC	-11.82
BT	-11.8201
▁tenure	-11.8203
bay	-11.8204
EditText	-11.8204
caption	-11.8205
▁Spec	-11.8206
▁Glad	-11.8206
▁dirty	-11.8206
OB	-11.8207
▁Zi	-11.8207
▁circles	-11.8208
▁tutorials	-11.8208
camp	-11.8209
▁drops	-11.8209
▁dozen	-11.8209
Black	-11.8212
igh	-11.8212
akh	-11.8213
PORT	-11.8213
▁vent	-11.8214
▁banking	-11.8216
▁Bas	-11.8216
provider	-11.8219
▁Edinburgh	-11.8219
prev	-11.8219
ב	-11.8222
▁influential	-11.8222
▁Wright	-11.8223
quir	-11.8223
▁Break	-11.8223
▁Temp	-11.8223
▁Rat	-11.8223
BP	-11.8224
▁nomination	-11.8224
".$	-11.8225
Documents	-11.8226
▁silly	-11.8226
▁Pittsburgh	-11.8226
Upload	-11.8229
▁prisoners	-11.823
▁Friends	-11.823
▁AV	-11.8232
hd	-11.8233
▁descent	-11.8235
Comment	-11.8235
во	-11.8235
▁doesnt	-11.8236
▁Stewart	-11.8236
▁modifying	-11.8237
▁uncle	-11.8238
loading	-11.8238
tour	-11.8239
▁corresponds	-11.824
▁runner	-11.8241
▁variants	-11.8243
▁Template	-11.8243
▁Ker	-11.8245
▁matrices	-11.8245
▁Samsung	-11.8248
▁consultant	-11.8249
▁Login	-11.8251
▁commune	-11.8253
▁cargo	-11.8254
▁discussions	-11.8254
▁dynasty	-11.8255
boost	-11.8259
▁generations	-11.8261
eman	-11.8263
ORDER	-11.8264
▁prevents	-11.8266
scene	-11.8267
owl	-11.8269
▁athletic	-11.8269
mini	-11.827
▁RT	-11.8271
Li	-11.8271
▁quest	-11.8271
▁diamond	-11.8271
▁evolved	-11.8272
▁Morris	-11.8274
tern	-11.8275
▁southwest	-11.8275
▁Gift	-11.8277
▁organize	-11.8277
▁React	-11.8277
▁polygon	-11.8279
▁walked	-11.8279
▁jury	-11.828
shan	-11.8283
▁purchasing	-11.8284
pes	-11.8284
BU	-11.8289
datetime	-11.829
▁Loop	-11.8292
▁ugly	-11.8293
▁Storm	-11.8293
▁Cash	-11.8294
tv	-11.8295
▁defeating	-11.8296
rog	-11.8296
parseInt	-11.8296
▁divorce	-11.8296
catalog	-11.8298
▁immune	-11.8298
ester	-11.8299
keeper	-11.8301
▁capacitor	-11.8301
▁Soul	-11.8303
▁supervisor	-11.8305
igan	-11.8305
▁seller	-11.8306
▁packets	-11.8306
▁bags	-11.8308
▁recordings	-11.8309
▁transformed	-11.8309
▁ratings	-11.8312
▁flu	-11.8313
▁absorb	-11.8314
▁crossed	-11.8314
▁tro	-11.8315
▁traveled	-11.8315
▁permanently	-11.8316
<!	-11.8317
▁Communications	-11.8317
▁Princess	-11.8318
▁lap	-11.8318
uka	-11.8318
▁fu	-11.8323
▁Pr	-11.8323
▁mapped	-11.8323
World	-11.8324
vertical	-11.8324
▁Historical	-11.8325
▁bump	-11.8325
▁beliefs	-11.8327
▁populations	-11.8328
mine	-11.8328
▁withdraw	-11.833
▁Launch	-11.833
▁Fla	-11.8332
tabular	-11.8332
▁memorial	-11.8336
▁inflation	-11.8336
calc	-11.8336
▁vaccine	-11.8337
Register	-11.8339
▁Jonathan	-11.8339
▁fold	-11.8342
▁firms	-11.8343
▁crawl	-11.8344
▁Admin	-11.8344
▁Mari	-11.8344
▁Pala	-11.8347
▁dropping	-11.8347
rup	-11.8348
▁uint	-11.8355
"}	-11.8355
▁findViewById	-11.8355
▁tuple	-11.8356
heim	-11.8357
▁deadline	-11.836
mill	-11.8364
Success	-11.8364
ulated	-11.8366
spice	-11.8366
▁Formula	-11.8367
▁Grace	-11.8368
▁instantly	-11.8369
▁distinguished	-11.8371
sex	-11.8371
▁accounting	-11.8372
concat	-11.8372
▁tired	-11.8374
▁Orchestra	-11.8374
▁mature	-11.8374
▁simulate	-11.8375
hoe	-11.8375
Border	-11.8377
vc	-11.8377
cursor	-11.8378
▁controversy	-11.838
primary	-11.8382
friend	-11.8384
sig	-11.8385
odor	-11.8385
▁passwords	-11.8387
▁tooth	-11.8388
rect	-11.8388
lain	-11.8388
▁vacuum	-11.8393
▁tiles	-11.8393
drive	-11.8396
▁;-)	-11.8396
▁Quality	-11.8396
▁Guest	-11.8397
▁Gall	-11.8399
Patient	-11.8399
▁Unable	-11.84
▁hanging	-11.84
▁Charlie	-11.84
Dimension	-11.84
▁ga	-11.84
Graph	-11.8403
▁Metropolitan	-11.8405
▁odds	-11.8407
▁cylinder	-11.8408
▁badly	-11.8408
▁excessive	-11.8408
▁tier	-11.841
▁chi	-11.841
▁frequencies	-11.8411
▁при	-11.8411
▁charter	-11.8411
▁(@	-11.8412
▁consequence	-11.8412
rgb	-11.8413
lex	-11.8414
▁terminate	-11.8414
▁Racing	-11.8414
▁mandate	-11.8415
wy	-11.8416
▁Similar	-11.8418
▁Ajax	-11.8419
PH	-11.8419
▁Transportation	-11.8422
Calendar	-11.8422
assets	-11.8424
Random	-11.8425
▁Ven	-11.8425
▁accomplished	-11.8428
Equal	-11.8428
▁workplace	-11.8429
rill	-11.843
▁assess	-11.8432
▁chemistry	-11.8434
▁Statistics	-11.8435
classes	-11.8436
▁rack	-11.8437
Hash	-11.8438
▁mechanisms	-11.8439
▁offense	-11.8439
▁django	-11.844
cept	-11.8442
▁Theater	-11.8442
▁Bengal	-11.8442
Gamma	-11.8444
addClass	-11.8447
cid	-11.8448
▁minority	-11.8449
▁wa	-11.8451
▁starter	-11.8452
▁Cab	-11.8454
ê	-11.8454
googleapis	-11.8454
▁MI	-11.8455
▁southeast	-11.8457
Uri	-11.8459
▁profession	-11.8459
▁Safe	-11.8461
▁Everyone	-11.8461
mut	-11.8461
▁"+	-11.8461
kb	-11.8461
social	-11.8462
abad	-11.8463
▁doctrine	-11.8463
tc	-11.8465
▁mandatory	-11.8466
▁à	-11.8467
▁Bee	-11.8468
▁facebook	-11.8469
ст	-11.8469
▁iterator	-11.847
▁tin	-11.8471
▁Minor	-11.8472
▁Dur	-11.8474
▁Marshall	-11.8475
▁grateful	-11.8475
▁hiring	-11.8476
▁occurring	-11.8476
charge	-11.8478
▁Soon	-11.848
bid	-11.848
▁rocks	-11.8481
▁passive	-11.8482
▁Robinson	-11.8483
▁friendship	-11.8483
▁acceleration	-11.8484
▁cotton	-11.8484
▁ko	-11.8488
▁LIKE	-11.8488
▁clearer	-11.8488
▁banned	-11.8489
▁determining	-11.8489
▁steal	-11.8489
▁charset	-11.849
▁characterized	-11.849
▁discipline	-11.8493
▁Internal	-11.8497
Real	-11.8498
▁searches	-11.8499
▁aligned	-11.8499
▁Sara	-11.85
▁reuse	-11.8501
▁fitted	-11.8501
▁bonds	-11.8501
▁moderate	-11.8502
▁equity	-11.8503
▁Must	-11.8504
▁lease	-11.8504
Checked	-11.8504
lich	-11.8505
pipe	-11.8505
▁phenomenon	-11.8508
▁soundtrack	-11.851
Other	-11.8511
▁verified	-11.8511
▁Demographics	-11.8512
wel	-11.8513
▁Woman	-11.8514
SH	-11.8515
thi	-11.8515
▁manipulate	-11.8516
half	-11.8516
▁GROUP	-11.8517
navigation	-11.852
Draw	-11.852
Forms	-11.8521
▁graduating	-11.8521
▁Carter	-11.8521
udi	-11.8522
▁Operations	-11.8522
Sh	-11.8522
▁(*	-11.8524
▁bare	-11.8524
▁raster	-11.8528
▁COUNT	-11.8528
Lo	-11.8528
▁Json	-11.8528
▁sym	-11.8528
▁Spi	-11.8529
bil	-11.853
graphy	-11.853
uh	-11.8533
IVE	-11.8533
▁fence	-11.8535
▁Afghanistan	-11.8538
▁Gary	-11.8539
▁fatal	-11.854
▁merchant	-11.854
stead	-11.8542
▁indices	-11.8545
RL	-11.8547
▁stats	-11.8548
▁polar	-11.855
▁SF	-11.8552
▁bitmap	-11.8553
▁bench	-11.8553
▁Christianity	-11.8554
native	-11.8555
outs	-11.8556
▁Alaska	-11.8557
talk	-11.8558
▁escaped	-11.8558
rack	-11.8558
▁NP	-11.8558
▁chord	-11.8558
tory	-11.8559
})$	-11.8561
Support	-11.8562
latex	-11.8563
▁brilliant	-11.8563
pra	-11.8563
reader	-11.8567
▁hardly	-11.8568
▁containers	-11.8569
balance	-11.857
▁pins	-11.857
>&	-11.8571
▁Bin	-11.8571
Hz	-11.8571
FI	-11.8571
▁domains	-11.8571
▁thereby	-11.8572
hem	-11.8574
▁rifle	-11.8575
kha	-11.8576
▁undergraduate	-11.8578
▁URLs	-11.8578
▁perceived	-11.8579
langle	-11.858
▁joins	-11.858
▁Barr	-11.858
▁Diamond	-11.858
▁Vienna	-11.8586
feature	-11.8587
Lib	-11.8587
▁portable	-11.8588
▁pray	-11.8588
▁twist	-11.8589
▁lady	-11.8591
lessly	-11.8591
▁booking	-11.8593
beat	-11.8593
rod	-11.8596
▁Fleet	-11.8599
ELL	-11.8599
▁attachment	-11.86
▁explode	-11.86
▁Jen	-11.8601
hom	-11.8601
▁tbl	-11.8601
▁Hungary	-11.8605
▁deprecated	-11.8606
UD	-11.8606
▁snake	-11.8606
▁analog	-11.861
transition	-11.861
▁poorly	-11.8611
▁markup	-11.8611
▁ought	-11.8611
▁catalog	-11.8614
▁Perl	-11.8614
▁Rama	-11.8615
▁COM	-11.8615
website	-11.8615
feld	-11.8615
▁Pel	-11.8616
▁nano	-11.8617
sup	-11.8617
aut	-11.8617
▁fed	-11.8623
iation	-11.8623
Elements	-11.8624
▁Solutions	-11.8625
eni	-11.8626
▁delta	-11.8629
▁conjunction	-11.863
SB	-11.863
▁textbook	-11.8631
▁demon	-11.8633
▁realm	-11.8636
▁UV	-11.8638
▁License	-11.8639
hin	-11.8641
▁treasure	-11.8642
▁Saudi	-11.8643
▁Calendar	-11.8644
special	-11.8644
blank	-11.8644
▁TR	-11.8645
▁Orthodox	-11.8645
cred	-11.8645
DM	-11.8645
▁DATE	-11.8647
▁Available	-11.8649
cert	-11.8651
metric	-11.8651
▁avoiding	-11.8651
mur	-11.8653
▁Coach	-11.8655
wordpress	-11.8656
▁outbreak	-11.8656
nat	-11.866
▁ties	-11.866
▁Nepal	-11.866
▁Intelligence	-11.8662
ör	-11.8663
!=	-11.8665
▁suspension	-11.8665
▁Ul	-11.8666
▁cord	-11.8666
▁cons	-11.8667
▁legally	-11.8667
▁shoulder	-11.8667
▁spelling	-11.8669
▁departments	-11.8671
▁Allow	-11.8672
▁MAX	-11.8673
▁cu	-11.8673
▁enabling	-11.8675
же	-11.8676
schedule	-11.8676
tran	-11.8676
oper	-11.8677
setting	-11.8678
▁notifications	-11.8679
▁tense	-11.868
▁Norman	-11.8682
▁::	-11.8683
Util	-11.8683
svn	-11.8683
▁bills	-11.8685
▁eth	-11.8685
▁McG	-11.8685
▁Cru	-11.8686
ç	-11.8687
▁steep	-11.8688
▁ministry	-11.869
▁Serial	-11.8691
neg	-11.8692
▁Tel	-11.8693
▁Carr	-11.8693
kers	-11.8693
▁Brothers	-11.8695
▁builds	-11.8696
Google	-11.8698
▁cats	-11.8699
▁alliance	-11.87
Term	-11.8701
Hidden	-11.8701
▁Tha	-11.8702
▁Champion	-11.8703
Da	-11.8704
▁outlet	-11.8704
▁smartphone	-11.8705
▁march	-11.8708
pha	-11.8709
▁por	-11.8713
RewriteCond	-11.8713
▁Import	-11.8715
▁Border	-11.8718
▁Met	-11.8719
ista	-11.872
Sigma	-11.8721
▁Nova	-11.8721
▁Milan	-11.8725
valid	-11.8725
▁surviving	-11.8725
▁traditions	-11.8726
▁Holiday	-11.8728
▁avoided	-11.8729
▁dramatic	-11.8732
▁SSH	-11.8733
▁Mit	-11.8735
▁Eventually	-11.8736
bor	-11.8737
▁Mall	-11.8737
wheel	-11.8737
iam	-11.8737
▁numpy	-11.8739
▁Format	-11.8739
Mouse	-11.8739
▁Abu	-11.8741
▁Cooper	-11.8743
▁Blender	-11.8745
▁pepper	-11.8746
azar	-11.8746
him	-11.8746
▁intensity	-11.8747
▁Fed	-11.8748
▁emotions	-11.8751
▁Thu	-11.8752
}}{	-11.8753
!!!!	-11.8754
inal	-11.8755
▁Root	-11.8765
JA	-11.8765
▁lamp	-11.8772
basic	-11.8773
▁donated	-11.8775
Modal	-11.8776
corn	-11.8776
▁pills	-11.8777
▁approximation	-11.8778
fff	-11.8778
sports	-11.878
▁encrypt	-11.8783
▁patrol	-11.8789
sse	-11.8791
▁tourist	-11.8791
▁celebration	-11.8794
nish	-11.8795
▁casual	-11.8795
▁feeding	-11.8795
▁caching	-11.8796
▁cinema	-11.8797
▁pioneer	-11.8798
▁Wayne	-11.8798
Public	-11.88
still	-11.8801
▁dining	-11.8803
ł	-11.8803
▁clever	-11.8803
▁duo	-11.8804
oid	-11.8806
▁scar	-11.8807
▁Mod	-11.881
▁defendant	-11.881
Ka	-11.8813
]"	-11.8814
▁boats	-11.8814
▁loves	-11.8815
▁Welsh	-11.8815
umb	-11.8815
uous	-11.8817
▁compiling	-11.8817
▁threw	-11.8818
▁intervals	-11.882
▁dental	-11.882
▁sheets	-11.8821
plex	-11.8822
▁gen	-11.8824
▁allocate	-11.8824
NF	-11.8826
▁liability	-11.8827
▁highlights	-11.8827
▁Loan	-11.8828
▁Alfred	-11.8828
+=	-11.8828
▁Trying	-11.8829
▁robot	-11.8829
bble	-11.8831
▁Springs	-11.8831
Mi	-11.8832
▁manufactured	-11.8832
▁env	-11.8835
▁Brad	-11.8836
▁tanks	-11.8837
▁sleeping	-11.8838
▁eighth	-11.8838
▁naval	-11.8842
Standard	-11.8844
▁pause	-11.8844
▁Broadway	-11.8844
▁Maine	-11.8847
▁replica	-11.8849
▁Berg	-11.8849
▁eu	-11.885
vic	-11.8851
bet	-11.8851
▁physician	-11.8851
▁YES	-11.8851
▁proteins	-11.8852
pg	-11.8855
credit	-11.8856
▁Birmingham	-11.8858
apa	-11.8858
organ	-11.8859
zing	-11.886
▁backed	-11.8861
▁lit	-11.8861
WebView	-11.8861
▁threats	-11.8861
▁wizard	-11.8862
▁Nam	-11.8862
▁Vin	-11.8862
▁fossil	-11.8863
formed	-11.8865
▁burden	-11.8865
cn	-11.8865
She	-11.8865
▁trips	-11.8867
▁Wy	-11.8867
▁trailer	-11.8867
▁Lead	-11.8868
transaction	-11.8871
especially	-11.8872
Region	-11.8872
▁balanced	-11.8873
τ	-11.8873
UC	-11.8873
▁{{#	-11.8874
wei	-11.8874
oul	-11.8878
▁queen	-11.888
eral	-11.8881
bee	-11.8882
Controls	-11.8882
▁Railroad	-11.8882
▁punishment	-11.8882
▁Transfer	-11.8883
▁Investment	-11.8884
runner	-11.8885
iki	-11.8887
pon	-11.8888
ashi	-11.889
▁Est	-11.8891
▁Hawaii	-11.8893
▁accommodation	-11.8894
oku	-11.8896
Question	-11.8897
zar	-11.8897
utils	-11.8898
▁hop	-11.8899
▁engineers	-11.8901
MU	-11.8901
▁identifying	-11.8902
animate	-11.8902
ias	-11.8904
▁Sony	-11.8907
▁CON	-11.8908
▁Academic	-11.8909
▁reactions	-11.8909
▁contributing	-11.891
▁Evans	-11.891
ometer	-11.8912
▁Battalion	-11.8913
regex	-11.8914
Authentication	-11.8914
▁recipes	-11.8916
lusion	-11.8919
▁rubber	-11.8919
▁DLL	-11.8921
Drawing	-11.8924
▁broker	-11.8925
▁א	-11.8925
”)	-11.8925
▁bones	-11.8927
▁yields	-11.8927
▁Spo	-11.8929
▁provisions	-11.893
▁Mau	-11.8931
inf	-11.8931
▁indicator	-11.8931
They	-11.8932
▁Horn	-11.8932
▁rod	-11.8933
▁auth	-11.8934
▁Cole	-11.8935
▁elite	-11.8935
slider	-11.8936
-----	-11.8937
secure	-11.8939
▁pocket	-11.894
▁discussing	-11.894
▁Warren	-11.8942
▁insights	-11.8943
▁advised	-11.8943
▁gains	-11.8944
:#	-11.8947
▁Bernard	-11.8948
▁Victor	-11.8949
▁Camera	-11.8949
ür	-11.8951
▁correspond	-11.8952
▁Athletic	-11.8953
inline	-11.8953
wen	-11.8954
▁Quarter	-11.8954
logger	-11.8955
▁engaging	-11.8957
▁Diet	-11.8958
▁Ridge	-11.8958
RB	-11.8958
▁GO	-11.896
▁praise	-11.896
ListItem	-11.8961
Duration	-11.8962
▁scrolling	-11.8962
▁blame	-11.8963
▁dreams	-11.8964
iterator	-11.8964
▁ال	-11.8964
{#	-11.8964
▁Hen	-11.8965
onCreate	-11.897
due	-11.8971
▁norm	-11.8971
▁reportedly	-11.8972
▁Poll	-11.8972
AAAA	-11.8973
▁stub	-11.8974
Rating	-11.8975
▁converter	-11.8975
Names	-11.8976
▁Guardian	-11.8977
Iterator	-11.8978
Tex	-11.8979
maybe	-11.8979
")]	-11.898
prime	-11.8981
▁keywords	-11.8982
▁distribute	-11.8982
▁Stay	-11.8984
zel	-11.8986
▁sprite	-11.8988
▁tmp	-11.8989
*\	-11.8989
▁Murray	-11.8991
▁ram	-11.8992
▁Coll	-11.8992
[#	-11.8992
▁Origin	-11.8994
INE	-11.8995
▁PD	-11.8995
timestamp	-11.8995
Ja	-11.8997
mul	-11.8999
Span	-11.9
▁hadn	-11.9001
▁submarine	-11.9001
▁myth	-11.9002
▁Eli	-11.9004
▁beginner	-11.9005
▁workshop	-11.9006
RD	-11.9007
▁filesystem	-11.9008
▁Mul	-11.9009
OO	-11.9009
dig	-11.901
▁Cancer	-11.901
bits	-11.9011
iro	-11.9011
▁comm	-11.9012
▁XP	-11.9016
▁overload	-11.9017
Arr	-11.9018
▁$("	-11.9018
▁importantly	-11.9018
▁speeds	-11.902
▁pc	-11.902
▁wont	-11.902
▁exterior	-11.902
▁initiated	-11.9022
▁corners	-11.9023
▁mystery	-11.9023
▁Jimmy	-11.9027
▁tear	-11.9028
▁electoral	-11.9029
▁UP	-11.903
NOT	-11.903
▁dying	-11.9032
hay	-11.9033
▁dock	-11.9033
▁UTC	-11.9034
▁hex	-11.9034
priv	-11.9034
▁oral	-11.9036
walk	-11.9036
▁Cultural	-11.9036
bla	-11.9037
▁Worth	-11.9037
▁Benjamin	-11.9037
▁composite	-11.9038
▁Resource	-11.9038
▁Stanley	-11.904
▁Throughout	-11.9044
мо	-11.9044
disk	-11.9044
ncy	-11.9045
/#	-11.9046
▁clarity	-11.9046
▁Initially	-11.9047
▁///	-11.9048
)){	-11.9048
▁lasted	-11.9049
▁lesson	-11.9049
▁unsure	-11.905
eye	-11.9052
nova	-11.9058
▁modifications	-11.9061
LEFT	-11.9061
▁Sher	-11.9064
▁Uni	-11.9064
▁Often	-11.9065
▁Kirk	-11.9065
▁grip	-11.9065
▁additionally	-11.9065
▁kg	-11.9065
▁Fish	-11.9066
▁protecting	-11.9066
▁iframe	-11.9067
memory	-11.9067
morphism	-11.9069
▁progressive	-11.9072
▁Offer	-11.9072
▁Penn	-11.9072
▁pricing	-11.9072
▁balls	-11.9073
tomcat	-11.9076
▁Falls	-11.9077
▁dash	-11.9077
mapping	-11.9078
▁defending	-11.9081
errors	-11.9084
▁Kate	-11.9086
▁scrap	-11.9087
tine	-11.9087
▁Prof	-11.9088
▁rings	-11.9088
groups	-11.9091
▁atomic	-11.9091
MAN	-11.9091
lur	-11.9092
NK	-11.9094
gem	-11.9094
▁Present	-11.9094
▁Hai	-11.9095
▁Else	-11.9095
▁Century	-11.9097
▁conn	-11.9098
▁FF	-11.9099
Internal	-11.9103
GROUP	-11.9105
ively	-11.9106
▁Arkansas	-11.9108
▁Alpha	-11.9108
▁suited	-11.911
progress	-11.9112
▁Menu	-11.9112
ffer	-11.9113
▁sketch	-11.9115
▁mainstream	-11.9115
▁cop	-11.9115
ering	-11.9116
oda	-11.9118
digit	-11.9121
▁locality	-11.9121
▁problematic	-11.9122
EF	-11.9123
▁intelligent	-11.9123
fact	-11.9124
▁Lie	-11.9127
deal	-11.9129
▁honey	-11.9131
▁knock	-11.9131
▁tribe	-11.9132
IX	-11.9133
▁fictional	-11.9133
hp	-11.9133
▁Neu	-11.9137
▁AB	-11.9137
Global	-11.9144
▁Mom	-11.9144
rf	-11.9144
▁Taking	-11.9146
tip	-11.9147
▁Bet	-11.9148
▁Yellow	-11.9149
▁constitution	-11.9151
▁barrier	-11.9152
ein	-11.9154
▁Craig	-11.9158
▁mol	-11.9158
▁Beyond	-11.9158
▁newspapers	-11.9161
FB	-11.9161
▁waters	-11.9163
▁ghost	-11.9163
▁incomplete	-11.9164
▁Election	-11.9165
oka	-11.9167
▁complain	-11.9168
▁eleven	-11.9171
TABLE	-11.9173
▁toilet	-11.9174
verb	-11.9175
fly	-11.9176
▁KB	-11.9178
▁Less	-11.9179
▁Mediterranean	-11.9179
▁Muhammad	-11.9179
Company	-11.9179
tw	-11.918
▁Normal	-11.918
RR	-11.9181
▁fires	-11.9183
Team	-11.9183
ologies	-11.9184
▁Bab	-11.9185
Join	-11.9185
▁xsi	-11.9186
ERR	-11.9187
│	-11.9188
▁Qt	-11.9189
▁bandwidth	-11.919
aku	-11.919
▁juice	-11.9191
utation	-11.9194
running	-11.9195
agg	-11.9195
HO	-11.9195
▁Fill	-11.9195
▁formatted	-11.9199
▁backing	-11.9201
▁icons	-11.9203
▁packaging	-11.9207
▁Provide	-11.9207
chrom	-11.9208
▁Ski	-11.921
etti	-11.921
▁protests	-11.921
▁defender	-11.9211
▁cloth	-11.9211
▁investments	-11.9212
▁WPF	-11.9212
phe	-11.9212
▁Caribbean	-11.9213
▁Galaxy	-11.9213
▁AWS	-11.9214
Student	-11.9216
amba	-11.9219
▁chronic	-11.922
▁Drug	-11.9221
Op	-11.9222
▁lung	-11.9223
▁Mix	-11.9227
▁Hunt	-11.9229
▁WA	-11.9229
hop	-11.923
▁barely	-11.9231
▁Architecture	-11.9232
ль	-11.9236
▁calculating	-11.9236
[...]
