<unk>	0
<s>	0
</s>	0
.	-3.18758
,	-3.34399
▁the	-3.35849
▁and	-3.80636
s	-3.83161
▁to	-3.85999
▁of	-3.96542
▁a	-4.07183
▁in	-4.35512
▁is	-4.68147
▁for	-4.79281
▁that	-4.9818
▁you	-4.99347
-	-5.03036
▁with	-5.09372
▁I	-5.11023
’	-5.17484
▁on	-5.19648
▁it	-5.33468
▁are	-5.36645
▁The	-5.39878
▁be	-5.42531
▁your	-5.52654
▁as	-5.57282
'	-5.60893
▁or	-5.62352
▁have	-5.69429
t	-5.70492
▁at	-5.73062
▁from	-5.73956
▁this	-5.74531
▁was	-5.79316
▁can	-5.7942
▁by	-5.81151
▁will	-5.83168
▁(	-5.87627
▁an	-5.91844
ing	-5.97386
▁not	-6.02229
▁we	-6.05262
▁has	-6.16381
:	-6.16726
ed	-6.18363
▁all	-6.19509
!	-6.19755
▁our	-6.27611
d	-6.28567
)	-6.28973
▁their	-6.31561
?	-6.31847
▁more	-6.3247
▁but	-6.3319
▁one	-6.3666
▁they	-6.39321
▁about	-6.47488
▁A	-6.48143
▁my	-6.48782
▁which	-6.48928
▁It	-6.53117
▁out	-6.54509
▁time	-6.55461
▁so	-6.55747
▁up	-6.55837
▁This	-6.56051
▁also	-6.56778
▁We	-6.60264
▁	-6.60378
▁In	-6.6991
▁do	-6.73088
▁“	-6.73764
▁his	-6.74312
re	-6.74505
m	-6.74855
▁who	-6.75862
▁"	-6.77313
▁other	-6.77631
▁been	-6.77811
▁he	-6.78004
▁like	-6.78088
▁when	-6.78244
▁if	-6.79347
er	-6.83268
▁new	-6.83816
▁what	-6.84185
/	-6.85242
▁some	-6.87186
▁get	-6.87596
▁any	-6.89035
▁there	-6.90093
▁were	-6.90476
ly	-6.91102
y	-6.91129
▁them	-6.92301
▁would	-6.92307
▁into	-6.9398
▁just	-6.94024
e	-6.94802
▁had	-6.95614
;	-6.95781
▁make	-6.99103
▁than	-7.00233
▁You	-7.01515
▁over	-7.01625
▁how	-7.03794
▁people	-7.04299
▁If	-7.04963
▁me	-7.05214
▁work	-7.06593
▁use	-7.07711
▁-	-7.0785
▁may	-7.08149
▁its	-7.09213
▁most	-7.09312
▁first	-7.09787
▁only	-7.10171
▁well	-7.11112
a	-7.11616
▁no	-7.12209
▁her	-7.12707
▁us	-7.12919
▁–	-7.13106
▁need	-7.16133
▁these	-7.16279
S	-7.19514
▁very	-7.19808
"	-7.22587
▁many	-7.23643
▁through	-7.24862
”	-7.25081
).	-7.25927
▁two	-7.26498
▁way	-7.2758
▁help	-7.29219
▁years	-7.3208
ve	-7.32266
▁best	-7.32553
▁year	-7.34981
▁good	-7.35621
r	-7.35714
▁know	-7.37004
▁see	-7.37152
ll	-7.38533
▁then	-7.39692
▁where	-7.40171
▁such	-7.41103
n	-7.4132
▁now	-7.41382
▁home	-7.41671
▁back	-7.41828
▁after	-7.42082
▁should	-7.42308
▁day	-7.42678
▁could	-7.44009
in	-7.44052
▁much	-7.44121
▁He	-7.44904
▁want	-7.45669
▁even	-7.45851
▁take	-7.46068
th	-7.47107
▁information	-7.48572
▁For	-7.49145
▁great	-7.49148
▁said	-7.49567
o	-7.49759
▁find	-7.50934
▁because	-7.51076
▁used	-7.51745
▁&	-7.51918
al	-7.54009
▁2	-7.54086
es	-7.54574
▁made	-7.5465
▁she	-7.54735
▁right	-7.56374
▁3	-7.56699
▁S	-7.56895
▁here	-7.57238
▁business	-7.5794
▁being	-7.59587
i	-7.59954
▁those	-7.60049
▁go	-7.60513
▁before	-7.60729
▁life	-7.61432
▁And	-7.61714
▁each	-7.62203
or	-7.62216
▁don	-7.62489
▁1	-7.64028
▁world	-7.65676
▁There	-7.65734
▁own	-7.66923
▁high	-7.68565
▁around	-7.68609
▁while	-7.68996
▁As	-7.70094
),	-7.70829
▁But	-7.71741
▁part	-7.73842
▁different	-7.74051
▁really	-7.75112
▁look	-7.76143
▁off	-7.76649
▁service	-7.76813
▁last	-7.77032
▁long	-7.77041
▁They	-7.77313
▁To	-7.77374
▁down	-7.77605
▁So	-7.77649
▁using	-7.77799
▁both	-7.78078
▁C	-7.78475
▁think	-7.78554
▁place	-7.78578
▁free	-7.78859
▁every	-7.79147
▁available	-7.79535
A	-7.80063
▁same	-7.80489
▁love	-7.81282
▁between	-7.81456
▁still	-7.82428
g	-7.82956
▁system	-7.83026
C	-7.83109
▁experience	-7.83427
▁company	-7.83436
▁going	-7.85712
ers	-7.86271
▁5	-7.8681
▁data	-7.86876
▁set	-7.87519
▁E	-7.8776
▁too	-7.88553
▁What	-7.88947
I	-7.88969
▁.	-7.89231
▁provide	-7.89371
▁number	-7.89751
▁re	-7.90106
▁When	-7.90595
▁B	-7.90902
▁4	-7.90913
▁few	-7.90971
▁under	-7.91365
▁New	-7.9198
D	-7.92256
▁including	-7.9298
▁services	-7.93284
▁team	-7.93524
▁D	-7.93598
▁water	-7.93616
▁always	-7.94407
▁am	-7.94817
▁family	-7.94861
▁M	-7.94872
▁come	-7.95296
▁10	-7.95508
▁during	-7.96119
▁him	-7.96141
▁three	-7.97
▁support	-7.97422
▁Our	-7.97472
▁things	-7.97507
▁little	-7.97643
▁P	-7.97748
▁without	-7.98345
com	-7.99278
▁better	-7.99579
▁end	-7.99975
B	-8.00856
▁must	-8.01014
▁sure	-8.01556
▁online	-8.01734
▁area	-8.01757
▁design	-8.02409
▁able	-8.02976
▁does	-8.03053
▁top	-8.03512
▁did	-8.04053
on	-8.0415
▁important	-8.04224
▁T	-8.0431
k	-8.04444
▁next	-8.05092
▁full	-8.05886
▁All	-8.05951
▁give	-8.06369
▁quality	-8.06499
▁lot	-8.06731
▁U	-8.06935
2	-8.07095
▁small	-8.07143
c	-8.07224
▁process	-8.07587
▁something	-8.07733
▁With	-8.0788
▁found	-8.08354
▁another	-8.08487
▁within	-8.08876
to	-8.09173
▁might	-8.10299
▁since	-8.10664
able	-8.11714
▁site	-8.11761
▁order	-8.12141
▁keep	-8.13153
▁R	-8.14959
▁She	-8.15029
▁today	-8.15251
▁offer	-8.15268
▁de	-8.15355
▁working	-8.16575
▁local	-8.16738
▁start	-8.16821
▁products	-8.174
▁‘	-8.17541
▁That	-8.17863
▁book	-8.1791
▁looking	-8.1851
▁K	-8.1882
l	-8.18887
▁days	-8.19141
▁game	-8.19321
▁feel	-8.19588
▁F	-8.19816
b	-8.19932
▁school	-8.20178
▁week	-8.20397
▁never	-8.20663
▁website	-8.20756
▁students	-8.21105
▁No	-8.21393
▁making	-8.21586
T	-8.2198
▁per	-8.2202
x	-8.22637
▁children	-8.22775
▁These	-8.2282
▁care	-8.229
▁L	-8.2306
en	-8.23286
...	-8.23466
▁change	-8.23476
▁G	-8.23523
▁market	-8.2354
▁say	-8.24806
▁show	-8.24989
man	-8.25636
▁easy	-8.25854
▁project	-8.2595
P	-8.26233
▁i	-8.26638
▁6	-8.26856
▁My	-8.26945
▁needs	-8.27404
▁car	-8.27518
▁case	-8.27576
▁put	-8.27626
▁un	-8.2769
▁got	-8.28294
h	-8.28317
F	-8.28527
▁course	-8.28574
▁At	-8.2919
▁money	-8.29252
▁health	-8.29551
▁large	-8.30081
▁food	-8.30657
▁state	-8.30872
▁open	-8.31056
p	-8.31242
▁room	-8.31416
▁second	-8.31817
K	-8.31935
▁post	-8.31967
▁away	-8.32185
▁again	-8.3232
▁H	-8.32328
▁create	-8.32393
▁On	-8.324
▁together	-8.32467
▁real	-8.33073
▁name	-8.33254
▁often	-8.33452
▁program	-8.33595
M	-8.33659
▁One	-8.3379
▁possible	-8.33862
▁based	-8.33904
▁N	-8.34459
W	-8.34463
1	-8.34929
▁How	-8.34933
▁8	-8.34951
▁include	-8.35629
G	-8.35711
▁person	-8.35841
▁group	-8.35857
▁until	-8.36075
▁why	-8.36256
▁point	-8.36403
▁power	-8.36461
▁community	-8.37075
▁call	-8.37185
▁'	-8.37548
▁product	-8.37575
▁page	-8.37578
▁7	-8.3758
▁J	-8.37784
▁having	-8.38127
an	-8.38173
▁research	-8.3841
▁18	-8.38565
▁price	-8.39115
▁level	-8.39291
▁side	-8.39464
3	-8.39493
▁against	-8.40285
▁old	-8.40565
▁become	-8.40632
▁play	-8.41225
ic	-8.41699
▁O	-8.41958
▁development	-8.42166
▁thing	-8.42187
▁public	-8.42338
▁less	-8.42429
▁list	-8.42489
and	-8.4252
▁read	-8.43116
▁20	-8.43136
."	-8.43209
▁e	-8.4325
▁along	-8.43352
▁house	-8.4367
▁big	-8.43689
▁means	-8.4399
▁access	-8.44339
▁Do	-8.44348
▁event	-8.44427
▁space	-8.4452
▁done	-8.44737
f	-8.44978
▁p	-8.45053
▁hard	-8.45337
▁light	-8.45432
▁However	-8.46366
the	-8.46628
▁After	-8.46677
▁—	-8.46752
▁12	-8.46793
▁several	-8.47151
▁range	-8.47168
▁God	-8.47328
E	-8.47492
u	-8.47595
▁form	-8.47799
▁cost	-8.47845
▁job	-8.48
▁University	-8.48077
▁enough	-8.48414
▁comes	-8.48724
▁body	-8.48737
▁live	-8.49001
▁across	-8.49024
▁An	-8.49087
us	-8.49367
▁Re	-8.50096
▁line	-8.50138
up	-8.50224
▁ever	-8.50378
▁below	-8.50601
▁hand	-8.50602
▁already	-8.509
▁social	-8.50913
▁contact	-8.50944
▁personal	-8.51072
V	-8.51566
▁V	-8.51664
▁left	-8.51672
▁makes	-8.51687
ity	-8.51736
▁industry	-8.51873
▁control	-8.52135
▁plan	-8.52244
▁getting	-8.52419
▁run	-8.526
▁perfect	-8.52995
▁times	-8.53418
▁try	-8.53428
▁city	-8.53648
▁future	-8.53704
▁special	-8.53982
▁example	-8.54257
4	-8.54269
▁country	-8.54684
▁non	-8.5478
L	-8.54988
H	-8.55027
▁offers	-8.55243
ation	-8.55275
▁past	-8.55555
▁value	-8.55665
▁let	-8.55776
,”	-8.5594
▁Your	-8.56016
—	-8.56138
▁learn	-8.56487
▁far	-8.57189
▁video	-8.57329
▁four	-8.57487
R	-8.57629
▁companies	-8.57729
N	-8.58028
▁share	-8.58034
▁check	-8.58323
▁bit	-8.58763
▁fun	-8.58914
▁doing	-8.58977
ar	-8.59017
▁add	-8.59107
▁low	-8.59636
▁called	-8.59896
▁W	-8.59983
▁started	-8.60103
▁least	-8.60108
▁others	-8.60118
▁music	-8.60322
▁technology	-8.60559
▁night	-8.60603
▁hours	-8.60653
▁features	-8.60662
▁once	-8.60976
▁current	-8.61502
▁15	-8.61599
▁members	-8.61643
▁actually	-8.61647
▁customers	-8.61796
▁problem	-8.62057
▁content	-8.62093
▁building	-8.6246
▁short	-8.62728
▁though	-8.63266
▁type	-8.63573
ness	-8.63806
w	-8.63864
▁fact	-8.63919
▁didn	-8.64394
▁please	-8.64491
co	-8.64693
▁visit	-8.64707
▁complete	-8.64862
ist	-8.64926
▁won	-8.64977
▁pay	-8.65601
▁professional	-8.65729
v	-8.65834
▁results	-8.65895
▁single	-8.65964
▁man	-8.65965
▁property	-8.65998
▁minutes	-8.66115
▁doesn	-8.66139
▁known	-8.66362
▁million	-8.66581
▁above	-8.66592
z	-8.67198
▁season	-8.67379
The	-8.67386
▁provides	-8.67583
▁training	-8.67606
▁everything	-8.6805
▁story	-8.68167
▁due	-8.68254
▁questions	-8.68403
▁early	-8.68408
ton	-8.68518
▁9	-8.6862
▁management	-8.68686
▁30	-8.68799
▁beautiful	-8.68828
▁yet	-8.68859
▁s	-8.68879
▁given	-8.68892
▁simple	-8.68893
it	-8.68966
▁months	-8.69081
▁understand	-8.69313
▁buy	-8.69677
▁came	-8.69847
▁various	-8.70076
▁head	-8.70284
▁pre	-8.71096
▁American	-8.71141
▁mind	-8.71196
▁air	-8.71325
▁following	-8.71737
▁St	-8.71857
▁size	-8.72079
▁friends	-8.72146
▁kind	-8.72259
▁study	-8.72263
▁performance	-8.72361
▁government	-8.72769
▁issues	-8.73049
▁key	-8.73307
▁media	-8.73335
▁Please	-8.73391
▁energy	-8.73552
▁addition	-8.73718
▁unique	-8.73766
▁living	-8.73974
▁month	-8.74144
▁enjoy	-8.74272
▁idea	-8.74289
▁took	-8.7455
▁required	-8.7475
▁whole	-8.74978
▁While	-8.75086
▁thought	-8.75422
te	-8.75424
▁designed	-8.75485
▁whether	-8.7554
▁areas	-8.75562
st	-8.75568
▁choose	-8.75742
▁ensure	-8.75823
(	-8.75912
▁office	-8.75939
▁email	-8.76142
▁main	-8.76196
▁taking	-8.76402
▁style	-8.77218
▁someone	-8.77652
le	-8.77663
ion	-8.7779
▁staff	-8.77848
▁child	-8.78
▁further	-8.78236
▁front	-8.78237
▁amount	-8.78239
▁result	-8.78275
▁Now	-8.78276
ment	-8.7831
▁customer	-8.78316
is	-8.78551
▁women	-8.78876
▁bring	-8.7903
▁history	-8.79088
ia	-8.79103
▁says	-8.79412
▁believe	-8.79416
▁United	-8.79542
▁major	-8.79643
▁later	-8.79801
X	-8.79941
▁view	-8.80274
O	-8.80388
▁seen	-8.804
▁either	-8.80525
▁five	-8.80525
▁web	-8.80614
▁writing	-8.80749
▁heart	-8.80764
▁Co	-8.80818
▁City	-8.80976
▁close	-8.81063
▁art	-8.81069
▁went	-8.81126
▁provided	-8.81135
▁account	-8.81207
▁white	-8.81288
▁series	-8.81984
▁co	-8.82013
▁specific	-8.82125
▁Some	-8.82901
▁quite	-8.82992
▁simply	-8.83033
▁present	-8.83184
▁class	-8.83205
▁US	-8.83304
▁natural	-8.83324
▁By	-8.83339
▁Here	-8.83503
▁Dr	-8.8354
▁especially	-8.83546
▁includes	-8.836
▁options	-8.83717
▁law	-8.83812
▁May	-8.8387
▁test	-8.84012
▁meet	-8.84046
▁move	-8.84201
▁needed	-8.84212
Y	-8.84227
▁application	-8.84315
▁hope	-8.84491
▁software	-8.84952
na	-8.85013
▁phone	-8.85092
▁works	-8.85171
rs	-8.85315
am	-8.85397
▁everyone	-8.85838
de	-8.86174
▁yourself	-8.86246
▁field	-8.86278
as	-8.86322
▁search	-8.86421
▁human	-8.86423
5	-8.8694
▁clients	-8.8703
▁face	-8.871
▁download	-8.87626
▁11	-8.87995
▁etc	-8.88666
▁financial	-8.88681
▁age	-8.88737
▁National	-8.88747
▁report	-8.88775
▁build	-8.88875
▁[	-8.89007
ne	-8.89098
▁almost	-8.89272
▁/	-8.89327
▁receive	-8.89403
▁added	-8.89408
▁anything	-8.89476
▁located	-8.89881
▁created	-8.9023
▁individual	-8.9026
▁problems	-8.90473
▁events	-8.90573
el	-8.906
▁allow	-8.90634
▁paper	-8.90794
▁ideas	-8.90876
▁card	-8.90987
ra	-8.91052
▁throughout	-8.91117
▁issue	-8.91148
▁South	-8.91201
▁half	-8.91207
▁systems	-8.91239
▁among	-8.91553
▁ago	-8.91726
▁interest	-8.91792
▁turn	-8.91825
6	-8.91849
▁third	-8.91978
▁however	-8.92055
▁details	-8.92058
▁color	-8.92076
▁model	-8.92132
▁common	-8.92188
▁young	-8.92252
▁From	-8.924
▁security	-8.9245
▁learning	-8.92468
age	-8.92508
▁taken	-8.92617
▁forward	-8.92676
▁ready	-8.92755
▁oil	-8.92831
▁likely	-8.92917
▁user	-8.92934
▁insurance	-8.92967
▁increase	-8.92978
▁address	-8.93052
▁opportunity	-8.93163
▁self	-8.93378
▁games	-8.93427
▁focus	-8.93444
ty	-8.93534
▁lead	-8.93596
▁blog	-8.93598
▁State	-8.93703
▁X	-8.938
▁stay	-8.93881
▁wide	-8.93906
ry	-8.9392
▁black	-8.93978
il	-8.94303
▁School	-8.94324
▁member	-8.94618
at	-8.94927
▁clear	-8.94948
▁question	-8.95018
▁education	-8.9505
▁Not	-8.95079
▁final	-8.95205
J	-8.95285
▁matter	-8.95436
▁treatment	-8.95496
▁file	-8.95515
▁tell	-8.95976
▁2018	-8.96023
▁rate	-8.96045
▁His	-8.96053
▁date	-8.96077
▁table	-8.96096
,"	-8.96297
▁currently	-8.96428
▁skills	-8.96523
▁popular	-8.96533
▁risk	-8.96565
▁outside	-8.96607
▁Be	-8.96631
▁strong	-8.96666
▁image	-8.96693
▁period	-8.967
▁role	-8.96738
ie	-8.97031
▁near	-8.97046
▁coming	-8.97061
▁certain	-8.97079
▁reason	-8.97373
ian	-8.97541
▁De	-8.97634
▁step	-8.97832
▁store	-8.97876
▁party	-8.97913
▁review	-8.97958
▁knowledge	-8.97975
▁activities	-8.98074
▁rather	-8.98082
]	-8.98087
▁usually	-8.98165
▁changes	-8.98186
▁probably	-8.98211
▁skin	-8.9829
▁film	-8.98298
▁continue	-8.98391
▁original	-8.98498
la	-8.9856
▁ways	-8.98737
▁York	-8.98752
▁version	-8.98778
▁users	-8.98795
▁deal	-8.98808
▁16	-8.98874
▁follow	-8.98928
▁soon	-8.98946
▁private	-8.99066
time	-8.99114
▁practice	-8.99167
▁sales	-8.99275
&	-8.99279
7	-8.99365
▁Can	-8.99375
▁brand	-8.99668
▁choice	-8.99802
▁happy	-8.99859
▁North	-8.99864
▁additional	-8.99901
ur	-9.00081
▁higher	-9.00106
▁percent	-9.00357
▁potential	-9.00463
▁built	-9.00597
▁material	-9.00735
▁action	-9.00755
less	-9.00784
▁trying	-9.00841
▁total	-9.00968
▁save	-9.01027
▁production	-9.01091
▁inside	-9.01175
▁environment	-9.01241
▁variety	-9.01314
▁kids	-9.01321
▁true	-9.01444
ate	-9.01559
ling	-9.01578
▁modern	-9.01637
▁held	-9.01757
▁easily	-9.01791
▁Home	-9.01862
▁World	-9.01989
▁extra	-9.02049
▁cover	-9.02087
▁received	-9.02166
me	-9.02174
▁particular	-9.02199
▁via	-9.02214
▁position	-9.02328
9	-9.02351
▁travel	-9.0237
▁network	-9.02438
▁running	-9.02451
▁computer	-9.02455
ta	-9.02483
▁general	-9.02623
▁growth	-9.02668
▁items	-9.02678
▁code	-9.02945
▁latest	-9.03072
▁wanted	-9.03217
▁pretty	-9.03463
▁longer	-9.03696
▁ask	-9.03795
8	-9.03854
▁recent	-9.03864
▁Center	-9.04106
▁standard	-9.04118
▁location	-9.04468
▁cannot	-9.04526
▁reading	-9.04669
ism	-9.04782
▁17	-9.04814
▁leave	-9.04958
▁projects	-9.05013
ary	-9.05094
▁similar	-9.05116
▁men	-9.05371
▁behind	-9.05406
▁drive	-9.0543
▁marketing	-9.05479
▁article	-9.05519
▁x	-9.05591
▁click	-9.05817
_	-9.05861
▁rest	-9.0614
▁stop	-9.0618
▁credit	-9.06269
▁tax	-9.06315
▁providing	-9.06346
▁John	-9.0645
▁option	-9.06481
▁Just	-9.06507
▁couple	-9.0676
▁materials	-9.06889
▁related	-9.06968
ine	-9.07071
no	-9.07071
▁points	-9.07236
▁County	-9.07253
be	-9.07308
▁equipment	-9.07458
▁weight	-9.07477
▁Park	-9.07489
▁isn	-9.07532
▁amazing	-9.07614
▁allows	-9.07675
▁medical	-9.07678
▁takes	-9.07754
▁quickly	-9.07822
▁purchase	-9.07861
▁19	-9.07862
▁Don	-9.07959
▁kitchen	-9.08126
one	-9.08255
▁nice	-9.08277
▁international	-9.0846
▁14	-9.08475
▁included	-9.08573
▁words	-9.08605
▁impact	-9.08728
ant	-9.08759
▁shows	-9.08806
▁States	-9.08988
▁upon	-9.09016
▁return	-9.09123
son	-9.0918
▁fast	-9.09225
▁summer	-9.09328
▁effective	-9.09342
line	-9.094
▁collection	-9.09553
land	-9.09557
▁...	-9.09588
et	-9.09687
▁sense	-9.09739
▁April	-9.09766
▁told	-9.09933
based	-9.09969
▁approach	-9.09971
▁mean	-9.10314
▁La	-9.10568
▁entire	-9.10694
▁consider	-9.10729
▁50	-9.10742
▁Of	-9.10745
▁student	-9.10795
▁recently	-9.10997
▁necessary	-9.11032
▁sale	-9.11102
▁UK	-9.11228
▁app	-9.11578
nd	-9.11598
▁improve	-9.11697
▁according	-9.11717
▁100	-9.11858
▁cause	-9.11894
▁ability	-9.1191
ma	-9.12018
▁solution	-9.12027
▁conditions	-9.12205
▁digital	-9.12243
▁cut	-9.12289
▁patients	-9.12305
▁25	-9.12338
▁anyone	-9.12359
▁success	-9.1236
▁sound	-9.12393
▁weeks	-9.12524
▁policy	-9.12582
ch	-9.12815
▁March	-9.13037
▁San	-9.13088
▁terms	-9.13129
▁worked	-9.13141
▁bar	-9.13374
▁talk	-9.13413
▁else	-9.13519
▁leading	-9.1355
▁Also	-9.13562
▁Or	-9.13635
▁seems	-9.13733
▁bad	-9.13744
▁favorite	-9.14063
▁morning	-9.1415
U	-9.14304
do	-9.14305
ir	-9.14353
▁device	-9.14378
um	-9.14448
▁meeting	-9.1445
▁box	-9.14556
▁clean	-9.14567
▁costs	-9.14645
–	-9.14701
▁nothing	-9.14805
▁tools	-9.14975
▁highly	-9.15005
▁programs	-9.15019
▁average	-9.15127
▁difficult	-9.15407
▁goal	-9.15541
▁types	-9.15588
▁mobile	-9.156
un	-9.15602
▁solutions	-9.15676
▁fit	-9.15774
▁13	-9.15786
▁link	-9.15815
▁lives	-9.15835
ro	-9.15997
out	-9.16072
▁excellent	-9.16212
▁lower	-9.16238
▁hair	-9.16487
▁national	-9.16519
▁d	-9.1652
▁road	-9.16526
▁Free	-9.1675
▁safe	-9.16781
▁24	-9.17483
▁safety	-9.17498
▁Go	-9.17521
▁Thanks	-9.17736
▁board	-9.17853
ies	-9.17886
▁West	-9.17898
▁word	-9.17949
▁record	-9.17981
▁red	-9.17981
▁Most	-9.18216
▁involved	-9.18258
.”	-9.18275
▁Then	-9.18281
ent	-9.18389
▁books	-9.18459
▁Google	-9.18673
▁resources	-9.18856
▁chance	-9.18893
▁Day	-9.1892
▁six	-9.19006
▁walk	-9.19041
▁career	-9.1908
▁write	-9.19187
year	-9.19241
▁floor	-9.1927
▁itself	-9.193
▁late	-9.19318
▁decision	-9.19513
ol	-9.19551
▁win	-9.19574
▁parts	-9.19681
mm	-9.19708
▁global	-9.1971
ley	-9.19879
▁m	-9.19923
▁benefits	-9.20185
▁Many	-9.20242
▁House	-9.20327
▁Q	-9.20354
▁levels	-9.20536
▁g	-9.20563
▁send	-9.20628
▁c	-9.20795
▁en	-9.20818
▁loss	-9.2084
▁piece	-9.21057
▁America	-9.21178
▁Pro	-9.21301
▁looks	-9.21356
▁asked	-9.21418
▁b	-9.2145
▁International	-9.21499
▁track	-9.21505
▁directly	-9.21546
▁shall	-9.21619
▁multiple	-9.21745
▁photo	-9.21812
▁source	-9.21836
▁feature	-9.2184
▁fine	-9.21961
▁High	-9.22064
▁fresh	-9.22136
▁daily	-9.22167
ting	-9.22261
▁require	-9.2227
▁door	-9.22317
▁town	-9.225
▁subject	-9.22504
▁section	-9.2254
▁develop	-9.22572
▁Mr	-9.22763
▁planning	-9.2317
▁picture	-9.23197
▁giving	-9.23275
ter	-9.23311
▁Al	-9.23378
▁instead	-9.23517
ance	-9.23537
▁countries	-9.2365
▁images	-9.23775
▁fully	-9.23811
▁themselves	-9.23836
▁written	-9.23856
▁trip	-9.24137
▁Once	-9.24167
▁organization	-9.24191
▁requirements	-9.24235
▁eye	-9.24246
id	-9.24272
▁green	-9.24306
▁wall	-9.24349
▁answer	-9.24351
▁traditional	-9.24373
▁First	-9.24381
▁hold	-9.24604
▁attention	-9.24618
est	-9.24632
ized	-9.24691
▁legal	-9.247
▁worth	-9.24764
▁June	-9.24869
▁t	-9.24874
▁method	-9.24891
▁Mar	-9.24926
▁parents	-9.24999
▁2017	-9.25046
▁land	-9.25171
▁China	-9.25245
ted	-9.25399
▁center	-9.25495
▁effect	-9.25592
▁cases	-9.25693
day	-9.25785
da	-9.25887
▁hot	-9.25939
▁pain	-9.25991
▁saw	-9.25992
▁Thank	-9.26073
▁plans	-9.26127
▁commercial	-9.26161
ive	-9.26568
▁significant	-9.26638
▁decided	-9.26699
▁Even	-9.26794
▁moment	-9.26802
▁Z	-9.26813
▁machine	-9.26859
▁interesting	-9.26879
ca	-9.26931
10	-9.26961
▁2019	-9.26996
▁news	-9.27161
▁friend	-9.27164
▁More	-9.27446
ul	-9.27501
▁huge	-9.27572
▁--	-9.28038
▁remember	-9.28075
▁stock	-9.28133
se	-9.28236
ous	-9.28259
▁base	-9.2834
▁apply	-9.2841
▁India	-9.28414
▁London	-9.28653
▁prices	-9.28667
▁lost	-9.28677
▁tool	-9.28718
j	-9.28723
▁completely	-9.28801
▁client	-9.28823
▁creating	-9.28842
▁English	-9.28948
▁gives	-9.29108
▁spend	-9.29183
▁developed	-9.29184
▁term	-9.29206
▁photos	-9.29206
▁Service	-9.29238
▁vehicle	-9.29352
of	-9.29456
▁reach	-9.29781
▁players	-9.29784
▁storage	-9.29798
▁recommend	-9.29865
ization	-9.30016
://	-9.30051
▁release	-9.30088
▁businesses	-9.30097
▁goes	-9.30152
▁myself	-9.30259
▁successful	-9.305
▁Let	-9.30641
▁Great	-9.30688
▁40	-9.3075
▁screen	-9.30889
▁speed	-9.31021
▁Since	-9.31053
▁benefit	-9.31134
▁Why	-9.31297
▁watch	-9.31388
▁fire	-9.31598
▁text	-9.31797
Z	-9.31797
▁dis	-9.32085
▁nature	-9.32152
▁construction	-9.32158
▁playing	-9.32234
▁applications	-9.32242
ated	-9.32278
▁language	-9.3232
▁interested	-9.32328
▁hear	-9.32407
▁con	-9.32424
▁Group	-9.32518
go	-9.32632
▁Y	-9.32823
▁ground	-9.32928
▁TV	-9.33028
▁Car	-9.33169
▁sign	-9.33245
▁fall	-9.33291
ful	-9.33346
▁Get	-9.33358
▁Are	-9.33461
▁pro	-9.33553
by	-9.3389
▁became	-9.33967
▁wonderful	-9.33967
▁request	-9.33981
▁limited	-9.34003
ad	-9.34003
▁multi	-9.34027
▁Each	-9.34134
▁President	-9.34184
▁Inc	-9.34256
▁thinking	-9.34275
▁Health	-9.34443
▁quick	-9.34537
▁helps	-9.34855
▁Black	-9.34883
▁Friday	-9.34888
▁groups	-9.34894
0	-9.34903
▁Christmas	-9.3493
▁pick	-9.34953
▁posted	-9.3503
▁analysis	-9.35112
▁January	-9.35116
▁Well	-9.35291
▁break	-9.35375
▁sometimes	-9.35418
▁began	-9.35441
▁healthy	-9.35602
▁employees	-9.3568
▁opportunities	-9.35783
▁wish	-9.35876
▁growing	-9.35928
os	-9.35992
▁hit	-9.36007
▁round	-9.36115
▁sub	-9.36217
▁guide	-9.36333
▁entry	-9.36436
▁sites	-9.36599
▁expect	-9.36623
▁towards	-9.3663
+	-9.36639
▁considered	-9.36693
▁situation	-9.36716
ha	-9.36724
▁relationship	-9.36745
▁regular	-9.36778
▁understanding	-9.36787
▁purpose	-9.36818
▁expected	-9.3703
▁July	-9.37033
▁message	-9.37049
▁wood	-9.37151
▁physical	-9.37271
,000	-9.37425
▁hotel	-9.37491
im	-9.37649
▁death	-9.3765
▁activity	-9.37691
li	-9.37699
▁21	-9.37844
▁September	-9.37922
ating	-9.38017
▁positive	-9.38156
▁internet	-9.38181
▁starting	-9.38219
▁heat	-9.38299
▁difference	-9.38314
▁begin	-9.38358
▁individuals	-9.38364
▁grow	-9.38371
▁October	-9.38491
▁moving	-9.38591
▁platform	-9.38629
▁budget	-9.38834
▁match	-9.38969
▁pressure	-9.38985
▁hands	-9.39089
▁v	-9.39143
▁Con	-9.39247
▁la	-9.39308
▁cool	-9.39314
▁stand	-9.39384
▁seem	-9.39415
▁offering	-9.39546
▁exactly	-9.39635
▁2016	-9.39686
▁Department	-9.39718
▁investment	-9.39719
▁shop	-9.3978
▁*	-9.39816
▁custom	-9.39846
▁published	-9.39858
▁Me	-9.4005
▁region	-9.40137
ler	-9.40206
▁California	-9.40338
▁stage	-9.40519
▁plant	-9.40757
▁f	-9.40808
▁response	-9.41028
ex	-9.41048
▁cash	-9.41121
▁definitely	-9.41183
▁Sunday	-9.41219
▁Her	-9.41257
ner	-9.41261
▁previous	-9.41281
▁join	-9.41315
▁sent	-9.41315
▁function	-9.41451
ac	-9.41505
▁hour	-9.41562
▁condition	-9.41674
▁gift	-9.41712
▁serve	-9.41735
▁damage	-9.41781
▁families	-9.41802
▁al	-9.41984
▁Le	-9.42003
ally	-9.42049
▁goals	-9.42241
20	-9.4238
▁THE	-9.4246
▁court	-9.42533
▁wait	-9.42553
ce	-9.42784
▁Man	-9.42999
▁Facebook	-9.43043
!!	-9.43145
▁unit	-9.43192
▁College	-9.43258
▁war	-9.43269
▁blood	-9.43467
▁Saturday	-9.43557
▁wedding	-9.43597
▁led	-9.43653
▁culture	-9.43702
▁display	-9.44004
▁December	-9.44107
▁touch	-9.44116
▁Good	-9.44143
▁surface	-9.44184
▁felt	-9.442
▁born	-9.4428
▁super	-9.44419
▁wrong	-9.44615
▁essential	-9.44634
▁reduce	-9.44754
▁dog	-9.44758
▁experienced	-9.45074
▁political	-9.45209
▁pictures	-9.45303
▁November	-9.45337
▁easier	-9.45376
▁Air	-9.45519
▁note	-9.4559
▁glass	-9.45623
▁character	-9.45651
▁active	-9.45712
▁gas	-9.45718
▁places	-9.45759
▁Services	-9.45785
▁former	-9.45794
▁avoid	-9.45855
▁regarding	-9.45926
old	-9.46028
▁paid	-9.46099
▁ideal	-9.46134
▁complex	-9.4615
▁:	-9.46212
▁Best	-9.46243
▁charge	-9.464
▁released	-9.46403
▁beginning	-9.46465
▁deep	-9.46633
▁delivery	-9.46638
▁August	-9.46644
We	-9.46996
ish	-9.47016
▁feeling	-9.47085
▁firm	-9.47105
ke	-9.47109
▁Make	-9.47112
▁setting	-9.47286
▁economic	-9.47433
▁degree	-9.47672
▁rates	-9.47786
▁loved	-9.47803
▁basic	-9.47807
▁double	-9.47861
▁offered	-9.4787
▁baby	-9.47969
▁comfortable	-9.48023
▁Business	-9.48023
den	-9.48041
▁direct	-9.48076
▁#	-9.48111
▁basis	-9.48264
▁overall	-9.48267
▁sell	-9.48279
▁advice	-9.48307
▁European	-9.48376
▁associated	-9.4849
▁East	-9.48495
▁eat	-9.48517
▁highest	-9.48538
▁spent	-9.4854
▁bed	-9.48925
▁shown	-9.48935
▁devices	-9.48981
▁supply	-9.49004
▁trade	-9.4907
▁gave	-9.4908
▁select	-9.49158
▁Company	-9.49172
▁stories	-9.49314
lo	-9.49391
▁Although	-9.49501
▁repair	-9.49525
▁heard	-9.49549
per	-9.4972
ak	-9.4973
▁creative	-9.49732
▁responsible	-9.49759
▁certainly	-9.49826
ge	-9.49862
▁happen	-9.4987
▁Street	-9.49921
▁truly	-9.49963
30	-9.50077
▁anti	-9.50174
▁weekend	-9.50375
▁college	-9.50441
▁weather	-9.50457
ri	-9.50494
▁selection	-9.50616
▁finish	-9.50709
▁beyond	-9.50719
▁Click	-9.5079
▁Today	-9.50926
▁largest	-9.50963
▁patient	-9.50995
dy	-9.51233
tic	-9.51311
▁Bar	-9.51327
▁Green	-9.51347
▁produce	-9.5146
▁rights	-9.51515
▁effects	-9.51558
▁Art	-9.51628
▁brought	-9.51653
▁author	-9.51704
▁existing	-9.5182
▁wasn	-9.51895
▁tried	-9.52071
▁protection	-9.52316
ah	-9.52429
▁increased	-9.52485
▁2015	-9.52495
▁effort	-9.52566
▁achieve	-9.52671
▁agree	-9.52681
▁income	-9.52799
▁challenge	-9.52811
▁annual	-9.52839
▁Check	-9.52871
▁payment	-9.52903
▁Red	-9.52913
▁feet	-9.5296
▁mother	-9.53001
▁|	-9.5304
▁disease	-9.53052
▁estate	-9.5306
▁structure	-9.53073
▁particularly	-9.53184
▁Canada	-9.53205
▁useful	-9.53442
▁science	-9.53744
▁Design	-9.53819
▁race	-9.53844
▁60	-9.5406
▁played	-9.54206
end	-9.5421
▁item	-9.5425
▁Internet	-9.54279
▁Windows	-9.54373
ka	-9.54408
▁Europe	-9.54467
▁appropriate	-9.54651
▁journey	-9.54675
▁completed	-9.54679
▁White	-9.54842
▁stuff	-9.54885
▁player	-9.54944
▁Act	-9.55135
▁window	-9.55159
▁schools	-9.55173
▁Jesus	-9.55231
▁blue	-9.55293
▁pages	-9.55322
▁powerful	-9.55354
we	-9.55384
▁finally	-9.55392
▁helping	-9.55448
▁bottom	-9.55455
▁1.	-9.55532
way	-9.55545
▁cancer	-9.55647
▁comfort	-9.55655
▁Use	-9.55675
▁files	-9.55694
▁warm	-9.55814
▁February	-9.55861
▁See	-9.55939
▁prior	-9.56142
®	-9.56158
▁trust	-9.56194
▁normal	-9.56304
▁engine	-9.56379
▁studies	-9.56436
▁pass	-9.56681
▁coffee	-9.56698
▁strategy	-9.56828
▁protect	-9.56865
▁notice	-9.56866
▁movie	-9.56899
▁furniture	-9.56953
▁gold	-9.5698
▁22	-9.57118
▁immediately	-9.57136
▁Board	-9.57174
▁cold	-9.57248
▁0	-9.57322
mo	-9.57362
▁Over	-9.57395
op	-9.57573
▁Association	-9.57583
▁plus	-9.57584
▁wear	-9.57682
▁claim	-9.57782
▁lots	-9.58007
▁Have	-9.58136
▁extremely	-9.58166
▁master	-9.58196
▁Monday	-9.58206
▁nearly	-9.58207
▁sea	-9.58269
▁son	-9.58274
▁announced	-9.58289
▁campaign	-9.58326
▁soft	-9.58335
▁Council	-9.5834
▁n	-9.58434
▁War	-9.58475
▁models	-9.58478
▁El	-9.58512
▁church	-9.58564
ana	-9.5857
▁Lake	-9.58746
▁thanks	-9.58849
▁Because	-9.59009
rd	-9.59023
▁Australia	-9.59092
▁garden	-9.59123
▁remove	-9.5927
▁band	-9.59314
▁deliver	-9.59316
▁tour	-9.59679
for	-9.59745
▁changed	-9.59782
▁Yes	-9.59835
▁sun	-9.59847
▁sold	-9.59946
▁button	-9.59981
▁Office	-9.60054
▁dry	-9.60067
▁+	-9.60324
di	-9.6039
▁reasons	-9.60448
▁compared	-9.60487
pe	-9.6056
▁eyes	-9.60619
▁served	-9.60627
▁reported	-9.60671
▁Mo	-9.60684
▁mid	-9.607
ite	-9.60717
▁During	-9.60741
off	-9.60783
ise	-9.60787
▁established	-9.60858
ut	-9.60986
▁knew	-9.61092
▁capital	-9.61134
▁dark	-9.61298
▁turned	-9.61321
▁connection	-9.61363
▁maybe	-9.61388
ard	-9.61404
▁methods	-9.61406
▁o	-9.61512
▁host	-9.61534
▁sweet	-9.61545
▁welcome	-9.61641
▁prevent	-9.61652
▁evidence	-9.61661
”.	-9.61701
▁lines	-9.61747
der	-9.61752
▁opening	-9.61839
▁greater	-9.62053
term	-9.62102
▁camera	-9.6216
▁communication	-9.62192
▁title	-9.62276
▁bank	-9.62322
▁spot	-9.62339
▁Research	-9.62479
▁Hi	-9.6252
▁pool	-9.6277
▁police	-9.62833
▁steel	-9.62956
▁met	-9.63149
▁fish	-9.63271
▁ball	-9.63327
▁correct	-9.63375
▁teaching	-9.63432
▁Love	-9.63511
▁rules	-9.63519
▁David	-9.63587
▁sharing	-9.63624
▁although	-9.63734
▁balance	-9.63755
▁lack	-9.63788
▁steps	-9.63796
▁miles	-9.63888
▁•	-9.63926
▁letter	-9.64104
▁saying	-9.64111
▁driving	-9.64187
▁act	-9.64216
▁Will	-9.64307
".	-9.64326
ten	-9.64357
▁wine	-9.64398
40	-9.64462
▁print	-9.6452
▁Paul	-9.6471
▁middle	-9.64713
▁pieces	-9.6475
▁Un	-9.64806
▁maintain	-9.64879
▁2.	-9.6493
▁Take	-9.64953
▁technical	-9.6496
▁update	-9.65041
▁cards	-9.65208
▁alone	-9.65224
▁cell	-9.65284
▁helped	-9.65394
▁schedule	-9.65413
▁finished	-9.65421
▁father	-9.65423
▁traffic	-9.65427
▁ahead	-9.65428
▁experts	-9.65491
▁larger	-9.65589
side	-9.65597
ial	-9.65622
▁fill	-9.65693
ize	-9.65697
ba	-9.65697
▁w	-9.65749
▁owner	-9.65843
▁metal	-9.65884
▁brain	-9.65899
led	-9.6595
▁Di	-9.66029
▁manage	-9.66058
▁handle	-9.66103
▁serious	-9.66166
12	-9.66183
▁states	-9.6622
▁uses	-9.66267
▁allowed	-9.66353
▁official	-9.664
house	-9.66508
▁sleep	-9.66617
port	-9.66656
▁advantage	-9.66667
▁Whether	-9.66732
▁star	-9.66743
▁voice	-9.66784
▁requires	-9.6687
▁billion	-9.66933
▁assist	-9.66966
▁woman	-9.66994
▁sports	-9.67115
▁earlier	-9.67276
ho	-9.67301
▁Florida	-9.67371
▁reports	-9.67398
▁tips	-9.67434
men	-9.6748
▁foot	-9.67484
▁generally	-9.67546
▁classic	-9.67572
▁task	-9.67582
▁flat	-9.67623
▁loan	-9.67624
▁contract	-9.67654
▁secure	-9.67669
▁advanced	-9.67741
▁session	-9.67764
▁winter	-9.67887
▁dedicated	-9.67956
back	-9.67958
▁covered	-9.68043
▁carry	-9.68059
▁copy	-9.6813
▁Any	-9.68154
▁moved	-9.68213
▁Web	-9.68227
Q	-9.68328
▁shape	-9.68335
▁respect	-9.68361
▁appear	-9.6843
▁holiday	-9.68436
▁standards	-9.68486
▁reviews	-9.68545
▁rich	-9.68565
wood	-9.68626
▁shopping	-9.68654
▁2014	-9.68724
▁contains	-9.68836
▁People	-9.6892
▁numbers	-9.6899
▁professionals	-9.69004
▁British	-9.69087
▁cross	-9.69158
▁Club	-9.6918
▁cells	-9.69183
▁expert	-9.69193
▁primary	-9.69297
▁cleaning	-9.69332
min	-9.6942
▁finding	-9.69429
▁enter	-9.69441
▁song	-9.69442
▁Every	-9.6945
▁ones	-9.69518
▁critical	-9.6954
▁path	-9.69706
▁flow	-9.69739
In	-9.69755
▁park	-9.69869
ee	-9.69894
▁Court	-9.69912
▁According	-9.69928
▁homes	-9.70029
▁partner	-9.70029
▁remain	-9.7006
▁seven	-9.70082
ga	-9.70154
▁views	-9.70154
▁target	-9.70168
▁onto	-9.7018
▁jobs	-9.70197
▁efforts	-9.70251
▁tree	-9.70255
▁determine	-9.70314
▁Call	-9.70328
▁server	-9.70328
▁drop	-9.70337
▁background	-9.70347
@	-9.70363
▁Management	-9.70367
▁progress	-9.70372
▁facilities	-9.70394
▁sort	-9.70541
▁followed	-9.70588
▁maintenance	-9.70696
▁IT	-9.70704
▁ten	-9.70728
▁developing	-9.70779
▁fan	-9.70922
ft	-9.71182
▁organizations	-9.71189
org	-9.71196
▁friendly	-9.71216
▁Bank	-9.71313
ig	-9.71319
▁perform	-9.71352
ti	-9.71374
▁elements	-9.71374
▁statement	-9.71377
▁discuss	-9.71424
▁et	-9.71484
ning	-9.71554
▁stress	-9.716
▁movement	-9.71814
field	-9.71819
▁French	-9.71824
▁solid	-9.71951
▁looked	-9.71958
▁Another	-9.71994
▁Washington	-9.7212
▁produced	-9.72203
▁whose	-9.72268
▁selected	-9.72283
▁teams	-9.72305
▁club	-9.72459
ster	-9.72479
▁shared	-9.72501
▁gets	-9.72598
▁memory	-9.7282
▁colors	-9.72908
▁competition	-9.72917
▁press	-9.72925
▁mission	-9.73049
▁comment	-9.73064
▁force	-9.73114
▁Add	-9.73148
▁rock	-9.73171
▁23	-9.73336
▁spring	-9.73337
▁River	-9.73378
▁separate	-9.73408
▁actual	-9.73423
pm	-9.73462
he	-9.73476
▁presented	-9.73484
▁challenges	-9.73524
ING	-9.73526
▁Find	-9.73624
con	-9.73737
▁driver	-9.73764
▁exercise	-9.73849
▁paint	-9.7386
▁population	-9.73928
▁therefore	-9.73988
▁leaders	-9.74026
▁Water	-9.74137
▁learned	-9.74157
▁General	-9.74187
▁listed	-9.74212
▁central	-9.74245
▁Post	-9.74253
▁bag	-9.74342
▁Church	-9.74358
▁techniques	-9.74364
▁audience	-9.74367
ham	-9.74424
▁Institute	-9.74483
vi	-9.74643
▁demand	-9.74666
▁properties	-9.7471
▁century	-9.74744
▁parties	-9.74861
▁himself	-9.74923
▁vision	-9.74972
▁perhaps	-9.75076
▁famous	-9.75149
ier	-9.75183
▁Indian	-9.75195
▁testing	-9.75266
▁plenty	-9.75282
ni	-9.75334
▁wife	-9.75353
▁prepared	-9.75497
sh	-9.75516
▁ex	-9.75564
▁Road	-9.75566
▁director	-9.75621
▁Apple	-9.75668
▁Other	-9.75676
▁evening	-9.75694
▁aren	-9.75767
▁talking	-9.75794
▁communities	-9.75816
▁bathroom	-9.75875
all	-9.75909
io	-9.75925
▁relevant	-9.75955
▁operating	-9.76001
▁explore	-9.76035
hi	-9.76087
▁named	-9.76117
▁placed	-9.76137
ron	-9.76188
▁Bay	-9.76269
▁speak	-9.76279
▁heavy	-9.76357
It	-9.76383
▁Pre	-9.76535
po	-9.76602
au	-9.76764
▁guests	-9.76856
▁factors	-9.76966
free	-9.76993
▁owners	-9.77017
▁capacity	-9.7709
▁core	-9.77105
pa	-9.77117
▁transfer	-9.7726
▁values	-9.77274
▁conference	-9.77297
▁Bo	-9.77305
50	-9.77466
▁thank	-9.77475
▁meaning	-9.77523
▁lose	-9.77534
▁taste	-9.77621
▁temperature	-9.77638
▁distance	-9.77649
▁$1	-9.7772
▁installation	-9.77722
▁artist	-9.77744
▁classes	-9.77762
mp	-9.77789
▁gain	-9.77792
▁restaurant	-9.77816
е	-9.77877
▁Life	-9.77903
ville	-9.77923
▁husband	-9.77958
▁beach	-9.7804
▁connect	-9.78051
▁keeping	-9.78057
▁2013	-9.7807
▁couldn	-9.78115
▁direction	-9.78134
▁Law	-9.78186
▁haven	-9.78193
ang	-9.78229
▁waste	-9.7826
lin	-9.78271
▁Texas	-9.78492
▁drug	-9.78537
▁biggest	-9.786
▁Open	-9.78623
▁dream	-9.78668
▁mix	-9.78689
▁block	-9.78692
▁status	-9.78757
▁essay	-9.78758
ko	-9.78783
▁buying	-9.78802
▁length	-9.78848
▁links	-9.78903
▁fashion	-9.7892
▁decide	-9.78964
▁seeing	-9.79045
▁award	-9.79049
▁operations	-9.79085
▁fuel	-9.79086
▁tea	-9.79186
▁combination	-9.79212
▁beauty	-9.793
▁Thursday	-9.79401
ology	-9.79423
red	-9.79537
em	-9.79564
▁dining	-9.79663
▁comments	-9.79722
▁train	-9.79744
▁package	-9.79775
▁experiences	-9.79818
▁Christ	-9.79849
over	-9.79892
▁plants	-9.79925
▁visitors	-9.80081
▁interior	-9.80146
▁poor	-9.80163
ci	-9.80216
▁26	-9.80346
▁Who	-9.80366
▁Two	-9.80393
▁USA	-9.80397
▁older	-9.80418
▁fee	-9.80529
ung	-9.80573
▁outdoor	-9.80585
▁rooms	-9.80594
▁Tuesday	-9.8064
▁concept	-9.80727
▁kept	-9.80815
▁passed	-9.80897
▁plastic	-9.80917
▁forms	-9.80936
▁adding	-9.80948
▁Last	-9.80986
▁economy	-9.81023
▁Chinese	-9.81106
▁helpful	-9.81197
if	-9.81326
▁Lord	-9.81351
tra	-9.8136
▁format	-9.8139
▁gone	-9.81427
▁coverage	-9.81456
▁initial	-9.81489
▁En	-9.81522
▁numerous	-9.8162
▁figure	-9.81727
▁residents	-9.81758
▁28	-9.81859
▁3.	-9.81891
ya	-9.81916
▁sector	-9.81916
▁leader	-9.81947
▁Mac	-9.81976
▁reality	-9.81979
▁PC	-9.82005
▁funds	-9.82069
▁processes	-9.82088
▁James	-9.82145
▁sit	-9.8215
ber	-9.8216
like	-9.82232
é	-9.82265
▁changing	-9.82324
▁score	-9.82379
net	-9.82389
▁proper	-9.82406
▁Director	-9.82452
▁strength	-9.825
▁shot	-9.82566
▁Lo	-9.82581
▁Wednesday	-9.82637
▁practices	-9.82694
▁street	-9.82762
▁station	-9.82798
▁described	-9.82828
▁stone	-9.82849
▁install	-9.82928
▁ice	-9.82983
▁dinner	-9.83005
▁alternative	-9.83053
ck	-9.83146
▁Michael	-9.8319
▁?	-9.83195
▁connected	-9.83266
▁Like	-9.83282
tro	-9.83435
▁medium	-9.83462
80	-9.83467
▁Online	-9.8349
▁forget	-9.83514
▁cars	-9.8352
▁diet	-9.83529
▁Star	-9.83661
▁aware	-9.83686
▁Education	-9.83704
▁fantastic	-9.83716
▁smaller	-9.83721
▁l	-9.83732
▁fans	-9.83742
▁expensive	-9.8375
25	-9.83821
ER	-9.83841
izing	-9.8388
so	-9.83885
▁Valley	-9.8393
▁2012	-9.83979
▁straight	-9.83983
ina	-9.84003
▁agreement	-9.84053
▁society	-9.84065
▁1,	-9.84073
▁detail	-9.84154
▁k	-9.8423
▁sugar	-9.8429
▁Super	-9.84393
ey	-9.84417
▁Mark	-9.8443
▁identify	-9.84484
▁fear	-9.84526
▁maximum	-9.84553
light	-9.846
ping	-9.84632
▁military	-9.84647
TM	-9.8472
▁Time	-9.84743
▁square	-9.84751
11	-9.84952
▁operation	-9.84972
▁otherwise	-9.85084
vo	-9.85143
▁map	-9.85198
▁wants	-9.85214
Re	-9.85244
▁fight	-9.85266
▁bedroom	-9.85291
▁slow	-9.85416
▁workers	-9.85426
▁panel	-9.85473
▁academic	-9.85476
▁scale	-9.85544
▁Africa	-9.85594
▁selling	-9.85689
▁becoming	-9.85696
▁King	-9.85791
90	-9.85816
▁waiting	-9.85856
▁wrote	-9.85922
ow	-9.86027
▁fair	-9.86191
▁independent	-9.86243
▁thousands	-9.86247
▁affordable	-9.86328
ability	-9.8635
▁excited	-9.86361
▁Trump	-9.86399
▁document	-9.86419
▁mentioned	-9.86442
▁discover	-9.86577
▁Top	-9.866
▁seat	-9.86646
ities	-9.86652
▁ride	-9.86726
▁Power	-9.8677
▁Big	-9.86789
▁federal	-9.86875
▁di	-9.86877
▁president	-9.86884
▁Sa	-9.869
▁Ar	-9.86944
▁Science	-9.86949
▁eight	-9.86958
▁pan	-9.87
▁treat	-9.87138
ists	-9.87155
▁smart	-9.87181
▁frame	-9.87228
▁Download	-9.87228
▁Ha	-9.87249
▁efficient	-9.87328
▁happened	-9.87368
www	-9.87503
▁4.	-9.87512
▁corporate	-9.87531
▁facility	-9.87549
ative	-9.87599
▁pop	-9.87713
▁exciting	-9.8783
▁http	-9.87855
▁happens	-9.87862
▁prepare	-9.87867
▁100%	-9.87947
▁teacher	-9.87975
▁Social	-9.87978
▁Year	-9.88084
▁senior	-9.88112
ja	-9.88213
▁whatever	-9.88318
▁centre	-9.88319
▁applied	-9.88335
▁manager	-9.88401
▁TO	-9.88452
▁minute	-9.88583
▁focused	-9.88613
ong	-9.88628
▁album	-9.88689
▁designs	-9.88714
▁auto	-9.88749
▁interview	-9.88806
▁audio	-9.88809
▁thus	-9.88823
▁System	-9.88874
pro	-9.8894
ship	-9.89026
60	-9.89061
▁opened	-9.89097
▁leadership	-9.89126
▁Their	-9.89128
▁died	-9.89215
▁units	-9.89233
▁Blue	-9.89235
que	-9.89281
bo	-9.8936
▁provider	-9.89411
▁reference	-9.89432
▁continued	-9.89521
▁www	-9.89672
▁radio	-9.89678
▁assistance	-9.89762
▁Both	-9.898
▁cheap	-9.8987
uk	-9.89913
01	-9.90014
▁artists	-9.90031
▁majority	-9.9013
▁Development	-9.90137
▁recipe	-9.90148
▁Data	-9.90164
▁characters	-9.90164
▁performed	-9.90167
ger	-9.90181
▁27	-9.90208
▁Island	-9.90387
▁showing	-9.90492
ring	-9.90506
ide	-9.9051
▁components	-9.90514
▁registered	-9.90527
▁snow	-9.90545
▁topic	-9.90574
▁edge	-9.90601
▁awesome	-9.90604
▁caused	-9.90631
▁bought	-9.90699
▁suitable	-9.90733
▁>	-9.90912
▁remains	-9.90999
▁pattern	-9.91006
▁decisions	-9.91195
▁fees	-9.91201
▁Book	-9.91217
▁influence	-9.91225
▁Ne	-9.91263
▁teachers	-9.91344
▁documents	-9.91359
▁presence	-9.91433
▁enjoyed	-9.91507
va	-9.91518
▁daughter	-9.91565
mer	-9.91582
▁foreign	-9.91613
▁processing	-9.91753
▁managed	-9.91778
SA	-9.9182
▁menu	-9.91875
▁names	-9.91955
▁cream	-9.9199
▁absolutely	-9.92034
wa	-9.92087
▁exchange	-9.92088
▁doctor	-9.92098
14	-9.9212
▁prefer	-9.92135
▁spending	-9.92145
▁department	-9.92198
▁fruit	-9.92231
▁toward	-9.92258
qui	-9.92273
▁detailed	-9.9229
▁minimum	-9.92293
ED	-9.92303
▁girl	-9.92327
▁pet	-9.92338
▁Where	-9.92352
▁wind	-9.92382
▁sources	-9.92531
▁Na	-9.92539
▁animals	-9.92552
▁serving	-9.92592
▁expertise	-9.92623
▁policies	-9.92639
▁roof	-9.92692
-1	-9.92733
▁Community	-9.9274
▁becomes	-9.92764
ries	-9.92831
lic	-9.92833
▁Program	-9.92843
▁properly	-9.92923
▁hospital	-9.92931
15	-9.92934
▁injury	-9.92935
▁peace	-9.93015
▁Amazon	-9.93074
▁truth	-9.93098
▁vote	-9.93154
▁updated	-9.93155
▁Care	-9.93189
▁accept	-9.93223
▁manner	-9.93252
▁spread	-9.93399
▁miss	-9.93487
▁Foundation	-9.93497
ng	-9.93581
▁generation	-9.936
▁concerns	-9.93641
▁Government	-9.93662
▁strategies	-9.9373
▁Du	-9.93742
▁fat	-9.9375
▁England	-9.93758
board	-9.93779
▁corner	-9.93839
▁recommended	-9.93853
▁colour	-9.93857
▁installed	-9.9387
▁walking	-9.93927
▁ingredients	-9.94106
▁innovative	-9.9416
ze	-9.94211
▁Se	-9.94264
▁increasing	-9.94312
▁practical	-9.94317
▁rise	-9.94321
▁sounds	-9.94396
▁Ho	-9.9441
­	-9.94416
oc	-9.94454
art	-9.94475
▁environmental	-9.94477
▁allowing	-9.94499
▁Hall	-9.94605
lu	-9.947
▁net	-9.94709
▁agency	-9.94764
▁cities	-9.94773
22	-9.94788
▁lunch	-9.94841
▁funding	-9.94843
▁h	-9.94849
▁relationships	-9.94862
▁technologies	-9.94868
▁category	-9.94891
▁lovely	-9.95049
▁filled	-9.9505
▁Pa	-9.95179
▁records	-9.95256
▁Before	-9.95314
▁suggest	-9.95356
▁micro	-9.95357
▁climate	-9.95372
▁courses	-9.95392
▁busy	-9.95409
q	-9.95419
ud	-9.9547
▁resource	-9.95505
gen	-9.95551
▁eating	-9.95557
▁motor	-9.9556
▁previously	-9.95563
▁leaving	-9.95598
▁approximately	-9.95639
▁Central	-9.95649
▁Information	-9.95669
ised	-9.95689
▁inter	-9.95785
▁videos	-9.95792
▁proud	-9.95857
▁bill	-9.95933
19	-9.95941
▁windows	-9.95994
▁Up	-9.96027
my	-9.96178
▁@	-9.9621
▁brings	-9.96251
▁delicious	-9.96324
▁responsibility	-9.96369
▁Read	-9.96403
▁AND	-9.96416
les	-9.96455
▁attend	-9.96458
▁profile	-9.96466
ino	-9.96489
▁Music	-9.96499
▁pair	-9.96605
▁automatically	-9.96644
▁vehicles	-9.96688
▁industrial	-9.96719
▁negative	-9.96727
▁calls	-9.96729
▁theme	-9.96768
▁casino	-9.96769
▁grade	-9.96778
▁partners	-9.96809
ence	-9.96902
▁Next	-9.96929
▁closed	-9.96957
▁typically	-9.96993
▁wouldn	-9.96995
▁31	-9.97096
▁cultural	-9.97097
▁internal	-9.9711
▁importance	-9.97115
▁Team	-9.97141
▁info	-9.97158
▁se	-9.97392
▁obtain	-9.97401
her	-9.97425
▁discussion	-9.97487
▁launch	-9.97619
▁Christian	-9.97723
▁Ma	-9.9775
▁aspects	-9.97781
▁Master	-9.97864
▁combined	-9.97945
▁salt	-9.98021
13	-9.9805
▁clearly	-9.98053
▁runs	-9.98114
▁die	-9.98154
32	-9.98196
▁bus	-9.98234
▁doubt	-9.98247
▁Am	-9.9828
▁Ca	-9.9829
70	-9.98313
▁sample	-9.98357
▁counter	-9.98462
▁specifically	-9.98534
▁Beach	-9.98578
45	-9.98661
IT	-9.98671
▁Project	-9.98746
▁Committee	-9.98756
bi	-9.98804
▁Po	-9.98818
▁claims	-9.98844
▁promote	-9.98857
!!!	-9.98861
▁shipping	-9.98882
▁trees	-9.9889
▁Security	-9.98954
▁nation	-9.98978
ran	-9.99026
▁reliable	-9.99043
▁continues	-9.99044
▁80	-9.99068
▁CA	-9.9907
▁scene	-9.99079
▁mine	-9.99098
▁depending	-9.991
*	-9.99137
▁factor	-9.99139
IN	-9.99192
▁south	-9.99262
▁advance	-9.99269
▁smooth	-9.99281
ver	-9.99291
▁Ben	-9.99337
▁guarantee	-9.99342
not	-9.99354
▁$2	-9.99371
▁attack	-9.99379
▁pull	-9.99412
▁debt	-9.99486
▁locations	-9.99517
▁slightly	-9.99545
▁German	-9.99546
▁Gold	-9.99592
▁visual	-9.99661
▁mode	-9.99695
▁affect	-9.99763
▁Public	-9.99799
▁quarter	-9.99887
▁stores	-9.99913
▁dress	-9.99914
▁drink	-9.99918
▁ourselves	-9.99925
▁raised	-9.99931
▁2010	-10.0001
▁Per	-10.0002
▁leaves	-10.001
▁Centre	-10.0011
▁Ko	-10.0011
▁enhance	-10.0014
ator	-10.0017
▁volume	-10.0021
use	-10.0038
▁Note	-10.0042
▁fabric	-10.0042
▁dance	-10.0043
▁Sea	-10.0045
▁tend	-10.0046
▁Contact	-10.0048
▁France	-10.0054
▁showed	-10.0059
▁database	-10.0063
▁encourage	-10.0073
▁faith	-10.0076
well	-10.0094
▁error	-10.0107
▁90	-10.0108
▁doors	-10.0111
▁2011	-10.0114
▁mental	-10.0123
▁parking	-10.0125
▁putting	-10.0125
▁OF	-10.0145
▁limit	-10.0146
▁comprehensive	-10.0147
▁battery	-10.0147
▁Work	-10.0147
nt	-10.0154
▁feedback	-10.0157
▁boat	-10.0162
let	-10.0165
▁species	-10.0166
▁200	-10.0169
fi	-10.0178
▁websites	-10.0178
▁Los	-10.0181
▁markets	-10.0186
24	-10.0198
=	-10.0202
▁attempt	-10.022
▁Network	-10.0227
16	-10.0228
▁joined	-10.023
▁posts	-10.0233
▁contain	-10.0234
▁tickets	-10.0236
%	-10.0239
▁signal	-10.0241
▁draw	-10.0244
▁committed	-10.0245
ai	-10.0257
▁Su	-10.0266
▁guys	-10.0284
▁rain	-10.0288
▁Rock	-10.0296
ab	-10.0302
▁measures	-10.0302
▁actions	-10.0302
▁bike	-10.0311
21	-10.0315
▁anywhere	-10.0317
▁respond	-10.0323
▁competitive	-10.0329
▁Microsoft	-10.0331
▁Sun	-10.0332
CA	-10.0336
▁suit	-10.0338
▁watching	-10.0339
ure	-10.0341
▁familiar	-10.0345
▁trading	-10.0346
▁Bill	-10.0346
▁ended	-10.0349
▁Ra	-10.0361
▁unless	-10.0368
▁fix	-10.0378
▁rule	-10.0382
▁bowl	-10.0383
▁enable	-10.0385
▁IN	-10.0394
▁70	-10.0398
▁Ex	-10.0416
00	-10.0416
▁extensive	-10.0417
▁sets	-10.0418
▁housing	-10.0424
▁library	-10.0433
▁Society	-10.0433
ging	-10.0439
car	-10.0439
▁valuable	-10.0446
han	-10.0449
▁inspired	-10.0455
▁choices	-10.0455
▁mostly	-10.0463
▁shower	-10.0467
▁context	-10.0467
ford	-10.0467
ever	-10.047
▁Only	-10.0472
▁Ka	-10.0473
75	-10.0474
▁output	-10.0478
▁ship	-10.0487
▁earth	-10.0491
▁appears	-10.0502
▁passion	-10.0505
▁visiting	-10.0511
▁deals	-10.0512
▁functions	-10.0513
▁Table	-10.0513
▁2000	-10.0524
▁instance	-10.0527
▁transport	-10.0529
>	-10.0537
▁II	-10.0542
▁CO	-10.0542
▁measure	-10.0556
▁hearing	-10.0559
za	-10.0568
▁brands	-10.0573
ney	-10.0576
▁opinion	-10.0577
▁35	-10.0582
ap	-10.0586
▁Ta	-10.0586
▁guess	-10.0602
▁winning	-10.0603
but	-10.0603
▁island	-10.0604
▁Germany	-10.0604
▁Does	-10.0605
▁confidence	-10.0606
▁laws	-10.0613
▁adults	-10.0614
▁north	-10.0614
▁st	-10.0615
▁Twitter	-10.0615
ical	-10.0619
▁educational	-10.0621
▁providers	-10.0622
▁trial	-10.0626
▁Head	-10.0629
▁Robert	-10.0632
▁chicken	-10.064
▁meal	-10.065
▁animal	-10.0652
▁delivered	-10.0656
▁500	-10.0658
▁worry	-10.0659
▁consumer	-10.066
▁Long	-10.0662
▁articles	-10.0674
bar	-10.0676
▁seek	-10.0682
▁thoughts	-10.0682
▁r	-10.0689
▁Plus	-10.069
▁girls	-10.0694
▁District	-10.0695
▁Play	-10.07
▁channel	-10.0706
▁mention	-10.0714
▁ring	-10.072
▁holding	-10.0725
▁leads	-10.0726
▁load	-10.0726
▁Show	-10.073
▁chair	-10.0731
▁flight	-10.0737
▁Technology	-10.0738
▁advertising	-10.0738
▁survey	-10.0744
▁purposes	-10.0744
▁introduced	-10.0744
▁rental	-10.0745
▁Chicago	-10.0746
▁replace	-10.0746
▁=	-10.075
▁trouble	-10.0756
▁electronic	-10.0762
▁rent	-10.0769
▁breakfast	-10.0775
▁faster	-10.0777
▁totally	-10.078
▁supported	-10.0782
▁Out	-10.0782
▁emergency	-10.0787
ue	-10.079
▁distribution	-10.0792
▁Place	-10.0796
▁replacement	-10.0796
18	-10.0797
▁catch	-10.08
▁raise	-10.0803
▁bright	-10.082
ach	-10.0832
▁birth	-10.0837
▁owned	-10.0844
▁missing	-10.0847
▁Those	-10.0847
▁Mc	-10.0853
▁Ad	-10.0854
room	-10.0857
▁(19	-10.0859
▁aid	-10.0861
▁tough	-10.0866
▁listen	-10.0867
▁fixed	-10.0869
▁Family	-10.0869
▁starts	-10.0876
▁29	-10.0883
▁Hotel	-10.0887
▁cloud	-10.0889
▁cheese	-10.0889
▁songs	-10.089
▁explain	-10.089
▁resolution	-10.0891
▁employee	-10.0893
▁license	-10.0898
▁Plan	-10.0899
und	-10.0902
▁flowers	-10.0905
ice	-10.0911
▁meant	-10.0912
▁participants	-10.0913
▁approved	-10.0913
▁object	-10.0916
▁push	-10.0918
▁meat	-10.0923
▁dead	-10.0924
▁procedure	-10.0927
tion	-10.0927
▁cast	-10.0932
▁Japan	-10.0933
▁reached	-10.0935
work	-10.0935
▁appreciate	-10.0942
▁Wi	-10.0946
▁Vi	-10.0947
▁surgery	-10.0952
mar	-10.0958
▁Using	-10.0959
▁Li	-10.0968
▁iPhone	-10.0969
▁mo	-10.0969
▁clinical	-10.097
▁despite	-10.0974
▁Global	-10.0975
▁register	-10.0975
▁Jo	-10.0977
▁eventually	-10.0985
▁realize	-10.0992
▁Museum	-10.0996
AL	-10.1003
▁birthday	-10.1007
▁element	-10.1008
▁Peter	-10.1017
▁Android	-10.1026
▁signed	-10.1028
▁restaurants	-10.1053
▁improved	-10.1055
ably	-10.1062
▁ID	-10.1066
▁therapy	-10.1067
▁manufacturing	-10.1069
▁novel	-10.1072
▁appointment	-10.1083
ible	-10.1088
mail	-10.109
▁Bi	-10.1096
▁ma	-10.1097
▁lighting	-10.1108
▁sand	-10.1111
▁cat	-10.1113
▁Men	-10.1114
▁Old	-10.1114
▁chocolate	-10.1115
tal	-10.1116
ium	-10.1124
▁Real	-10.1124
▁afternoon	-10.1124
▁desire	-10.1126
hu	-10.1128
▁monthly	-10.113
▁Light	-10.1132
▁Food	-10.1133
▁PA	-10.1134
▁surrounding	-10.1139
▁participate	-10.1147
▁asking	-10.1152
▁Under	-10.1152
▁retail	-10.1152
▁input	-10.1153
▁Union	-10.1153
▁covers	-10.1155
▁launched	-10.1157
point	-10.116
ward	-10.1162
▁Media	-10.1167
▁iron	-10.117
▁commitment	-10.1171
▁feed	-10.118
▁conversation	-10.1196
MA	-10.1199
ix	-10.1199
▁Manager	-10.12
▁le	-10.1204
▁milk	-10.121
▁returned	-10.1211
▁collect	-10.1213
▁possibly	-10.1214
26	-10.1225
▁port	-10.1226
▁Australian	-10.1228
head	-10.1228
▁Party	-10.1229
▁route	-10.123
▁appearance	-10.123
ray	-10.1232
▁notes	-10.1233
▁sp	-10.1236
▁female	-10.1245
▁consumers	-10.1249
down	-10.1251
▁CD	-10.1253
▁Market	-10.1259
SE	-10.1262
▁registration	-10.1262
▁roll	-10.1264
apos	-10.1265
▁presentation	-10.1267
ven	-10.1268
▁guest	-10.1269
▁Keep	-10.127
▁creation	-10.1272
▁32	-10.1281
▁cutting	-10.1281
▁effectively	-10.1282
▁mark	-10.1283
▁supplies	-10.1285
king	-10.1286
▁deck	-10.1288
▁chain	-10.1288
▁protein	-10.1297
▁hire	-10.1302
▁da	-10.1303
▁switch	-10.1303
▁Hill	-10.1305
▁wild	-10.1316
▁cooking	-10.1325
ep	-10.1326
▁News	-10.1332
▁mini	-10.1333
▁seeking	-10.1335
bit	-10.1336
▁layer	-10.1339
▁Hu	-10.1344
▁George	-10.1349
▁Jan	-10.1353
▁electric	-10.1357
OR	-10.1358
book	-10.1365
▁browser	-10.1368
▁Grand	-10.1368
▁Da	-10.1369
▁administration	-10.1375
▁Earth	-10.1381
▁Auto	-10.1382
▁intended	-10.1383
▁removed	-10.1387
ned	-10.1389
▁paying	-10.1393
▁Brown	-10.1401
▁organic	-10.1405
▁View	-10.141
▁bringing	-10.1411
▁inspiration	-10.1415
▁football	-10.1419
▁agent	-10.1419
ped	-10.1429
▁engineering	-10.1432
▁chosen	-10.144
▁updates	-10.144
can	-10.1445
om	-10.1445
▁Wood	-10.1452
▁Lu	-10.1454
▁Commission	-10.1456
▁efficiency	-10.1458
ins	-10.1473
17	-10.1475
▁regularly	-10.1479
▁seemed	-10.1483
▁sitting	-10.1484
▁spirit	-10.1487
▁Tri	-10.1492
▁Special	-10.15
▁cap	-10.1503
lor	-10.1513
▁readers	-10.1515
▁Journal	-10.1517
▁mom	-10.152
▁farm	-10.1528
▁painting	-10.1531
▁Ltd	-10.1532
▁PM	-10.1536
box	-10.1536
ik	-10.1537
▁hundreds	-10.1537
▁domain	-10.1541
▁village	-10.1541
▁Room	-10.1544
gi	-10.1544
▁incredible	-10.155
TA	-10.1555
▁bath	-10.1556
▁celebrate	-10.1559
▁$	-10.1565
▁behavior	-10.1567
IC	-10.1571
ified	-10.1571
▁perspective	-10.1572
▁perfectly	-10.158
▁Wall	-10.1581
ay	-10.1588
▁2018.	-10.1593
▁Oh	-10.1594
▁greatest	-10.1597
▁accounts	-10.1598
▁plate	-10.1604
▁mis	-10.1607
▁Ver	-10.1611
ara	-10.1614
▁Israel	-10.1615
▁manual	-10.1617
▁Award	-10.1617
▁secret	-10.1624
▁Learn	-10.163
▁landscape	-10.1631
▁purchased	-10.1632
▁calling	-10.1636
▁fund	-10.1638
▁settings	-10.1641
▁teeth	-10.1643
ming	-10.165
▁failure	-10.1653
ph	-10.1654
▁wonder	-10.1658
▁university	-10.166
▁Mary	-10.166
▁Maybe	-10.1664
▁accurate	-10.1664
▁Medical	-10.1665
▁exam	-10.1668
▁decades	-10.1668
▁discovered	-10.1671
RA	-10.1678
top	-10.1682
▁cook	-10.1683
which	-10.1683
▁Women	-10.1686
▁Back	-10.1686
LE	-10.1687
▁45	-10.1687
▁revenue	-10.1687
▁crusher	-10.1688
▁infrastructure	-10.1689
▁contemporary	-10.1711
▁saving	-10.1711
▁Western	-10.1712
▁district	-10.1717
▁favourite	-10.1719
▁Ke	-10.1722
▁truck	-10.1728
▁kit	-10.173
▁determined	-10.1731
ji	-10.1736
▁African	-10.174
▁portion	-10.174
▁teach	-10.1744
▁brown	-10.1751
▁Minister	-10.1752
▁reduced	-10.1755
▁rear	-10.1757
▁buildings	-10.1757
▁lifestyle	-10.176
▁transition	-10.1767
▁battle	-10.1773
▁coach	-10.1774
▁Japanese	-10.1774
500	-10.1774
▁y	-10.1777
ip	-10.1788
tor	-10.1795
▁assets	-10.1803
▁trained	-10.1804
▁writer	-10.1814
▁topics	-10.1816
▁fields	-10.1843
ps	-10.1845
▁interests	-10.1868
▁bio	-10.1869
lan	-10.1869
▁Tom	-10.1872
▁Live	-10.1874
▁instructions	-10.1878
▁drivers	-10.1882
▁standing	-10.1885
▁residential	-10.1888
▁significantly	-10.1892
▁Instead	-10.1892
▁Part	-10.1893
▁Ro	-10.1894
▁edition	-10.1896
35	-10.1897
▁earn	-10.1899
▁except	-10.1901
▁Which	-10.1902
▁Sometimes	-10.1908
fa	-10.1922
▁throw	-10.1924
pt	-10.1929
▁ease	-10.1931
▁recovery	-10.1934
▁ta	-10.1936
low	-10.1938
▁external	-10.1941
▁Set	-10.1943
▁supporting	-10.1954
▁dogs	-10.1958
▁aim	-10.1968
ura	-10.1976
▁conduct	-10.1977
row	-10.1984
▁Fire	-10.1986
▁count	-10.1999
ery	-10.1999
▁Conference	-10.2004
▁symptoms	-10.2005
▁Land	-10.2008
▁mass	-10.2012
.00	-10.2015
▁adult	-10.2025
▁nine	-10.2031
▁ran	-10.2033
▁command	-10.2035
▁procedures	-10.2035
▁lights	-10.2036
▁yes	-10.2036
town	-10.2036
▁cup	-10.2036
▁implementation	-10.2037
▁App	-10.204
▁Press	-10.2045
▁considering	-10.2047
▁proposed	-10.2049
OS	-10.2052
▁exist	-10.2052
▁lived	-10.206
ot	-10.2064
▁identified	-10.2066
dis	-10.2071
▁HD	-10.2078
▁bigger	-10.2079
▁Having	-10.208
ile	-10.208
▁carried	-10.2082
▁League	-10.2091
▁lo	-10.2093
▁Asia	-10.2094
▁nor	-10.2097
ware	-10.2099
▁apps	-10.2102
sa	-10.2106
▁arm	-10.2109
▁successfully	-10.2112
▁Site	-10.2116
▁camp	-10.2117
ub	-10.212
▁leather	-10.212
▁walls	-10.2127
▁Code	-10.2127
▁Har	-10.2127
▁Watch	-10.213
▁worldwide	-10.2132
▁5.	-10.2139
▁mouth	-10.2142
mon	-10.2146
▁cent	-10.2149
▁examples	-10.215
▁template	-10.215
▁foundation	-10.2155
▁Smith	-10.2155
▁issued	-10.2157
▁historical	-10.2169
▁Full	-10.2171
▁dating	-10.2171
▁discount	-10.2175
ants	-10.2175
▁premium	-10.2176
▁pack	-10.2176
chi	-10.2177
▁causes	-10.218
▁sport	-10.2184
▁affected	-10.2185
see	-10.2185
▁exclusive	-10.2188
▁interface	-10.2188
▁treated	-10.219
▁silver	-10.2194
▁guy	-10.2194
▁EU	-10.2197
▁Arts	-10.221
▁Sam	-10.221
▁luxury	-10.2211
▁sheet	-10.2216
▁seconds	-10.2217
▁engagement	-10.2219
ff	-10.2234
our	-10.2236
▁studio	-10.2237
▁assessment	-10.2238
act	-10.2239
▁brother	-10.224
▁carefully	-10.2243
▁occur	-10.2246
....	-10.2248
▁vs	-10.2251
▁Wa	-10.2255
▁innovation	-10.2259
▁improvement	-10.2262
▁smile	-10.2264
▁river	-10.2269
▁dollars	-10.2272
▁sizes	-10.2275
pre	-10.2276
▁collaboration	-10.2277
▁receiving	-10.2285
-3	-10.2286
tin	-10.229
▁2008	-10.2294
▁garage	-10.2302
▁mountain	-10.2303
▁remote	-10.2304
▁parent	-10.2308
▁Therefore	-10.2317
▁Chi	-10.2319
▁submit	-10.2322
▁equal	-10.2323
▁Search	-10.2327
▁Ni	-10.2336
▁Canadian	-10.2337
31	-10.2337
mb	-10.2339
23	-10.234
▁Russian	-10.234
stone	-10.2343
▁quiet	-10.2344
▁solar	-10.2353
▁Very	-10.2353
▁sessions	-10.2358
▁kinds	-10.2359
▁glad	-10.236
▁represent	-10.2361
▁whom	-10.2361
28	-10.2362
▁charges	-10.2368
▁knowing	-10.2375
▁upper	-10.2376
▁Did	-10.2377
▁executive	-10.2381
▁mill	-10.2387
▁Finally	-10.2393
▁chat	-10.2398
▁broken	-10.2404
ons	-10.2405
▁tasks	-10.2412
▁cake	-10.2413
▁ticket	-10.2417
▁CEO	-10.2419
▁sauce	-10.2426
▁na	-10.2427
▁2009	-10.2427
IA	-10.243
▁soil	-10.2433
▁arrived	-10.2434
▁rare	-10.2437
▁loans	-10.2442
▁remaining	-10.2443
44	-10.2443
▁phase	-10.2448
che	-10.2452
▁Students	-10.2453
▁Ab	-10.2459
▁privacy	-10.2463
▁About	-10.2465
▁signs	-10.2466
▁tests	-10.2467
▁Italian	-10.2468
yl	-10.2472
▁motion	-10.2476
▁massive	-10.248
33	-10.2484
55	-10.2486
▁impressive	-10.2488
PS	-10.2491
▁knows	-10.2505
istic	-10.2505
fer	-10.2507
▁du	-10.2509
ek	-10.2509
▁expand	-10.2509
▁Royal	-10.251
▁Congress	-10.2512
ok	-10.2516
▁engage	-10.2517
▁grown	-10.252
▁accepted	-10.252
▁hardware	-10.2521
▁answers	-10.2522
▁trend	-10.253
▁NOT	-10.253
▁pot	-10.2536
▁defined	-10.2536
▁stunning	-10.2536
▁defense	-10.2541
▁awareness	-10.2541
▁Human	-10.2541
mi	-10.2549
▁accident	-10.2556
▁golf	-10.2561
▁constantly	-10.2563
▁par	-10.2565
▁compare	-10.2571
▁patterns	-10.2577
▁Children	-10.2585
▁vital	-10.2592
▁pen	-10.2593
▁qualified	-10.2605
99	-10.2607
▁joy	-10.2621
▁description	-10.2621
▁Gar	-10.2622
▁cycle	-10.2627
MS	-10.2631
▁Control	-10.2633
ade	-10.2636
ose	-10.2636
▁outstanding	-10.2637
▁OR	-10.2638
▁investors	-10.2641
ki	-10.2655
▁Ja	-10.2655
▁Series	-10.266
▁exact	-10.2664
▁integrated	-10.2669
▁Review	-10.267
▁native	-10.2671
form	-10.2671
don	-10.2672
▁shoes	-10.2674
▁u	-10.2685
▁accessible	-10.2693
▁destination	-10.2694
▁gear	-10.2696
▁Cup	-10.2702
▁vacation	-10.2704
▁married	-10.2706
▁reasonable	-10.271
▁typical	-10.271
▁feels	-10.2712
▁criminal	-10.2713
▁Welcome	-10.272
▁trail	-10.2722
▁candidates	-10.2728
▁Buy	-10.2728
▁Town	-10.2729
▁agencies	-10.2738
ID	-10.2738
▁imagine	-10.274
▁regional	-10.2741
▁component	-10.2745
▁skill	-10.2749
▁featured	-10.2749
▁flexible	-10.2751
▁failed	-10.2752
▁UN	-10.2753
▁concerned	-10.2762
▁diverse	-10.2769
▁Middle	-10.2771
▁RE	-10.2772
▁conducted	-10.2781
ita	-10.2782
▁po	-10.279
pping	-10.2794
▁expectations	-10.2796
▁airport	-10.2797
▁frequently	-10.2801
▁officials	-10.2803
▁domestic	-10.2803
▁butter	-10.2803
▁appeal	-10.281
▁relatively	-10.2819
▁concern	-10.2823
▁Looking	-10.2826
▁challenging	-10.2832
▁crew	-10.2833
▁searching	-10.2835
▁MA	-10.2836
▁foods	-10.2836
▁everyday	-10.2837
36	-10.2838
ola	-10.284
▁ha	-10.284
100	-10.2844
▁holds	-10.2851
This	-10.2853
▁operate	-10.286
27	-10.286
▁vi	-10.2862
▁bottle	-10.2863
”,	-10.2867
▁beat	-10.2876
▁pm	-10.2876
▁cable	-10.288
▁solve	-10.2881
▁desk	-10.2883
▁planned	-10.2886
▁MP	-10.289
-2	-10.2891
▁Festival	-10.2891
▁Hospital	-10.2896
▁Dan	-10.2902
▁youth	-10.2904
CC	-10.2904
▁Support	-10.2904
▁upcoming	-10.2908
▁architecture	-10.291
▁honor	-10.2913
▁appeared	-10.2914
▁Fa	-10.2914
▁entertainment	-10.2918
▁log	-10.2921
▁institutions	-10.2925
▁medicine	-10.2925
▁freedom	-10.2928
EN	-10.2928
▁concrete	-10.2944
▁recorded	-10.2947
▁election	-10.2954
set	-10.2955
▁happening	-10.2962
▁yellow	-10.2962
You	-10.2962
SC	-10.2963
▁sides	-10.2965
▁speaking	-10.2972
▁preparation	-10.2975
▁messages	-10.2976
▁taught	-10.2977
▁AS	-10.2982
▁Through	-10.2983
▁Come	-10.2987
▁Enjoy	-10.2988
▁employment	-10.2992
▁stated	-10.2998
▁Paris	-10.2998
AS	-10.3003
▁stick	-10.3014
▁extended	-10.3015
▁300	-10.3016
▁Dec	-10.3017
▁aspect	-10.3019
▁gun	-10.3021
▁joint	-10.3021
▁emotional	-10.3035
▁theory	-10.3038
water	-10.3044
▁brief	-10.3051
▁adventure	-10.3056
▁begins	-10.3059
▁Gu	-10.3067
▁twice	-10.3071
▁television	-10.3074
▁van	-10.3082
▁programme	-10.3082
▁matters	-10.3099
▁fourth	-10.31
▁apartment	-10.3106
▁hosting	-10.3108
▁Ga	-10.3108
▁Thomas	-10.3112
▁degrees	-10.3117
▁Game	-10.3118
▁partnership	-10.3123
▁circumstances	-10.3123
▁boost	-10.3125
▁manufacturer	-10.3132
▁recognized	-10.3133
▁facing	-10.3135
▁featuring	-10.3137
▁IP	-10.3144
▁bi	-10.3145
▁choosing	-10.3166
▁serves	-10.3167
▁jump	-10.317
▁Start	-10.3173
▁mail	-10.3173
03	-10.3183
▁machines	-10.3185
▁Energy	-10.3192
hr	-10.3193
▁removal	-10.3195
▁scientific	-10.3204
ions	-10.3208
▁Bio	-10.3208
▁gallery	-10.3208
▁atmosphere	-10.3209
▁forces	-10.3213
▁Russia	-10.3214
▁carbon	-10.3218
si	-10.3222
▁electrical	-10.3223
▁spiritual	-10.3226
▁Word	-10.3231
ker	-10.3232
PA	-10.324
▁closer	-10.3244
▁willing	-10.3245
AM	-10.3249
▁depth	-10.3271
▁resume	-10.3282
ST	-10.3285
▁payments	-10.3293
▁caught	-10.3295
▁reflect	-10.3299
▁boy	-10.3302
▁carpet	-10.3304
▁Martin	-10.3306
US	-10.3307
ological	-10.3308
▁apart	-10.3326
▁Digital	-10.3328
ear	-10.3333
▁capable	-10.3335
▁meetings	-10.3338
▁houses	-10.3341
▁usual	-10.3342
▁default	-10.3344
▁tech	-10.3345
ES	-10.3357
lon	-10.3358
▁situations	-10.3366
95	-10.3369
▁regulations	-10.3371
▁routine	-10.3373
▁surprise	-10.3376
▁expression	-10.3377
gar	-10.3386
▁styles	-10.3388
▁2003	-10.3389
▁Look	-10.3394
▁closely	-10.3397
▁healthcare	-10.3398
▁William	-10.3403
right	-10.3404
▁Key	-10.3408
▁entirely	-10.3409
▁virtual	-10.3413
▁yesterday	-10.3413
▁Small	-10.3414
▁scheduled	-10.3419
▁contrast	-10.3422
34	-10.3422
AR	-10.3423
▁Pe	-10.3435
▁kick	-10.3437
▁equipped	-10.344
▁alcohol	-10.344
ct	-10.344
▁agents	-10.3442
▁formed	-10.3445
ious	-10.3446
▁End	-10.3447
▁agreed	-10.3447
▁designer	-10.3452
▁sister	-10.3458
▁obtained	-10.346
▁powder	-10.3462
▁identity	-10.3466
▁height	-10.3469
▁drugs	-10.347
▁killed	-10.3475
▁2017.	-10.3483
88	-10.3485
▁Sha	-10.3492
▁monitoring	-10.3492
nic	-10.3498
rate	-10.3498
▁Travel	-10.3499
▁worse	-10.3508
AP	-10.351
▁acid	-10.3513
▁technique	-10.3513
IS	-10.3516
▁Access	-10.3519
▁Mexico	-10.3526
▁framework	-10.3526
wi	-10.3529
ala	-10.353
▁clothes	-10.3536
▁dish	-10.3536
bb	-10.3538
▁Academy	-10.3539
",	-10.3539
ib	-10.3543
▁Class	-10.3545
tter	-10.3548
▁nearby	-10.355
▁grant	-10.3551
AC	-10.3552
▁Unfortunately	-10.3559
▁shares	-10.3563
▁informed	-10.3563
▁Shop	-10.3564
▁mortgage	-10.3564
ren	-10.3569
He	-10.3576
▁fly	-10.3576
▁label	-10.3579
▁plays	-10.358
ged	-10.3583
tz	-10.3585
▁crucial	-10.3588
38	-10.3592
berg	-10.3592
▁kid	-10.3597
▁AM	-10.3598
▁certified	-10.3602
▁cute	-10.3602
▁Fund	-10.3602
▁finance	-10.3607
▁missed	-10.3613
▁Federal	-10.3624
▁collected	-10.3625
▁oven	-10.3625
▁protected	-10.3627
▁wheel	-10.3627
▁objects	-10.3629
▁sa	-10.3634
ising	-10.3635
with	-10.3638
ute	-10.3638
▁convenient	-10.3639
▁Help	-10.364
48	-10.364
iv	-10.3642
ick	-10.3647
▁liquid	-10.3649
▁dumpster	-10.365
▁Cross	-10.3653
▁2019.	-10.3655
gu	-10.3656
▁trends	-10.3662
▁generate	-10.3662
ru	-10.3665
▁researchers	-10.3666
▁charged	-10.3667
▁inches	-10.3667
▁dynamic	-10.3668
ification	-10.367
▁reduction	-10.3672
▁Angeles	-10.3673
▁Order	-10.3677
▁Visit	-10.3679
▁Store	-10.3679
cha	-10.3681
iz	-10.3687
ble	-10.3693
▁mixed	-10.3693
▁winner	-10.3697
▁ancient	-10.3703
▁Chris	-10.3704
▁lessons	-10.3705
▁urban	-10.3705
▁hurt	-10.371
▁Cor	-10.3711
sp	-10.3716
▁soul	-10.3718
▁Obama	-10.3722
▁mixture	-10.3724
39	-10.3725
▁dental	-10.3727
▁border	-10.3729
▁workshop	-10.373
▁logo	-10.373
▁movies	-10.3735
▁bread	-10.3737
▁photography	-10.3738
▁talent	-10.3743
▁stars	-10.3743
▁monitor	-10.3744
TS	-10.3748
02	-10.375
▁fell	-10.3751
▁booking	-10.3751
▁exposure	-10.3753
▁MS	-10.3758
▁ski	-10.3758
▁noticed	-10.3766
▁strategic	-10.3767
ny	-10.3773
▁printed	-10.3776
▁quote	-10.3784
▁planet	-10.3784
▁organized	-10.3785
▁musical	-10.3788
29	-10.3789
▁AC	-10.379
▁dangerous	-10.3805
pi	-10.3806
▁stands	-10.3807
rie	-10.381
kin	-10.3811
ani	-10.3817
▁fishing	-10.3817
▁marriage	-10.3824
▁filter	-10.3824
ov	-10.3833
▁horse	-10.3837
▁bonus	-10.3837
▁membership	-10.3837
▁express	-10.384
▁attached	-10.3844
▁picked	-10.3845
▁pleased	-10.3846
ath	-10.3857
▁candidate	-10.3858
RE	-10.3861
▁gifts	-10.3862
▁Should	-10.3863
▁contest	-10.3867
▁consistent	-10.3868
▁stopped	-10.387
▁returns	-10.3872
▁wearing	-10.3877
▁religious	-10.3883
▁male	-10.3887
cent	-10.3894
▁Professional	-10.39
▁comparison	-10.3901
▁ca	-10.3906
▁tested	-10.3909
▁dealing	-10.3909
ight	-10.3914
▁$3	-10.3917
▁craft	-10.3917
eg	-10.3918
▁noise	-10.3918
▁Spring	-10.3919
▁Video	-10.3925
▁Sch	-10.393
▁turns	-10.3931
▁Pan	-10.3934
▁Lee	-10.3936
▁Despite	-10.3938
▁gorgeous	-10.3939
▁conflict	-10.3942
med	-10.3944
▁accessories	-10.3952
66	-10.3959
quality	-10.396
▁6.	-10.3961
▁mainly	-10.3961
▁Step	-10.3962
▁Carolina	-10.3964
▁broad	-10.3965
▁personally	-10.3965
▁fitness	-10.3968
▁rose	-10.397
▁tiny	-10.3972
▁implement	-10.3979
▁capture	-10.3983
▁savings	-10.3987
▁obvious	-10.3988
▁normally	-10.3992
▁circuit	-10.3993
▁performing	-10.3995
\	-10.3995
▁civil	-10.4002
▁positions	-10.4004
▁Thus	-10.4017
▁profit	-10.4023
▁grew	-10.4026
▁entered	-10.4028
AT	-10.4028
37	-10.4031
▁trans	-10.4035
▁orders	-10.4037
▁Inter	-10.4042
▁historic	-10.4046
▁Santa	-10.4046
tri	-10.405
▁Dis	-10.405
▁Port	-10.405
$	-10.4054
▁guidance	-10.4058
-19	-10.4059
▁Mor	-10.4062
▁Chief	-10.4063
▁Tu	-10.4064
▁improving	-10.4064
▁abuse	-10.4064
▁functional	-10.4066
▁fellow	-10.4066
▁transportation	-10.4066
▁indeed	-10.4069
▁reputation	-10.407
):	-10.408
▁tank	-10.4081
▁Italy	-10.4085
▁managing	-10.4094
▁wire	-10.4097
▁attractive	-10.4098
▁Right	-10.4104
▁Cal	-10.4105
09	-10.4106
▁beer	-10.4108
▁ongoing	-10.4109
▁Library	-10.4112
related	-10.4112
▁Bra	-10.4114
04	-10.4116
ock	-10.4118
log	-10.412
▁spaces	-10.4124
▁index	-10.4126
▁mu	-10.4126
▁Spanish	-10.4128
▁discussed	-10.4128
▁chemical	-10.4128
▁Police	-10.4133
▁campus	-10.4134
▁Mal	-10.4137
▁im	-10.4138
▁evaluation	-10.414
you	-10.4141
▁debate	-10.4141
▁shift	-10.4143
▁2007	-10.4144
65	-10.4145
▁Join	-10.4146
▁forest	-10.4152
▁turning	-10.4155
isation	-10.4157
▁speech	-10.4158
▁approval	-10.416
08	-10.4164
▁flavor	-10.4165
▁Yet	-10.4166
▁sustainable	-10.4166
ations	-10.4167
▁stream	-10.417
▁Te	-10.417
▁storm	-10.4173
);	-10.4173
▁graduate	-10.4173
▁neck	-10.4173
▁desired	-10.4174
class	-10.4176
▁Kitchen	-10.4176
uff	-10.4177
▁consultation	-10.4177
SP	-10.4179
view	-10.4181
av	-10.419
▁moments	-10.4196
▁fe	-10.4196
▁36	-10.4197
cal	-10.4198
MP	-10.4202
▁recognize	-10.4205
▁Virginia	-10.4211
▁48	-10.4213
▁Mu	-10.4217
▁vary	-10.4217
ple	-10.4218
▁Guide	-10.4219
▁neighborhood	-10.4221
gg	-10.4225
▁Area	-10.4226
▁honest	-10.4228
▁Point	-10.4235
▁earned	-10.4236
ini	-10.4241
▁pin	-10.4244
▁grand	-10.4247
▁taxes	-10.4247
CO	-10.4248
5%	-10.4248
ou	-10.425
▁Pat	-10.425
а	-10.4251
▁LA	-10.4252
▁manufacturers	-10.4256
▁lift	-10.4259
▁west	-10.4264
lar	-10.4268
▁resulting	-10.4268
▁crisis	-10.4272
sen	-10.4278
▁constant	-10.4286
▁committee	-10.4286
▁tight	-10.4289
list	-10.429
о	-10.4291
▁Garden	-10.4297
▁Though	-10.43
▁km	-10.4302
war	-10.4302
RC	-10.4303
▁investigation	-10.4309
▁array	-10.4316
▁expenses	-10.4317
▁filed	-10.4318
mit	-10.4318
van	-10.4318
▁portfolio	-10.4323
▁FOR	-10.4339
▁Pi	-10.4343
SS	-10.4345
aw	-10.4346
-10	-10.4357
▁Price	-10.4364
▁flash	-10.4368
▁th	-10.4371
▁unable	-10.4372
ET	-10.4372
▁clothing	-10.4374
▁communicate	-10.4375
▁sl	-10.4376
ase	-10.4379
▁banks	-10.438
▁authority	-10.4383
▁flower	-10.4388
▁pure	-10.4399
▁formal	-10.4401
▁risks	-10.4408
49	-10.4409
▁impossible	-10.4414
▁citizens	-10.4416
▁achieved	-10.4417
▁Hand	-10.4417
▁Line	-10.4421
▁wash	-10.443
▁Mill	-10.4434
▁rice	-10.4435
▁calendar	-10.4437
▁Ireland	-10.4438
▁contribute	-10.444
▁fairly	-10.4441
▁revealed	-10.4446
▁zone	-10.4448
▁confident	-10.4448
▁drawing	-10.4449
▁printing	-10.4451
▁recording	-10.4452
▁z	-10.4454
ella	-10.4455
▁availability	-10.4456
ette	-10.4459
▁7.	-10.4462
▁reporting	-10.4463
▁Executive	-10.4464
tain	-10.4465
▁establish	-10.4469
▁officer	-10.4469
▁arrive	-10.447
▁Cat	-10.4473
▁Farm	-10.4475
▁linked	-10.4476
vin	-10.4477
▁yard	-10.4488
tu	-10.449
▁Building	-10.4497
gan	-10.4507
▁dates	-10.4507
ec	-10.4507
▁mining	-10.4508
▁shops	-10.4511
▁supports	-10.4511
▁leg	-10.4515
▁goods	-10.4518
▁Boston	-10.4521
▁labor	-10.4522
▁Section	-10.4524
▁Mi	-10.4524
▁specialist	-10.4525
ris	-10.4525
▁Little	-10.4531
▁tall	-10.4532
▁boys	-10.4535
▁ocean	-10.4536
ane	-10.4537
▁division	-10.4539
▁Richard	-10.4539
▁attorney	-10.4544
▁originally	-10.4544
▁Bur	-10.4548
85	-10.4548
▁stored	-10.455
▁minor	-10.4553
▁Report	-10.4558
▁hidden	-10.4565
▁layout	-10.4566
more	-10.4568
▁Camp	-10.4568
▁Jersey	-10.4569
▁thin	-10.4569
▁thread	-10.4572
▁ages	-10.4572
▁NY	-10.4573
ez	-10.4573
▁History	-10.4573
ments	-10.4574
ky	-10.458
▁injuries	-10.4581
▁explained	-10.4583
▁Being	-10.4584
▁tip	-10.4585
press	-10.4587
▁resistance	-10.4588
-5	-10.4589
▁laptop	-10.4592
▁DC	-10.4592
▁Such	-10.4596
▁Three	-10.4598
▁primarily	-10.4599
▁vast	-10.46
▁Ch	-10.4602
▁j	-10.4605
▁Instagram	-10.4606
▁Gi	-10.4607
▁Bible	-10.4608
▁represents	-10.4609
▁invest	-10.4612
▁Website	-10.4613
▁forced	-10.4615
fe	-10.462
▁percentage	-10.4626
▁Mike	-10.4628
▁industries	-10.4628
▁visited	-10.4629
▁bridge	-10.463
▁folks	-10.4632
len	-10.4633
▁chief	-10.4636
▁sat	-10.4637
ada	-10.4638
▁Southern	-10.4639
▁Fair	-10.4642
▁invited	-10.4644
mate	-10.4645
▁Insurance	-10.4651
▁root	-10.4651
▁noted	-10.4653
▁valid	-10.4654
▁Young	-10.4657
▁Col	-10.4658
▁founded	-10.4658
▁immediate	-10.4659
▁referred	-10.4661
ender	-10.4669
▁relief	-10.4672
▁Systems	-10.4672
▁afford	-10.4675
▁crowd	-10.4677
▁decade	-10.468
▁Ge	-10.4685
▁listening	-10.4686
-6	-10.4691
▁Va	-10.4692
64	-10.4696
▁Try	-10.47
▁Van	-10.4703
▁episode	-10.4706
▁whenever	-10.4707
▁extension	-10.4711
▁confirm	-10.4712
▁networks	-10.4713
▁Financial	-10.4713
▁magic	-10.4721
▁2002	-10.4722
▁pleasure	-10.4722
▁kill	-10.4726
ens	-10.4726
47	-10.4727
▁Local	-10.4727
▁slot	-10.4733
▁inform	-10.4733
▁ra	-10.4741
▁DO	-10.4742
tech	-10.4742
ari	-10.4742
▁arts	-10.4747
▁enterprise	-10.475
▁bags	-10.4753
▁Need	-10.4758
▁widely	-10.4761
56	-10.4772
IP	-10.478
jo	-10.4781
▁superior	-10.4787
▁describe	-10.4789
▁communications	-10.4791
▁deposit	-10.4792
Co	-10.4793
friendly	-10.4802
▁HP	-10.4805
▁Jack	-10.4805
▁keeps	-10.4808
ju	-10.4808
▁era	-10.4808
▁introduction	-10.4816
▁Second	-10.4817
▁suggested	-10.4823
du	-10.4825
▁dust	-10.4827
law	-10.4828
▁possibility	-10.4832
▁Would	-10.4832
▁platforms	-10.4836
46	-10.4841
▁smell	-10.4843
06	-10.4843
▁increases	-10.4844
á	-10.4845
▁Oil	-10.4852
▁meals	-10.4855
▁none	-10.4856
▁Trust	-10.4856
▁telling	-10.4863
▁favor	-10.4863
▁upload	-10.4866
▁healing	-10.4866
▁tile	-10.4867
▁proven	-10.4867
▁severe	-10.4868
▁certification	-10.487
42	-10.4873
▁elegant	-10.4876
▁clock	-10.4877
▁permanent	-10.488
▁Marketing	-10.4884
▁magazine	-10.4888
▁fail	-10.4889
▁shoot	-10.489
▁narrow	-10.4896
level	-10.4908
▁pricing	-10.4913
mal	-10.4917
▁em	-10.4918
▁ends	-10.4926
▁raw	-10.4927
▁awarded	-10.4927
▁Ru	-10.4929
▁Scott	-10.4931
?"	-10.4937
▁juice	-10.4938
▁row	-10.4938
zi	-10.4941
▁fundamental	-10.4941
▁shooting	-10.4943
TC	-10.4954
▁reader	-10.4957
▁replaced	-10.4961
▁Ba	-10.4965
▁attended	-10.4967
air	-10.4968
CH	-10.4969
nes	-10.4979
ual	-10.4979
▁Stone	-10.498
▁seriously	-10.4986
ug	-10.4986
▁pace	-10.4988
▁submitted	-10.4988
▁Additionally	-10.4988
hand	-10.4998
▁league	-10.5
Pro	-10.5008
▁ordered	-10.5009
▁handling	-10.5022
ett	-10.5023
▁viewed	-10.5024
▁Personal	-10.5025
▁capabilities	-10.503
▁tradition	-10.5033
77	-10.5034
▁differences	-10.5045
▁Mobile	-10.5048
▁luck	-10.505
▁Happy	-10.5051
▁ratio	-10.5051
LA	-10.5053
▁firms	-10.5058
▁2016.	-10.5058
▁Engineering	-10.5059
IL	-10.506
▁peak	-10.506
▁consists	-10.5062
ati	-10.5065
▁satisfaction	-10.5065
▁enables	-10.5069
gue	-10.507
▁inner	-10.5072
▁Americans	-10.5075
▁split	-10.5077
?”	-10.5078
▁principles	-10.5079
▁chose	-10.508
▁ultimate	-10.5083
▁films	-10.5087
▁crime	-10.5087
▁Coast	-10.5093
▁creates	-10.5095
▁prove	-10.5096
▁saved	-10.5098
▁Remember	-10.51
▁integration	-10.5102
Ma	-10.5104
▁festival	-10.5104
▁suffering	-10.5109
▁£	-10.5113
long	-10.5115
▁losing	-10.5116
▁county	-10.5116
▁permission	-10.5116
▁purchasing	-10.5116
CE	-10.5117
▁justice	-10.5117
▁configuration	-10.5121
▁reducing	-10.5129
▁Made	-10.5131
▁duty	-10.5131
▁rating	-10.5134
▁producing	-10.5135
▁covering	-10.5136
▁exhibition	-10.5143
▁realized	-10.5144
▁ultimately	-10.5145
▁<	-10.5145
▁BE	-10.5146
:00	-10.5148
▁categories	-10.5156
pp	-10.5161
ax	-10.5168
▁!	-10.5172
▁lay	-10.5172
▁lock	-10.5175
ther	-10.5176
▁officers	-10.5178
ama	-10.518
▁Ideas	-10.5191
▁Times	-10.5192
▁letters	-10.5192
TH	-10.5195
▁compliance	-10.5195
▁violence	-10.5201
play	-10.5203
▁LED	-10.5204
-4	-10.5205
▁Queen	-10.5205
RI	-10.5207
▁organisation	-10.5209
▁engaged	-10.5209
bu	-10.521
▁password	-10.5213
▁versions	-10.5214
41	-10.5215
▁household	-10.522
▁memories	-10.5221
▁guitar	-10.5223
▁ceiling	-10.5223
ral	-10.5224
▁suffer	-10.5229
▁passing	-10.5232
▁2004	-10.5232
▁transaction	-10.5237
▁papers	-10.5238
▁Ya	-10.5241
▁inch	-10.5241
▁eligible	-10.5242
▁wooden	-10.5242
▁Machine	-10.5243
▁chapter	-10.5243
▁weekly	-10.5243
▁calm	-10.5246
▁authors	-10.5248
▁scheme	-10.5252
▁tells	-10.5253
sk	-10.5257
▁guidelines	-10.5258
▁Model	-10.526
▁List	-10.5261
▁consideration	-10.5264
ica	-10.5273
▁Che	-10.5277
▁Pet	-10.5279
▁pink	-10.5281
▁priority	-10.5283
▁swimming	-10.5289
▁king	-10.5291
▁figures	-10.5291
▁Has	-10.5294
▁developers	-10.5305
▁Sp	-10.5308
▁tag	-10.5313
07	-10.5317
ball	-10.5318
▁IS	-10.5327
▁ST	-10.533
▁tomorrow	-10.533
▁bodies	-10.5331
▁sink	-10.5331
▁Still	-10.5334
▁increasingly	-10.5337
▁thick	-10.5338
Fi	-10.5343
▁somewhere	-10.5344
BA	-10.5345
▁Color	-10.5345
rn	-10.5347
▁proof	-10.5348
▁muscle	-10.5354
▁bird	-10.5355
▁confirmed	-10.5355
▁east	-10.5356
▁Space	-10.5356
▁ensuring	-10.5358
▁YOU	-10.5359
▁SE	-10.5361
▁hang	-10.5366
▁sight	-10.5367
▁Matt	-10.537
▁surprised	-10.5375
For	-10.5379
▁para	-10.5379
▁400	-10.5384
▁Night	-10.5384
br	-10.5384
app	-10.5385
▁blend	-10.5387
har	-10.5388
▁FREE	-10.5389
▁lucky	-10.539
▁tap	-10.539
▁generated	-10.5391
▁Michigan	-10.5393
▁Zealand	-10.5394
site	-10.5396
▁posting	-10.5398
▁signature	-10.5398
▁depends	-10.54
▁pp	-10.5403
▁bear	-10.5409
▁assume	-10.5413
▁Mid	-10.5414
▁Anti	-10.5416
▁Rose	-10.5417
▁sky	-10.5422
▁import	-10.5426
▁objective	-10.5433
▁Training	-10.5434
▁pride	-10.5436
▁Photo	-10.5441
▁exceptional	-10.5446
▁pe	-10.5447
sha	-10.5447
val	-10.5448
ell	-10.5449
ding	-10.545
▁Perhaps	-10.545
▁chart	-10.5453
▁YouTube	-10.5454
▁recommendations	-10.5454
ag	-10.5455
▁setup	-10.5461
vers	-10.5462
ties	-10.547
▁programming	-10.547
▁estimated	-10.547
▁Card	-10.5475
bra	-10.5485
▁driven	-10.5486
▁younger	-10.5491
▁requirement	-10.5492
▁DVD	-10.5494
▁2001	-10.5494
uc	-10.5498
▁Select	-10.5499
▁Com	-10.5501
▁Ph	-10.5503
AD	-10.5503
▁Test	-10.5511
▁coast	-10.5514
▁sending	-10.5516
▁promise	-10.5517
▁displayed	-10.5522
making	-10.5523
▁utilize	-10.5524
200	-10.5525
▁seats	-10.5528
-8	-10.5529
ich	-10.5533
▁involves	-10.5536
▁authorities	-10.5536
▁struggle	-10.5541
▁concerning	-10.5542
▁Force	-10.5542
▁Sub	-10.5547
▁boxes	-10.5551
▁SO	-10.5551
▁whilst	-10.5551
▁managers	-10.5552
▁extent	-10.5552
▁refer	-10.5553
oo	-10.5554
▁smoke	-10.5555
▁applicable	-10.5556
qu	-10.5557
▁supposed	-10.5562
▁SEO	-10.5564
000	-10.5564
rick	-10.5568
▁hotels	-10.5568
▁extreme	-10.5569
▁usage	-10.557
▁occasion	-10.5572
▁debut	-10.5574
▁33	-10.5574
▁$5	-10.5575
▁PDF	-10.5578
ns	-10.5579
▁Living	-10.5583
je	-10.5584
▁factory	-10.5586
▁Johnson	-10.5589
▁checking	-10.559
▁samples	-10.559
▁alongside	-10.5595
▁venture	-10.5596
▁behalf	-10.5598
ken	-10.5603
od	-10.5611
▁·	-10.5613
#	-10.5617
EL	-10.5625
▁commonly	-10.5631
▁transmission	-10.5634
zz	-10.5641
▁writers	-10.5644
▁recipes	-10.5645
▁Modern	-10.5646
nch	-10.5646
▁enjoying	-10.5647
▁Silver	-10.5648
-12	-10.5652
▁preferred	-10.5658
▁arms	-10.5663
star	-10.5664
▁mat	-10.5665
▁grass	-10.5668
cy	-10.567
▁entrance	-10.5672
▁rid	-10.5677
▁tables	-10.5677
▁offices	-10.5681
▁Win	-10.5682
Do	-10.569
▁structures	-10.569
▁slowly	-10.5692
▁Summer	-10.5694
▁classroom	-10.5697
▁Charles	-10.5697
69	-10.5707
!)	-10.5707
▁Software	-10.571
style	-10.5712
ets	-10.5712
▁2,	-10.5713
▁NO	-10.5716
▁wireless	-10.5718
▁Ram	-10.5718
▁Ti	-10.5718
matic	-10.572
▁Northern	-10.5728
▁Sports	-10.5733
▁Box	-10.5735
▁fl	-10.5736
▁faculty	-10.5736
ob	-10.574
▁Drive	-10.5741
how	-10.5742
▁awards	-10.5745
▁spoke	-10.5749
▁controlled	-10.575
▁Pacific	-10.5752
43	-10.5752
▁Airport	-10.5753
are	-10.5753
uck	-10.5759
▁Pay	-10.5763
▁DE	-10.5771
▁sensitive	-10.5772
▁treatments	-10.5774
▁150	-10.5775
▁impression	-10.5776
▁Ten	-10.5784
▁pump	-10.5787
▁naturally	-10.5793
ON	-10.5794
zo	-10.5797
▁channels	-10.5797
▁attract	-10.5799
▁consumption	-10.5803
▁filling	-10.5803
gy	-10.5804
▁definition	-10.5811
PC	-10.5814
az	-10.5817
▁Custom	-10.5818
▁spray	-10.5819
▁mm	-10.582
▁upgrade	-10.582
▁bone	-10.5821
▁lens	-10.5822
▁tab	-10.5824
▁orange	-10.5824
▁hoping	-10.5825
▁connections	-10.5827
▁attacks	-10.5827
▁Hope	-10.5829
▁Cha	-10.5832
▁incredibly	-10.5835
▁volunteer	-10.5835
▁tape	-10.5836
▁Ohio	-10.5838
▁Ball	-10.5841
▁hole	-10.5845
59	-10.5847
▁dishes	-10.5852
▁outcome	-10.5852
].	-10.5862
▁brilliant	-10.5863
▁recognition	-10.5863
▁Way	-10.5865
▁announce	-10.587
▁Chair	-10.5872
▁semi	-10.5874
▁2006	-10.5879
▁maintaining	-10.5879
▁relative	-10.5882
▁giant	-10.5885
unt	-10.5885
▁Steel	-10.5891
▁Frank	-10.5892
▁finest	-10.5893
De	-10.5895
▁module	-10.5902
▁OS	-10.5906
▁Cover	-10.5915
▁joining	-10.5921
▁Sky	-10.5922
nce	-10.5926
▁professor	-10.5927
▁believed	-10.5929
▁visible	-10.593
▁sin	-10.5933
▁Tra	-10.5935
▁potentially	-10.5937
▁listing	-10.5941
▁suggestions	-10.5943
▁stable	-10.5943
-7	-10.5947
▁sum	-10.5949
▁regardless	-10.595
▁Form	-10.5953
▁Professor	-10.5954
▁breast	-10.5961
DE	-10.5963
made	-10.5966
▁codes	-10.5966
▁plot	-10.5968
era	-10.5969
pan	-10.5971
inch	-10.5974
▁liked	-10.5977
▁2015.	-10.5978
cho	-10.5981
▁lesson	-10.5981
▁Cap	-10.5994
▁encounter	-10.5995
▁Page	-10.5996
▁Francisco	-10.5999
▁hall	-10.6003
▁accommodation	-10.6004
▁lab	-10.6006
▁wealth	-10.6006
ole	-10.6021
▁causing	-10.6024
▁ear	-10.6031
rin	-10.6038
▁Tim	-10.604
86	-10.604
▁Nov	-10.6043
▁SP	-10.6043
fully	-10.6044
▁crazy	-10.6046
▁resort	-10.6047
▁expansion	-10.6049
▁acquisition	-10.6063
▁LLC	-10.6063
▁Ed	-10.6064
▁sofa	-10.6065
▁telephone	-10.6065
yn	-10.6073
▁Bridge	-10.6081
▁vegetables	-10.6083
▁threat	-10.6085
cut	-10.6086
▁Smart	-10.6086
▁Steve	-10.6089
▁heating	-10.6089
read	-10.6091
▁herself	-10.6098
▁mirror	-10.6099
▁buyers	-10.6099
▁aircraft	-10.61
▁adjust	-10.6101
nk	-10.6104
tel	-10.6108
▁Image	-10.6108
▁hundred	-10.6113
▁worst	-10.6113
▁$4	-10.6117
▁interactive	-10.6119
including	-10.612
▁requests	-10.6121
▁residence	-10.6123
▁inspection	-10.6128
▁association	-10.613
▁rep	-10.613
▁ne	-10.6131
▁loving	-10.6137
▁blocks	-10.6141
▁Quality	-10.6141
▁lake	-10.6144
life	-10.6146
▁Par	-10.6147
51	-10.615
▁venue	-10.6153
▁Jewish	-10.6156
▁colours	-10.6157
▁victory	-10.6161
▁Off	-10.6162
▁relax	-10.6162
▁streets	-10.6163
▁Andrew	-10.6166
▁eggs	-10.617
▁Georgia	-10.617
▁combine	-10.6171
▁burn	-10.6174
▁skilled	-10.6174
gate	-10.6176
▁basically	-10.6178
▁Spirit	-10.618
▁disc	-10.6189
▁somewhat	-10.6192
▁34	-10.6192
▁diagram	-10.6196
▁graphics	-10.6203
▁https	-10.6206
lie	-10.6208
▁Asian	-10.6211
▁edit	-10.6215
▁outcomes	-10.6216
NA	-10.6218
▁Si	-10.6221
▁amounts	-10.6225
▁tagged	-10.623
▁adds	-10.623
▁anxiety	-10.6231
▁Sign	-10.6231
▁Sal	-10.6238
▁licensed	-10.624
▁statements	-10.6242
▁forever	-10.6242
▁applying	-10.6252
▁approaches	-10.6252
▁liability	-10.6257
▁regard	-10.6259
table	-10.626
52	-10.6264
ern	-10.6265
▁dad	-10.6266
known	-10.6267
▁tissue	-10.6267
▁Colorado	-10.6267
▁downtown	-10.6268
▁convenience	-10.6272
▁council	-10.6272
▁Want	-10.6281
▁egg	-10.6283
▁Main	-10.6283
▁scored	-10.6284
cher	-10.6285
▁warranty	-10.6289
▁packages	-10.6289
57	-10.629
▁USB	-10.6292
▁Jim	-10.6294
▁aside	-10.6296
▁newly	-10.63
▁(2	-10.6302
▁indicate	-10.6306
▁laser	-10.6306
▁Him	-10.6309
▁careful	-10.6312
▁Medicine	-10.6313
▁hi	-10.6313
▁concepts	-10.6318
76	-10.6318
cu	-10.632
▁Joe	-10.632
▁wave	-10.632
▁Mon	-10.6322
▁toilet	-10.6325
▁suppliers	-10.6327
▁extend	-10.6328
▁compensation	-10.633
▁commission	-10.6332
▁Division	-10.6332
▁hip	-10.6334
▁initiative	-10.6338
ye	-10.6338
EC	-10.634
▁imp	-10.634
▁Jones	-10.6344
▁fighting	-10.6345
▁funny	-10.6345
▁suggests	-10.6346
▁anyway	-10.6346
▁composition	-10.6346
LY	-10.6349
▁editor	-10.6352
▁Mountain	-10.6352
▁lawyer	-10.6353
▁drain	-10.6354
▁proposal	-10.6354
▁breath	-10.6357
AN	-10.6359
▁Pen	-10.6368
▁string	-10.6369
win	-10.6369
▁stuck	-10.637
▁wet	-10.6372
2.	-10.6373
▁stainless	-10.6373
▁Saint	-10.6375
▁decrease	-10.6377
▁Gen	-10.6377
▁vintage	-10.638
▁presents	-10.6381
▁conversion	-10.6382
▁alarm	-10.6383
▁Singapore	-10.6383
▁harm	-10.6386
▁birds	-10.6386
▁rely	-10.6393
58	-10.6395
▁functionality	-10.6398
To	-10.6399
▁continuing	-10.6399
▁Games	-10.6401
tes	-10.6411
▁electricity	-10.6411
▁pocket	-10.6412
UR	-10.6413
▁scope	-10.6414
05	-10.6417
▁depend	-10.6419
▁Holy	-10.6422
▁BA	-10.6423
▁arrival	-10.6428
▁refund	-10.6428
▁Gra	-10.643
▁adapt	-10.6435
▁Change	-10.6437
▁Radio	-10.6437
▁Product	-10.6438
BC	-10.6439
ev	-10.644
▁Senior	-10.6442
▁sufficient	-10.6442
Mo	-10.6442
▁SC	-10.6448
▁Kar	-10.6451
▁rail	-10.6451
▁patio	-10.6452
▁marks	-10.6452
▁founder	-10.6452
▁regions	-10.6453
▁formula	-10.6454
ena	-10.6458
98	-10.646
▁Studies	-10.6463
▁volunteers	-10.6465
▁automatic	-10.6465
▁Roman	-10.6473
▁ver	-10.6473
▁holidays	-10.6473
▁Save	-10.6474
▁asset	-10.6476
▁reaction	-10.6489
▁cookies	-10.649
▁directed	-10.6491
▁Film	-10.6492
▁walked	-10.6494
▁Turn	-10.6494
▁File	-10.6495
iness	-10.6496
▁dropped	-10.6496
▁Hot	-10.6499
▁MO	-10.6502
▁ads	-10.6503
▁warning	-10.6503
▁legs	-10.6503
des	-10.6505
▁decor	-10.6507
▁yoga	-10.6508
▁Casino	-10.651
▁millions	-10.6512
▁traveling	-10.6512
▁Four	-10.6513
▁insight	-10.6515
▁Prime	-10.6515
▁column	-10.6516
▁marked	-10.6519
▁scientists	-10.6519
mark	-10.652
▁Cloud	-10.6524
▁opposite	-10.6524
ash	-10.6526
▁loop	-10.6526
▁criteria	-10.6527
▁Based	-10.6533
▁utility	-10.6533
og	-10.6535
▁Fort	-10.6536
▁Estate	-10.6537
▁religion	-10.6538
▁limits	-10.6538
▁representation	-10.654
▁everywhere	-10.6543
home	-10.6544
▁Week	-10.6549
▁Give	-10.6553
▁legislation	-10.6554
▁drinking	-10.6558
▁tracking	-10.656
▁doctors	-10.6561
▁belt	-10.6562
▁bound	-10.6564
▁errors	-10.6565
▁roles	-10.6567
▁bars	-10.6567
▁Brand	-10.6572
▁Mad	-10.6572
▁spa	-10.6572
▁Kit	-10.6573
▁Heart	-10.6573
aries	-10.6582
▁zero	-10.6593
▁angle	-10.6596
vis	-10.6596
key	-10.6597
wing	-10.6599
▁judge	-10.6599
▁carrying	-10.6602
▁eliminate	-10.6603
type	-10.6605
▁hate	-10.6605
▁diseases	-10.6608
▁containing	-10.661
▁Bob	-10.6611
▁Kingdom	-10.6613
▁provision	-10.6613
▁beneficial	-10.6616
▁extract	-10.6616
68	-10.6617
▁Daily	-10.662
▁empty	-10.6621
▁shouldn	-10.6625
▁cruise	-10.6626
run	-10.6626
▁retirement	-10.6629
▁li	-10.6637
67	-10.664
▁nuclear	-10.6643
▁intelligence	-10.6645
▁literature	-10.6645
▁accommodate	-10.6647
▁participation	-10.6647
▁lifetime	-10.6647
!"	-10.665
▁plug	-10.6653
▁contained	-10.6654
uch	-10.6657
▁forecast	-10.6659
▁Forest	-10.6661
▁comp	-10.6662
▁assess	-10.6664
▁wallpaper	-10.6669
▁Guys	-10.667
▁Sh	-10.6675
▁involving	-10.6676
▁Everyone	-10.6677
▁rural	-10.6678
bs	-10.6679
part	-10.6683
▁dreams	-10.6687
▁cabinet	-10.6689
▁politics	-10.669
▁Agreement	-10.6696
▁hosted	-10.6696
▁observed	-10.6698
▁admit	-10.67
▁tracks	-10.6702
▁minimal	-10.6704
▁characteristics	-10.6707
▁spin	-10.6709
▁2005	-10.6711
▁Safety	-10.6711
▁Plant	-10.6712
tan	-10.6715
▁ceremony	-10.6716
▁#1	-10.6717
ski	-10.6718
▁draft	-10.6722
SI	-10.6728
▁Multi	-10.6729
new	-10.673
▁tri	-10.6735
▁museum	-10.6737
▁necessarily	-10.6743
▁representative	-10.6744
▁stretch	-10.6745
▁script	-10.6747
▁damaged	-10.6748
▁Ford	-10.6749
MO	-10.675
ction	-10.6751
GA	-10.6751
▁Capital	-10.6752
▁Tour	-10.6755
▁Greek	-10.6756
▁prize	-10.6756
ore	-10.677
▁respectively	-10.6772
▁fluid	-10.6773
▁den	-10.6774
▁Large	-10.6777
ENT	-10.6783
▁cotton	-10.6784
▁Za	-10.6788
▁panels	-10.6789
▁MI	-10.679
▁Repair	-10.679
▁correctly	-10.6792
▁guaranteed	-10.6793
▁Spain	-10.6795
▁till	-10.6797
▁delivering	-10.6797
▁introduce	-10.6797
af	-10.6801
▁3-	-10.6801
▁Sale	-10.6802
53	-10.6809
ory	-10.6811
▁durable	-10.6813
▁unexpected	-10.6813
▁branch	-10.6813
▁requested	-10.6814
▁(1	-10.6814
▁sick	-10.6816
▁exposed	-10.6816
▁feelings	-10.6819
▁photographs	-10.6819
▁plain	-10.6824
83	-10.6834
care	-10.6838
fo	-10.684
No	-10.6841
del	-10.6845
▁facts	-10.6847
▁acts	-10.685
lia	-10.6851
▁icon	-10.6851
▁FL	-10.6855
▁Paper	-10.6856
▁random	-10.6856
▁greatly	-10.686
▁Dar	-10.6863
▁Collection	-10.6864
▁convert	-10.6865
▁Non	-10.6867
▁matches	-10.6869
▁specified	-10.6869
▁AT	-10.6869
Ro	-10.6871
ata	-10.6873
▁false	-10.6876
▁sharp	-10.6878
▁fence	-10.6878
▁assistant	-10.6883
▁flexibility	-10.6887
54	-10.6889
bed	-10.689
▁Corporation	-10.6891
lam	-10.6893
▁Williams	-10.6896
▁concert	-10.6899
▁celebration	-10.6899
▁relation	-10.6902
▁Oct	-10.6905
▁complicated	-10.6906
▁delay	-10.6906
3.	-10.6907
ale	-10.6908
▁publication	-10.6919
▁corn	-10.6925
▁personality	-10.6938
▁maintained	-10.6938
TV	-10.694
▁75	-10.6944
state	-10.6945
▁Hard	-10.6948
▁focuses	-10.6949
▁Natural	-10.6949
▁twenty	-10.6952
pen	-10.6956
▁prison	-10.6962
▁poll	-10.6962
▁inspire	-10.6969
lock	-10.6969
cur	-10.697
▁ro	-10.6974
▁distinct	-10.6978
▁preparing	-10.6981
▁mood	-10.6981
▁forum	-10.6983
▁opt	-10.6985
ition	-10.6995
▁Without	-10.6999
▁Learning	-10.6999
▁trailer	-10.6999
▁grab	-10.7
▁el	-10.7001
▁accordance	-10.7003
▁highlight	-10.7004
▁implemented	-10.7006
▁PR	-10.7011
link	-10.7011
▁sad	-10.7012
What	-10.7013
▁42	-10.7014
mor	-10.7015
▁gained	-10.7019
▁encouraged	-10.7029
rt	-10.703
▁frequency	-10.7031
▁closing	-10.7031
ese	-10.7032
▁shut	-10.7032
▁engaging	-10.7033
▁Ann	-10.7035
ular	-10.7035
▁centers	-10.7036
▁literally	-10.7037
▁employer	-10.704
zy	-10.7041
▁studying	-10.7042
▁Bal	-10.7043
▁staying	-10.7046
▁certificate	-10.7046
ient	-10.7047
▁pa	-10.7048
▁improvements	-10.7048
▁Choose	-10.7049
▁argument	-10.7052
▁stronger	-10.7053
get	-10.7056
79	-10.7058
▁Due	-10.7059
▁Following	-10.706
▁occurred	-10.7061
▁PS	-10.7062
▁sections	-10.7065
cm	-10.7071
▁Micro	-10.7073
▁gaming	-10.7073
▁examination	-10.7079
▁minister	-10.7084
▁unusual	-10.7084
72	-10.7085
mat	-10.7086
96	-10.709
▁Station	-10.7093
▁existence	-10.7094
▁addresses	-10.7094
ric	-10.7095
▁riding	-10.7099
▁Ac	-10.71
▁chairs	-10.7101
▁designers	-10.7102
▁packaging	-10.7107
▁transactions	-10.7109
▁container	-10.7109
ria	-10.7113
▁Catholic	-10.7113
lt	-10.7115
▁tube	-10.7118
py	-10.7123
▁rack	-10.7123
▁salad	-10.7123
▁expressed	-10.7124
nu	-10.7129
hour	-10.713
rant	-10.7131
date	-10.7137
▁mile	-10.7138
MC	-10.7138
▁trigger	-10.7138
▁passionate	-10.7139
▁humans	-10.714
▁ban	-10.714
▁speaker	-10.7142
▁Britain	-10.7144
▁Easy	-10.7151
▁Limited	-10.7151
▁demonstrate	-10.7153
lit	-10.7155
▁visitor	-10.7156
▁Experience	-10.7157
▁exploring	-10.7159
▁drinks	-10.7161
▁shell	-10.7164
▁controls	-10.7166
rich	-10.717
ans	-10.7171
▁Ku	-10.7173
▁heading	-10.7173
▁largely	-10.7174
▁Rev	-10.7174
that	-10.718
▁packed	-10.7181
4.	-10.7182
▁pulled	-10.7184
▁Annual	-10.7184
▁represented	-10.7189
xi	-10.7191
▁Bre	-10.7197
TO	-10.7197
▁37	-10.7198
[	-10.7199
▁loose	-10.7201
▁strange	-10.7203
▁shots	-10.7206
▁rapidly	-10.721
▁equivalent	-10.721
▁der	-10.7217
▁cur	-10.7217
sch	-10.7221
▁worship	-10.7222
DA	-10.7222
1.	-10.7224
▁personnel	-10.7233
▁SA	-10.7235
Le	-10.7235
▁Fall	-10.7237
▁Agency	-10.7239
▁desktop	-10.724
▁Justice	-10.7241
▁escape	-10.7243
87	-10.7244
▁facilitate	-10.7248
▁hook	-10.725
▁ju	-10.725
▁©	-10.725
DS	-10.7252
rated	-10.7254
97	-10.7255
▁interaction	-10.7257
▁wa	-10.7259
▁Mel	-10.7259
▁com	-10.726
▁brush	-10.7262
▁occurs	-10.7262
▁Daniel	-10.7264
OL	-10.7267
▁Bro	-10.7267
0%	-10.7268
▁steam	-10.7269
91	-10.727
▁obviously	-10.7276
▁Mer	-10.7277
▁Nu	-10.7279
▁Tax	-10.7281
▁Rob	-10.7287
▁lowest	-10.729
▁retain	-10.7291
ign	-10.7296
cast	-10.73
▁moves	-10.7305
hy	-10.7305
78	-10.7307
▁lease	-10.7308
▁Country	-10.7309
rk	-10.7312
▁segment	-10.7314
▁Below	-10.7315
profit	-10.7315
din	-10.7317
▁secondary	-10.7319
TE	-10.7322
▁talks	-10.7322
▁aims	-10.7329
▁incident	-10.7329
put	-10.733
uring	-10.7332
▁baking	-10.7332
▁strive	-10.7333
▁Unit	-10.7334
▁speakers	-10.7345
▁prime	-10.7346
▁assembly	-10.7347
▁Irish	-10.7348
▁Disney	-10.7349
▁Low	-10.7353
▁Beautiful	-10.7354
If	-10.7355
par	-10.7356
▁gap	-10.7357
▁supplement	-10.7358
▁repairs	-10.7359
▁Far	-10.736
▁focusing	-10.7361
▁showcase	-10.7363
▁2018,	-10.7366
89	-10.7367
ero	-10.7372
▁und	-10.7374
▁responses	-10.7375
▁inventory	-10.7375
▁dual	-10.7377
▁authentic	-10.7378
▁moral	-10.7378
als	-10.7381
▁colleagues	-10.7383
ates	-10.7385
▁Mount	-10.7386
▁behaviour	-10.7387
▁flying	-10.7387
▁mg	-10.7387
▁Ve	-10.7388
▁rubber	-10.7389
▁define	-10.739
ill	-10.7392
▁drawn	-10.7395
▁principal	-10.7396
▁Gallery	-10.7397
▁Ask	-10.7399
▁transformation	-10.74
▁Toronto	-10.74
▁completion	-10.7402
▁Cook	-10.7404
▁Ocean	-10.7404
▁clicking	-10.7404
ks	-10.7405
▁38	-10.7408
▁iPad	-10.7409
▁demands	-10.741
▁Private	-10.7412
▁spots	-10.7415
La	-10.7415
ox	-10.7416
1,	-10.7418
ake	-10.7419
▁stages	-10.742
▁lies	-10.742
▁graphic	-10.7421
ele	-10.7424
62	-10.7428
some	-10.7432
ense	-10.7438
▁succeed	-10.7441
▁accuracy	-10.7441
▁examine	-10.7442
▁talked	-10.7443
▁texture	-10.7445
▁chances	-10.7449
▁Bu	-10.7452
▁Available	-10.7453
▁ho	-10.7455
▁reception	-10.7457
▁subjects	-10.7459
▁Think	-10.7461
▁deeper	-10.7462
▁contribution	-10.7464
93	-10.7465
▁plane	-10.7466
▁roads	-10.7468
▁compact	-10.7473
sis	-10.7475
▁gathering	-10.7481
▁formation	-10.7481
ME	-10.7482
▁instant	-10.7483
▁workshops	-10.7485
▁entitled	-10.7489
▁8.	-10.7491
▁poker	-10.7495
▁Ser	-10.7497
▁ME	-10.7502
she	-10.7505
▁del	-10.7507
▁Type	-10.7508
▁arrange	-10.7508
▁painted	-10.7508
▁1990	-10.751
▁Senate	-10.751
ians	-10.7512
▁pounds	-10.7514
▁entering	-10.7514
▁faced	-10.7516
pers	-10.7516
▁mono	-10.7522
▁1999	-10.7524
▁estimate	-10.7525
▁granted	-10.7525
▁Simply	-10.7526
▁stylish	-10.7526
▁statistics	-10.7527
▁AI	-10.7529
ros	-10.7533
▁2014.	-10.7535
▁differ	-10.7539
▁absolute	-10.7543
▁Fe	-10.7546
▁dr	-10.755
▁API	-10.755
▁conventional	-10.7551
▁Square	-10.7552
qua	-10.7554
▁exit	-10.7557
▁flu	-10.7558
▁appointed	-10.7559
CI	-10.7564
▁fits	-10.7564
▁sensor	-10.7564
▁DNA	-10.7564
”)	-10.7566
63	-10.7569
hn	-10.757
▁strongly	-10.757
▁follows	-10.7572
▁rising	-10.7575
▁Studio	-10.7578
▁acting	-10.7579
▁crash	-10.7579
ctor	-10.758
▁trips	-10.7582
▁childhood	-10.7587
▁Village	-10.7588
▁studied	-10.7588
aka	-10.7593
▁transform	-10.7593
▁excess	-10.7594
▁gender	-10.76
▁satisfied	-10.76
spir	-10.7601
▁repeat	-10.7604
FA	-10.7605
▁dollar	-10.7606
▁explains	-10.7607
▁tournament	-10.7608
▁illness	-10.7616
▁vo	-10.7618
▁Illinois	-10.7618
ida	-10.7619
▁Furthermore	-10.762
▁Son	-10.7622
▁Content	-10.7622
▁2017,	-10.7628
▁Awards	-10.7628
▁floors	-10.7634
atory	-10.7636
ld	-10.7637
▁Father	-10.7641
▁Blog	-10.7642
▁attending	-10.7642
▁accounting	-10.7646
▁intense	-10.7647
▁bedrooms	-10.7647
▁jo	-10.7647
▁bills	-10.7651
Me	-10.7654
▁massage	-10.7657
▁Policy	-10.7658
ving	-10.766
▁wrap	-10.7661
▁Republic	-10.7665
▁WordPress	-10.7666
sky	-10.7668
▁continuous	-10.7668
▁Name	-10.7672
▁Again	-10.7673
Be	-10.7679
▁Administration	-10.768
▁Tech	-10.7683
shire	-10.7686
▁Working	-10.7686
▁loves	-10.7688
eb	-10.7689
▁Computer	-10.769
▁pipe	-10.7692
300	-10.7692
▁Motor	-10.7692
ula	-10.7696
▁creativity	-10.7698
▁intellectual	-10.7706
▁southern	-10.7709
▁remained	-10.7709
ux	-10.771
▁interact	-10.7711
▁evaluate	-10.7711
cc	-10.7712
▁MD	-10.7716
▁tub	-10.7717
▁lu	-10.772
▁pleasant	-10.7722
▁Create	-10.7727
▁bra	-10.7727
74	-10.7728
illa	-10.7729
▁64	-10.7734
▁scores	-10.7735
▁NC	-10.7736
▁bo	-10.7739
▁Mat	-10.7741
▁Army	-10.7743
▁Perfect	-10.7743
▁Secretary	-10.7745
▁des	-10.7748
▁9.	-10.7749
▁findings	-10.7752
▁mar	-10.7761
▁temporary	-10.7761
▁Rights	-10.7763
▁Sand	-10.7765
amp	-10.7765
▁stations	-10.7766
▁Field	-10.7772
▁consent	-10.7774
▁invite	-10.7777
▁promotion	-10.7777
▁cord	-10.7779
mes	-10.7784
▁gym	-10.7787
▁Link	-10.7788
sia	-10.7789
▁objectives	-10.779
▁Samsung	-10.7791
▁illegal	-10.7792
▁processor	-10.7794
▁boot	-10.7794
▁ON	-10.7797
▁anymore	-10.7798
▁mechanical	-10.7798
ify	-10.7798
▁shade	-10.7798
▁Action	-10.7798
HA	-10.7802
▁acquired	-10.7802
▁heads	-10.7804
▁pepper	-10.7804
▁tie	-10.7805
▁sequence	-10.7805
▁resolve	-10.7807
▁stability	-10.7807
▁unknown	-10.7811
▁settlement	-10.7812
▁operated	-10.7812
▁subscription	-10.7816
▁explanation	-10.7818
gle	-10.7819
▁blind	-10.7823
▁phones	-10.7826
▁Among	-10.7829
itis	-10.7837
▁Moreover	-10.7837
▁Houston	-10.7838
bury	-10.7846
foot	-10.7849
▁sole	-10.7853
▁Spa	-10.7855
▁Pass	-10.7856
▁layers	-10.7857
▁acquire	-10.7859
▁solo	-10.786
▁Cro	-10.786
▁engines	-10.7864
▁Eastern	-10.7865
▁flooring	-10.7866
▁Share	-10.7866
▁alive	-10.7867
▁initially	-10.7871
▁reaching	-10.7874
oma	-10.7875
▁bunch	-10.7876
▁relations	-10.7876
bin	-10.7877
▁headed	-10.7883
▁sought	-10.7884
▁Vo	-10.7885
▁strip	-10.7885
▁admission	-10.7886
▁workplace	-10.7887
▁promoting	-10.7888
bound	-10.7889
▁ending	-10.7891
▁checked	-10.7891
▁55	-10.7897
▁120	-10.7901
▁assigned	-10.7903
▁Interior	-10.7903
▁emphasis	-10.7904
▁OK	-10.7906
▁understood	-10.7908
▁bid	-10.7909
▁Tree	-10.7911
cat	-10.7915
▁math	-10.7916
92	-10.7917
-20	-10.7917
▁documentation	-10.7919
▁reveal	-10.7923
▁detect	-10.7923
▁hopes	-10.7926
▁Standard	-10.7927
▁mask	-10.7927
vert	-10.7931
▁Alex	-10.7937
▁Complete	-10.7937
▁Joseph	-10.7939
▁laid	-10.7942
94	-10.7943
▁Golden	-10.7944
card	-10.7945
pri	-10.7945
▁Max	-10.7945
▁Ste	-10.7946
-9	-10.7946
▁su	-10.7949
▁Creek	-10.795
▁copyright	-10.7952
▁sc	-10.7957
▁equally	-10.7959
▁diversity	-10.7959
▁chronic	-10.796
▁fabulous	-10.7962
▁prayer	-10.7963
82	-10.7965
▁indoor	-10.7966
▁predict	-10.7967
pur	-10.7968
°	-10.7971
▁adopted	-10.7981
▁Korea	-10.7983
▁seed	-10.7983
▁mod	-10.7984
▁hike	-10.7984
▁tone	-10.7985
▁smartphone	-10.7987
▁Cur	-10.799
▁templates	-10.7999
▁afraid	-10.8001
▁scan	-10.8006
▁65	-10.8007
▁tu	-10.8009
MI	-10.8012
▁mess	-10.8017
84	-10.8023
iti	-10.8035
▁trusted	-10.8036
▁directory	-10.8038
vy	-10.804
▁harder	-10.8042
▁swing	-10.8045
▁advantages	-10.8048
▁decent	-10.8048
ened	-10.805
▁guard	-10.8052
IR	-10.8053
▁tired	-10.8058
▁injured	-10.806
▁ALL	-10.806
eh	-10.8067
▁wake	-10.8072
▁emerging	-10.8072
▁Mini	-10.8074
▁gentle	-10.8074
PO	-10.8074
▁printer	-10.8077
▁Ministry	-10.8078
▁symbol	-10.8079
▁dive	-10.8082
▁backup	-10.8083
▁hide	-10.8085
▁neither	-10.8087
2,	-10.8087
▁exterior	-10.8089
▁tooth	-10.8089
▁Comp	-10.809
▁racing	-10.8093
▁flights	-10.8094
ali	-10.8094
▁believes	-10.8096
▁Kim	-10.8102
▁Tor	-10.8102
ency	-10.8105
▁User	-10.8106
▁Mag	-10.8107
▁Everything	-10.811
▁buyer	-10.811
▁hanging	-10.8112
▁twin	-10.8112
▁Customer	-10.8113
▁Age	-10.8114
▁possess	-10.8115
▁casual	-10.8116
▁consequences	-10.8119
▁resident	-10.8122
mann	-10.8124
▁Fast	-10.813
▁Mother	-10.813
▁farmers	-10.8133
▁breaking	-10.8134
▁Credit	-10.8135
▁viewing	-10.8137
▁mold	-10.8138
ew	-10.814
▁genuine	-10.8144
▁Student	-10.8146
▁Sydney	-10.8146
▁belief	-10.8147
▁rapid	-10.8152
▁Stock	-10.8159
▁Down	-10.8162
▁currency	-10.8162
▁environments	-10.8163
▁Em	-10.8163
▁gather	-10.817
▁Gas	-10.817
▁Miss	-10.8171
▁productivity	-10.8171
800	-10.8171
▁journal	-10.8172
▁2.0	-10.8174
GB	-10.8174
▁Louis	-10.8175
▁Avenue	-10.8177
▁relating	-10.8178
▁permit	-10.8179
▁origin	-10.8183
▁seeds	-10.8183
dale	-10.8184
▁trim	-10.8186
▁cart	-10.8186
▁gene	-10.8192
▁abilities	-10.8198
▁initiatives	-10.8204
▁singer	-10.8205
▁Account	-10.8207
▁quotes	-10.8211
▁respective	-10.8215
ado	-10.8218
▁decline	-10.8222
▁cm	-10.8227
▁reform	-10.8231
▁organisations	-10.8232
▁reserve	-10.8233
▁^	-10.8236
▁safely	-10.8238
▁substantial	-10.824
Bo	-10.824
fin	-10.8242
ult	-10.8243
▁anniversary	-10.8245
▁recall	-10.8246
▁contractors	-10.825
▁min	-10.8251
▁tons	-10.8251
late	-10.8252
▁networking	-10.8253
▁mechanism	-10.8253
▁grey	-10.8253
▁experiment	-10.8254
dia	-10.8255
▁flour	-10.8257
▁pilot	-10.8257
▁Band	-10.8258
▁hiring	-10.8259
lf	-10.8259
▁participating	-10.826
▁Description	-10.8261
▁lemon	-10.8261
▁falling	-10.827
ject	-10.8272
▁displays	-10.8273
▁Was	-10.8273
oon	-10.8273
▁Net	-10.8276
73	-10.8283
BS	-10.8283
▁suspect	-10.8285
▁Adam	-10.8285
▁franchise	-10.8288
▁attitude	-10.8292
▁Products	-10.8293
′′	-10.8294
▁meets	-10.8295
tle	-10.8297
▁Officer	-10.8299
▁thousand	-10.8303
▁translation	-10.8303
▁yards	-10.8304
▁lets	-10.8305
▁Arizona	-10.8307
▁coat	-10.8309
▁deeply	-10.8312
▁institution	-10.8316
bel	-10.8318
▁Sales	-10.832
▁prescription	-10.8325
▁50%	-10.833
▁wiring	-10.8336
▁servers	-10.8336
▁computers	-10.8337
▁Run	-10.8337
▁invention	-10.834
▁maps	-10.8341
ico	-10.8341
▁ranging	-10.8343
ona	-10.8348
NO	-10.8352
▁jacket	-10.8354
▁voter	-10.8355
▁distributed	-10.8357
▁Shi	-10.8359
▁suite	-10.836
▁restore	-10.8361
▁grateful	-10.8361
61	-10.8362
▁hat	-10.8363
RO	-10.8363
▁bold	-10.8367
▁foam	-10.837
▁Wild	-10.8373
▁broadcast	-10.8373
▁Sound	-10.8375
▁advise	-10.8375
▁accomplish	-10.8377
с	-10.8378
▁2016,	-10.838
▁mi	-10.8383
▁persons	-10.8386
▁ch	-10.8387
▁Cu	-10.8387
▁pray	-10.839
▁wondering	-10.8391
ö	-10.8392
EM	-10.8392
dic	-10.8395
▁Kids	-10.8397
IM	-10.8397
▁screening	-10.8403
▁FA	-10.8404
▁situated	-10.8404
▁ownership	-10.8406
▁compete	-10.8409
▁regulatory	-10.8411
▁jewelry	-10.8411
face	-10.8412
eo	-10.8413
▁poly	-10.8417
ators	-10.8417
▁nose	-10.8417
non	-10.8418
▁artwork	-10.8418
▁spacious	-10.8419
ene	-10.842
▁Bell	-10.8423
í	-10.8428
▁Mass	-10.8428
▁fiber	-10.8429
ius	-10.843
▁39	-10.8431
▁Server	-10.8431
▁claimed	-10.8435
▁ni	-10.8437
ters	-10.8438
▁consistently	-10.8439
▁lie	-10.8442
8%	-10.8444
▁golden	-10.8445
▁publish	-10.8446
▁1000	-10.8447
mus	-10.8454
▁raising	-10.8454
ston	-10.8456
▁returning	-10.8458
▁lists	-10.8458
▁directions	-10.8459
▁satellite	-10.8469
▁hasn	-10.847
▁Feb	-10.8471
▁spectacular	-10.8471
▁tackle	-10.8472
▁enforcement	-10.8472
▁western	-10.8474
▁cameras	-10.8475
▁genetic	-10.8475
▁Ash	-10.8476
place	-10.8477
▁diabetes	-10.8478
▁Crusher	-10.8478
▁Ever	-10.8479
▁ill	-10.8479
▁Grant	-10.8483
▁medication	-10.8485
▁globe	-10.8487
▁Sta	-10.8487
▁Season	-10.8487
▁emails	-10.8488
▁(1)	-10.8492
▁talented	-10.8495
ture	-10.8497
▁clip	-10.8498
▁insights	-10.8499
▁indicated	-10.8501
▁contributions	-10.8501
▁holes	-10.8502
▁employed	-10.8502
▁analyze	-10.8503
▁exists	-10.8505
▁expanded	-10.8506
▁terminal	-10.8507
▁Min	-10.8509
lot	-10.8509
▁Roll	-10.8512
▁bond	-10.8512
▁flag	-10.8513
eng	-10.8513
Con	-10.8514
▁Number	-10.8516
met	-10.8519
▁investments	-10.8523
▁Cy	-10.8525
▁elected	-10.8527
lay	-10.8528
▁Vegas	-10.8528
ili	-10.853
▁specialized	-10.8532
▁amongst	-10.8533
▁shoulder	-10.8535
▁connecting	-10.8536
▁fault	-10.8539
hal	-10.8542
▁operational	-10.8544
▁philosophy	-10.8546
▁Trade	-10.8548
tte	-10.8552
400	-10.8553
▁judgment	-10.8557
▁Stephen	-10.8557
▁fa	-10.856
▁Theatre	-10.8561
▁closet	-10.8562
ups	-10.8563
-0	-10.8565
▁Lab	-10.8567
▁importantly	-10.8572
OP	-10.8574
▁temperatures	-10.8575
ste	-10.8577
▁ob	-10.858
и	-10.8581
▁slip	-10.8581
▁contracts	-10.8582
gram	-10.8583
▁bug	-10.8585
▁supplier	-10.8587
ches	-10.859
▁meaningful	-10.8593
▁foster	-10.8597
▁Pra	-10.86
pin	-10.8602
▁loud	-10.8602
▁coaching	-10.8606
▁Within	-10.8607
▁audit	-10.8608
▁span	-10.8613
▁aimed	-10.8614
▁Glass	-10.8616
▁bulk	-10.8616
▁murder	-10.862
▁mistakes	-10.8623
▁newsletter	-10.8623
SU	-10.8623
▁sophisticated	-10.8625
ika	-10.8633
▁portable	-10.8634
▁intend	-10.8636
str	-10.8636
▁chest	-10.864
▁arch	-10.8642
▁watched	-10.8644
ome	-10.8647
fire	-10.8648
▁tension	-10.8652
▁CT	-10.8652
▁Scotland	-10.8654
▁compatible	-10.8654
▁yield	-10.8654
▁brick	-10.8656
▁Forum	-10.8658
▁44	-10.8658
▁2013.	-10.8659
▁bomb	-10.8663
▁suffered	-10.8663
▁emotions	-10.8663
▁coal	-10.8664
▁charity	-10.8668
DI	-10.867
▁editing	-10.867
71	-10.8671
▁demo	-10.8671
▁chip	-10.8674
▁tail	-10.8674
▁que	-10.8675
▁Member	-10.8676
sure	-10.8676
▁constructed	-10.8678
▁infection	-10.868
▁Ken	-10.868
▁weapons	-10.8681
▁gr	-10.8682
▁possibilities	-10.8683
▁involve	-10.8685
▁soup	-10.8685
▁specialists	-10.8686
▁climb	-10.8686
▁employers	-10.8687
kar	-10.8689
▁Columbia	-10.8689
▁Henry	-10.8698
▁swim	-10.8699
▁depression	-10.8702
wan	-10.8702
▁Taylor	-10.8705
▁Civil	-10.8708
▁latter	-10.8709
▁def	-10.8712
fish	-10.8712
▁applies	-10.8713
▁Solutions	-10.8713
▁pizza	-10.8714
▁abroad	-10.8714
▁)	-10.8721
AA	-10.8722
ography	-10.8724
▁Map	-10.8725
▁Follow	-10.873
▁(“	-10.8732
▁grip	-10.8733
▁generic	-10.8735
▁drama	-10.8736
▁pursue	-10.8737
OC	-10.8739
▁Protection	-10.8739
EA	-10.874
▁01	-10.8747
▁Oak	-10.875
▁survive	-10.8751
▁patch	-10.8755
struct	-10.8762
lands	-10.8763
▁Put	-10.8767
▁Fo	-10.8767
▁twist	-10.877
▁instrument	-10.8771
▁weak	-10.8776
▁artificial	-10.8777
▁receipt	-10.8777
▁1980	-10.8778
ically	-10.8779
▁sexual	-10.8781
▁engineers	-10.8782
▁Fox	-10.8784
▁frequent	-10.8784
▁Cost	-10.8785
▁spell	-10.8786
▁Trans	-10.8787
▁crack	-10.8792
▁nursing	-10.8792
€	-10.8792
▁fireplace	-10.8793
▁Ryan	-10.8797
▁merely	-10.8798
▁Jr	-10.8799
▁Hong	-10.88
sta	-10.8803
▁designing	-10.8804
▁Level	-10.8804
▁faces	-10.8808
tric	-10.8809
scale	-10.881
▁Arm	-10.8811
▁wanting	-10.8812
▁Mrs	-10.8815
▁op	-10.8816
▁motivation	-10.8817
▁signals	-10.8817
▁measured	-10.8817
▁combat	-10.8818
▁Las	-10.8822
▁mistake	-10.8825
▁parameters	-10.8826
▁exception	-10.8828
▁Kong	-10.8828
▁Chapter	-10.8829
▁sorry	-10.8831
▁1998	-10.8832
▁overcome	-10.8836
▁Doctor	-10.884
▁customized	-10.884
▁1:	-10.8842
▁circle	-10.8843
▁Para	-10.8846
▁olive	-10.8848
7%	-10.8849
▁Winter	-10.885
▁Op	-10.8853
▁mount	-10.8854
▁strike	-10.8861
▁stood	-10.8865
▁instruction	-10.8865
▁treasure	-10.8867
▁financing	-10.8867
▁handy	-10.8869
▁Course	-10.8876
int	-10.8878
world	-10.8879
▁quilt	-10.8879
▁developer	-10.888
My	-10.8883
ched	-10.8883
uri	-10.8888
ea	-10.8888
Ex	-10.8888
▁Fi	-10.8891
▁10%	-10.8892
▁experiencing	-10.8894
▁Ci	-10.8896
cer	-10.8897
▁stayed	-10.8899
▁nights	-10.89
▁northern	-10.8902
▁Jackson	-10.8902
▁forth	-10.8905
▁shock	-10.8909
▁mountains	-10.8911
▁representatives	-10.8914
▁quantity	-10.8915
▁beautifully	-10.8918
▁reserved	-10.892
rry	-10.8921
▁Pennsylvania	-10.8921
post	-10.8921
▁highlights	-10.8923
▁Ray	-10.8924
▁conclusion	-10.8924
▁weren	-10.8926
▁evil	-10.8927
▁roots	-10.8927
▁fitting	-10.8927
▁spare	-10.8928
▁~	-10.8928
▁600	-10.893
▁divorce	-10.8931
hol	-10.8931
▁Size	-10.8937
▁Gri	-10.8937
▁1/2	-10.8938
▁Cam	-10.8938
▁officially	-10.8939
▁boards	-10.8941
▁enhanced	-10.8942
▁matching	-10.8943
▁rough	-10.8946
▁curriculum	-10.8949
▁Republican	-10.895
▁Ban	-10.8951
▁targeted	-10.8957
▁keyboard	-10.8961
▁losses	-10.8969
▁banking	-10.897
▁gate	-10.8971
▁Print	-10.8972
▁NEW	-10.8974
▁beds	-10.8977
zer	-10.898
gal	-10.8981
▁passage	-10.8982
81	-10.8982
code	-10.8987
▁recover	-10.8989
▁Phil	-10.8989
duc	-10.8991
▁fi	-10.8991
▁WA	-10.8992
▁Boy	-10.8993
▁scratch	-10.8996
ami	-10.8999
▁investing	-10.8999
▁Figure	-10.9002
▁opinions	-10.9004
▁establishment	-10.9004
▁couch	-10.9006
cap	-10.9007
just	-10.9013
▁struggling	-10.9018
▁export	-10.9019
▁tender	-10.9023
▁Express	-10.9024
▁Furniture	-10.9029
▁hits	-10.9029
http	-10.903
gging	-10.9033
▁controller	-10.9034
▁BC	-10.9036
▁equity	-10.9037
service	-10.9037
▁seal	-10.9039
▁Clean	-10.904
▁podcast	-10.9041
▁expense	-10.9041
▁Classic	-10.9042
▁Sen	-10.9043
▁finger	-10.9044
▁rolling	-10.9045
▁trick	-10.9046
▁pit	-10.9053
▁41	-10.9055
▁Pick	-10.9058
▁Brian	-10.9061
▁cooked	-10.9063
▁ft	-10.9065
▁essentially	-10.9067
ram	-10.9072
▁campaigns	-10.9073
wn	-10.9073
▁wider	-10.9074
▁narrative	-10.9078
gon	-10.9081
store	-10.9085
band	-10.9085
rit	-10.9087
▁Dream	-10.9093
even	-10.9098
▁worn	-10.9103
▁overview	-10.9106
wear	-10.9106
ü	-10.9109
▁newest	-10.9109
▁periods	-10.911
▁mattress	-10.9112
▁Located	-10.9112
▁photograph	-10.9114
▁reverse	-10.9118
▁cheaper	-10.9119
▁vibrant	-10.9122
ä	-10.9123
▁Ju	-10.9124
▁Meanwhile	-10.9124
▁Fu	-10.9126
gra	-10.9128
Lo	-10.9128
▁Iran	-10.9129
▁Hello	-10.9129
mic	-10.9129
▁Val	-10.9129
▁wheels	-10.913
▁exhibit	-10.913
▁union	-10.9132
lip	-10.9136
▁VA	-10.9136
▁actively	-10.9139
PR	-10.914
▁languages	-10.9141
▁principle	-10.9145
▁Angel	-10.9146
▁GA	-10.9147
PM	-10.9148
▁Nick	-10.9149
▁»	-10.9155
▁Currently	-10.9156
yo	-10.9157
▁bull	-10.9158
▁pitch	-10.9158
tru	-10.916
▁sha	-10.9164
▁Austin	-10.9164
▁crystal	-10.9171
▁AR	-10.9174
aya	-10.9175
▁consult	-10.9175
▁(2)	-10.9177
▁cluster	-10.9178
▁vertical	-10.9179
▁Article	-10.9183
HS	-10.9185
▁copies	-10.9186
▁universities	-10.9189
▁flood	-10.9191
▁Stay	-10.9193
▁2-	-10.9195
▁Pack	-10.9196
▁scenes	-10.9198
▁Golf	-10.9205
▁alert	-10.9206
▁variable	-10.9206
▁suddenly	-10.9207
▁describes	-10.9208
▁efficiently	-10.9208
berry	-10.9209
▁heritage	-10.9217
▁themes	-10.9219
▁locally	-10.922
▁Cre	-10.9221
▁contractor	-10.9222
▁letting	-10.9222
▁tablet	-10.9223
FC	-10.9225
▁administrative	-10.9229
▁Electric	-10.923
▁finishing	-10.9232
▁discounts	-10.9233
▁amenities	-10.9243
och	-10.9245
cus	-10.9246
▁Short	-10.9248
▁Seattle	-10.9248
cia	-10.9251
▁overnight	-10.9254
▁Baby	-10.9258
▁lit	-10.9258
▁optimal	-10.926
▁2015,	-10.9261
▁auction	-10.9262
▁Exchange	-10.9262
▁cre	-10.9263
▁nutrition	-10.9266
▁difficulty	-10.9266
vent	-10.9266
▁odd	-10.9267
▁concentration	-10.9268
▁moderate	-10.9268
▁photographer	-10.9271
▁instruments	-10.9273
ace	-10.9278
▁shelter	-10.928
▁newspaper	-10.928
▁coupon	-10.928
ison	-10.9281
▁DJ	-10.9282
▁trash	-10.9283
▁artistic	-10.9285
▁seller	-10.9287
▁cuts	-10.9288
▁agenda	-10.9293
▁ga	-10.9298
▁wi	-10.93
▁modified	-10.93
▁divided	-10.93
▁neuro	-10.9301
▁Cut	-10.9302
6.	-10.9307
▁Er	-10.9308
▁Letter	-10.9308
▁universe	-10.9312
▁2012.	-10.9313
▁sentence	-10.9314
▁Yu	-10.9314
▁Del	-10.9315
▁scrap	-10.932
▁chips	-10.9321
high	-10.9322
▁rarely	-10.9322
ora	-10.9327
▁Challenge	-10.9331
cul	-10.9331
▁vendors	-10.9331
ano	-10.9335
▁Connect	-10.9336
▁Along	-10.9338
▁AL	-10.9338
â	-10.9339
▁Han	-10.9344
▁surely	-10.9345
▁appreciated	-10.9346
▁trace	-10.9346
▁Marine	-10.9353
▁Cool	-10.9354
▁sing	-10.9355
▁reply	-10.9356
▁Sarah	-10.9356
▁rated	-10.936
▁indicates	-10.9361
▁wise	-10.9361
ending	-10.9361
serv	-10.9362
▁fifth	-10.9364
from	-10.9364
▁Miami	-10.9367
▁neutral	-10.937
▁victim	-10.9376
▁250	-10.9379
ku	-10.9379
CP	-10.938
▁relaxing	-10.9382
▁victims	-10.9383
▁fraud	-10.9383
meter	-10.9385
▁WE	-10.9385
▁mouse	-10.9387
take	-10.9387
▁instantly	-10.939
▁cooperation	-10.9391
▁integrate	-10.9391
▁broke	-10.9392
▁Eric	-10.9392
▁Construction	-10.9393
pper	-10.9394
UN	-10.9394
▁iOS	-10.9396
Al	-10.9398
▁Child	-10.9399
▁Sir	-10.9401
▁titles	-10.9401
▁ministry	-10.9405
▁precious	-10.9405
▁2020	-10.9406
▁grid	-10.9409
▁Besides	-10.941
range	-10.941
▁makeup	-10.9414
▁everybody	-10.9415
atic	-10.9418
▁Nor	-10.9424
▁robust	-10.9426
▁Gal	-10.9427
▁complement	-10.9427
▁processed	-10.9431
As	-10.9433
▁Finance	-10.9434
▁gotten	-10.9435
▁appliances	-10.9439
▁virtually	-10.9439
su	-10.944
▁aged	-10.9442
▁producer	-10.9443
▁surrounded	-10.9446
▁1997	-10.9447
▁Case	-10.9448
6%	-10.9449
▁Self	-10.9451
NC	-10.9452
▁manufactured	-10.9454
▁diagnosis	-10.9455
bal	-10.9455
▁removing	-10.9456
LI	-10.9459
▁ensures	-10.9461
▁pets	-10.9464
gent	-10.9465
rid	-10.9466
▁Bed	-10.9466
▁personalized	-10.9469
There	-10.947
market	-10.9471
▁heavily	-10.9474
▁arrangements	-10.9481
▁delivers	-10.9482
▁Six	-10.9484
▁clubs	-10.9486
▁Resort	-10.9487
▁duration	-10.9487
▁ought	-10.9492
wer	-10.9492
▁remarkable	-10.9499
▁Easter	-10.9502
▁universal	-10.9503
▁basketball	-10.9503
▁subsequent	-10.951
▁stack	-10.951
▁Source	-10.9515
▁visits	-10.9516
▁shapes	-10.9517
▁Author	-10.9518
▁Supreme	-10.952
‘	-10.9521
▁Jeff	-10.9524
-11	-10.9525
▁strain	-10.9533
▁publishing	-10.9534
▁Gift	-10.9536
▁Wedding	-10.9538
▁addressed	-10.9539
▁uniform	-10.954
name	-10.954
fu	-10.9546
▁crown	-10.9552
▁Practice	-10.9554
▁supplied	-10.9554
▁sw	-10.9556
▁Meeting	-10.9558
▁HR	-10.9559
month	-10.956
▁FIG	-10.9565
▁profession	-10.9565
TI	-10.9572
▁Double	-10.9574
▁moon	-10.9578
▁folder	-10.9578
▁Donald	-10.9579
▁meters	-10.9582
wide	-10.9582
▁Single	-10.9582
▁Magazine	-10.9583
tive	-10.9585
print	-10.9585
▁romantic	-10.9586
▁Hol	-10.9587
▁prominent	-10.9588
EE	-10.9588
ui	-10.9589
page	-10.9589
▁Prior	-10.959
▁charm	-10.9593
▁Diego	-10.9594
▁hero	-10.9594
3%	-10.9595
▁outfit	-10.9596
▁;	-10.9598
▁intervention	-10.9599
ked	-10.9603
▁boss	-10.9606
▁hub	-10.9607
▁collections	-10.9611
▁witness	-10.9611
▁fewer	-10.9613
▁blow	-10.9614
▁bite	-10.9618
▁damages	-10.9619
▁Unlike	-10.9622
▁attempts	-10.9629
▁scenario	-10.9631
▁Hollywood	-10.9632
▁bass	-10.9639
▁Things	-10.9645
▁Never	-10.9647
▁representing	-10.965
▁laugh	-10.9652
game	-10.9655
▁edited	-10.9656
▁Halloween	-10.9656
1)	-10.9658
GE	-10.9659
▁thoroughly	-10.9661
▁wisdom	-10.9664
▁vice	-10.9667
▁province	-10.9669
▁oral	-10.9669
▁prompt	-10.967
UM	-10.9673
PI	-10.9676
▁Ze	-10.9676
▁substance	-10.9678
▁Study	-10.9681
▁4-	-10.9681
▁CC	-10.9682
▁Moon	-10.9683
▁reviewed	-10.9687
▁coloring	-10.9689
▁lawn	-10.9689
▁shaped	-10.9689
▁Pu	-10.969
▁restoration	-10.9691
▁grill	-10.9692
▁apparently	-10.9694
And	-10.9694
under	-10.9696
aire	-10.9705
ister	-10.9708
New	-10.9709
▁shirt	-10.971
▁$10	-10.9712
cycl	-10.9713
▁Quick	-10.9713
gin	-10.9719
nny	-10.9719
▁theater	-10.9724
▁Vice	-10.9725
▁happiness	-10.9725
▁rec	-10.9726
▁superb	-10.9729
▁washing	-10.973
phone	-10.973
▁1970	-10.9731
VA	-10.9732
▁heal	-10.9733
▁Industry	-10.9735
▁sheets	-10.9735
▁Latin	-10.9737
craft	-10.9739
▁insert	-10.9739
▁aluminum	-10.974
▁Melbourne	-10.974
MB	-10.9741
▁copper	-10.9742
▁Application	-10.9742
rus	-10.9743
▁Bus	-10.9743
▁stroke	-10.9744
7.	-10.9745
▁drill	-10.9745
lum	-10.975
▁Oregon	-10.975
elle	-10.9751
▁NA	-10.9751
▁rank	-10.9752
▁resulted	-10.9754
ا	-10.976
FF	-10.9768
▁Direct	-10.9769
▁CS	-10.9769
▁hopefully	-10.9771
▁completing	-10.9772
▁Ly	-10.9774
▁Holiday	-10.9775
▁tonight	-10.9778
▁Style	-10.9782
▁mild	-10.9783
▁Ri	-10.9785
▁discussions	-10.9785
ban	-10.9787
▁announcement	-10.9787
▁pregnancy	-10.9787
▁apple	-10.9789
▁Ontario	-10.979
ima	-10.9791
▁capability	-10.9796
▁Several	-10.9797
▁voltage	-10.9798
ben	-10.9799
▁Ob	-10.98
▁duties	-10.98
sey	-10.9803
1%	-10.9805
SD	-10.9807
▁Electronic	-10.9811
▁Clear	-10.9812
▁Bathroom	-10.9812
▁burden	-10.9813
▁Dave	-10.9816
▁strengthen	-10.9817
▁integrity	-10.9817
▁Early	-10.9821
oli	-10.9822
▁dramatic	-10.9825
▁1996	-10.9829
▁Environmental	-10.983
▁keys	-10.9831
ancy	-10.9832
▁impressed	-10.9834
▁picking	-10.9834
▁alter	-10.9835
plan	-10.9835
▁investigate	-10.9836
tar	-10.9838
▁dose	-10.9839
Qu	-10.9844
▁singing	-10.9848
-18	-10.9849
load	-10.9849
▁signing	-10.9853
bus	-10.9853
▁placement	-10.9855
burg	-10.9856
front	-10.9857
▁Len	-10.9858
▁beaches	-10.9859
▁disk	-10.9859
▁endless	-10.986
▁Further	-10.9862
▁Ol	-10.9866
▁Date	-10.9866
▁Tea	-10.9867
most	-10.9875
▁regulation	-10.9876
▁ultra	-10.988
▁tours	-10.9881
cing	-10.9881
▁Advanced	-10.9881
▁tourist	-10.9884
▁Prince	-10.9885
▁Door	-10.9887
▁earnings	-10.9891
▁parallel	-10.9895
▁1.5	-10.9897
▁browse	-10.9899
▁balanced	-10.9901
▁Sri	-10.9902
▁ed	-10.9902
▁cooling	-10.9903
▁generator	-10.9905
▁wildlife	-10.9905
▁grace	-10.9907
▁bin	-10.9911
▁RA	-10.9912
▁disaster	-10.9913
▁Bring	-10.9915
▁adopt	-10.9918
minute	-10.9918
▁Update	-10.992
▁vinyl	-10.992
▁muscles	-10.9923
▁Much	-10.9923
▁comply	-10.9924
DC	-10.9925
lee	-10.9929
yard	-10.993
test	-10.993
▁selecting	-10.9934
▁Delhi	-10.9936
▁dump	-10.9937
▁1)	-10.9937
▁filing	-10.9943
vol	-10.9943
▁evolution	-10.9947
verse	-10.9947
:30	-10.9949
So	-10.9953
▁convey	-10.9953
▁discovery	-10.9955
▁interviews	-10.9956
grade	-10.9957
ef	-10.9957
у	-10.9958
ration	-10.9959
▁46	-10.9959
▁targets	-10.996
▁opens	-10.9963
▁Vol	-10.9963
▁theatre	-10.9963
▁perception	-10.9967
▁beef	-10.9968
▁operator	-10.9968
CS	-10.9969
▁falls	-10.997
▁modify	-10.9972
▁Cell	-10.9972
RP	-10.9974
▁si	-10.9975
▁ordinary	-10.9978
▁Trail	-10.9978
▁competitors	-10.9979
▁organize	-10.998
▁Property	-10.9981
LC	-10.9981
▁Euro	-10.9984
▁Bear	-10.9987
onic	-10.9987
pot	-10.9988
OT	-10.9989
▁fruits	-10.999
▁curve	-10.9991
▁Simon	-10.9995
▁tower	-10.9995
▁elections	-10.9997
▁Organization	-10.9999
dom	-10.9999
▁Mom	-11.0001
▁Matthew	-11.0002
▁bacteria	-11.0003
▁Turkey	-11.0009
▁Ali	-11.0009
▁cabinets	-11.001
▁shine	-11.0014
▁Nice	-11.0014
▁dealer	-11.0014
▁productive	-11.0016
▁sectors	-11.0016
yan	-11.0018
▁Bull	-11.0018
▁Enter	-11.0018
▁Elizabeth	-11.0019
▁fascinating	-11.0021
burn	-11.0023
▁moisture	-11.0029
▁Manchester	-11.0029
dal	-11.0033
rum	-11.0034
▁arranged	-11.0035
▁corresponding	-11.0035
master	-11.0036
round	-11.0036
▁Overall	-11.0038
▁fiction	-11.0038
▁Minnesota	-11.0041
▁wins	-11.0043
▁sleeping	-11.0046
▁navigate	-11.0047
▁Eye	-11.0047
fl	-11.0048
ert	-11.0048
▁hill	-11.005
person	-11.0054
▁Aug	-11.0057
via	-11.0062
▁Track	-11.0066
▁entity	-11.0067
RS	-11.0069
▁Pakistan	-11.0069
cor	-11.0071
▁ink	-11.0072
▁graduated	-11.0077
▁toys	-11.0078
▁manufacture	-11.008
▁passes	-11.008
▁dirt	-11.0081
▁clinic	-11.0082
▁Philadelphia	-11.0082
▁cabin	-11.0083
▁lasting	-11.0086
▁diameter	-11.0087
▁Victoria	-11.0089
▁Nature	-11.009
2)	-11.0092
▁parks	-11.0098
rac	-11.0101
▁Always	-11.0101
▁Iron	-11.0102
▁incorporate	-11.0105
source	-11.0106
▁honey	-11.0106
▁Planning	-11.0107
▁deserve	-11.0112
▁adequate	-11.0113
stein	-11.0114
▁absence	-11.0116
▁fastest	-11.0117
▁Total	-11.0118
▁49	-11.012
▁aesthetic	-11.0121
mel	-11.0121
▁elsewhere	-11.0122
▁III	-11.0122
▁Too	-11.0128
▁versus	-11.0129
▁inspiring	-11.013
▁demonstrated	-11.0133
▁fleet	-11.0138
▁(3	-11.0138
▁hydro	-11.0139
▁precise	-11.0139
▁breed	-11.014
▁rescue	-11.014
▁generations	-11.0141
ira	-11.0144
▁expanding	-11.0144
м	-11.0146
▁dough	-11.0146
▁reflection	-11.0146
▁proved	-11.0148
▁somehow	-11.015
▁survival	-11.0152
▁shake	-11.0152
acy	-11.0154
▁Resume	-11.0154
▁measurement	-11.0161
▁preserve	-11.0161
▁possession	-11.0163
An	-11.0166
phy	-11.0168
▁Heat	-11.0169
▁Cancer	-11.0171
▁cha	-11.0171
▁52	-11.0172
▁Fresh	-11.0175
▁locate	-11.0177
▁popularity	-11.0177
▁interpretation	-11.0181
ei	-11.0181
▁pad	-11.0181
tail	-11.0182
▁bay	-11.0183
▁pest	-11.0184
▁2014,	-11.0187
▁peaceful	-11.0188
2%	-11.0189
piece	-11.0189
▁edges	-11.019
▁chamber	-11.0191
▁protecting	-11.0194
▁sh	-11.0195
▁excellence	-11.0198
▁Hills	-11.02
▁summary	-11.0201
▁Close	-11.0201
▁army	-11.0203
▁burning	-11.0205
rr	-11.0207
col	-11.0208
▁Rad	-11.021
")	-11.0213
▁arrangement	-11.0214
nn	-11.0217
▁Memorial	-11.0219
▁Ham	-11.022
▁immune	-11.0224
▁Yo	-11.0225
ivity	-11.0225
▁jar	-11.0231
▁underlying	-11.0232
▁provisions	-11.0234
hole	-11.0236
▁5-	-11.0237
▁waves	-11.0237
▁Round	-11.0239
pu	-11.024
logy	-11.0241
▁lady	-11.0243
▁43	-11.0245
▁Democratic	-11.0246
LS	-11.0247
▁cor	-11.0247
▁surfaces	-11.025
▁Nothing	-11.0252
tom	-11.0253
▁Enterprise	-11.0258
▁Performance	-11.0261
▁opposed	-11.0261
▁gray	-11.0262
▁Den	-11.0264
▁Kevin	-11.0264
600	-11.0265
▁Assistant	-11.0267
▁chemicals	-11.0267
▁thorough	-11.0271
▁Members	-11.0272
▁discipline	-11.0272
▁jam	-11.0274
▁€	-11.0276
▁Feel	-11.0278
▁identification	-11.0279
▁qualify	-11.028
▁assured	-11.0282
▁Final	-11.0283
▁Ag	-11.0284
▁structural	-11.0284
▁produces	-11.0284
ington	-11.0284
▁profits	-11.0285
▁powered	-11.0289
▁generous	-11.0292
▁Pop	-11.0295
▁sn	-11.0295
▁carrier	-11.0296
▁Copyright	-11.0297
▁winners	-11.0298
▁nail	-11.0305
▁Jay	-11.0306
▁tin	-11.0307
ille	-11.0308
▁babies	-11.031
▁Linux	-11.0313
lines	-11.0314
winning	-11.0314
▁listings	-11.0314
▁slots	-11.0315
▁restrictions	-11.0315
▁subtle	-11.0317
▁knee	-11.0318
▁danger	-11.0321
▁Davis	-11.0323
▁companion	-11.0326
roll	-11.0326
▁cats	-11.0332
▁Ki	-11.0332
▁stem	-11.0333
▁Making	-11.0334
IVE	-11.0334
▁extraordinary	-11.0336
8.	-11.0336
▁Side	-11.0337
St	-11.0341
▁Edition	-11.0342
▁shoe	-11.0342
▁BO	-11.0344
ways	-11.0345
▁Lin	-11.0348
▁gathered	-11.0349
▁magical	-11.0349
hill	-11.035
т	-11.035
▁captured	-11.0353
▁consulting	-11.0354
▁pointed	-11.0357
▁performances	-11.0358
ening	-11.0361
▁bands	-11.0365
▁valve	-11.0366
oid	-11.0368
▁hack	-11.0369
▁Ap	-11.0378
▁pie	-11.0379
▁Could	-11.0379
els	-11.0381
▁zip	-11.0384
▁exercises	-11.0386
size	-11.0387
spec	-11.0387
ello	-11.0387
▁piano	-11.0387
▁encouraging	-11.0389
▁enabled	-11.0389
▁passengers	-11.0389
turn	-11.039
▁habits	-11.039
How	-11.0392
sel	-11.0393
▁Rep	-11.0396
▁ka	-11.0396
▁versatile	-11.0397
▁Berlin	-11.0397
▁Mix	-11.04
tis	-11.04
▁pur	-11.0403
▁garlic	-11.0405
▁delete	-11.0405
power	-11.0406
avi	-11.0407
▁fitted	-11.0409
▁Creative	-11.0411
▁realistic	-11.0411
▁Dark	-11.0412
▁cancel	-11.0412
▁Core	-11.0414
9.	-11.0415
▁worried	-11.0415
5.	-11.0416
▁unlock	-11.0416
▁reward	-11.0422
▁horses	-11.0432
▁resistant	-11.0436
▁Five	-11.0441
NS	-11.0444
hood	-11.0447
responsibilities	-11.0447
▁Premier	-11.0447
▁cloth	-11.0452
▁estimates	-11.0453
▁advised	-11.0454
▁width	-11.0457
▁Return	-11.0457
▁2)	-11.0463
▁technological	-11.0463
▁800	-11.0464
fall	-11.0464
▁acres	-11.0466
▁dependent	-11.0466
▁habit	-11.0467
▁Future	-11.0469
▁Terms	-11.0472
▁whereas	-11.0474
▁URL	-11.0475
▁Atlanta	-11.0476
▁placing	-11.0479
ush	-11.0481
▁effectiveness	-11.0484
▁oldest	-11.0487
sville	-11.0489
▁gardens	-11.0491
▁baseball	-11.0491
▁reliability	-11.0492
▁adoption	-11.0497
▁Technical	-11.05
▁mounted	-11.0501
2-	-11.0501
▁Sciences	-11.0508
▁Jordan	-11.0508
sized	-11.0509
▁radical	-11.0511
▁Industrial	-11.0513
▁Money	-11.0514
▁Us	-11.0514
▁junior	-11.0516
▁rat	-11.0521
9%	-11.0522
‐	-11.0522
▁exploration	-11.0522
DR	-11.0525
▁hunting	-11.0527
▁athletes	-11.0528
▁chi	-11.0531
▁vitamin	-11.0532
mg	-11.0532
▁Rome	-11.0536
▁reminder	-11.0537
▁Stop	-11.0541
▁entertaining	-11.0542
▁ecosystem	-11.0543
CR	-11.0544
▁celebrated	-11.0546
▁addiction	-11.0547
rest	-11.0547
▁Korean	-11.0549
aki	-11.055
▁bench	-11.0552
▁sail	-11.0555
▁enormous	-11.0557
▁execution	-11.0557
▁tear	-11.0557
▁snap	-11.0564
▁fake	-11.0565
fit	-11.0566
▁paintings	-11.0566
▁Sport	-11.0573
▁$6	-11.0574
▁relaxed	-11.0575
▁boots	-11.0578
▁Tell	-11.0583
week	-11.0584
▁hosts	-11.0585
▁exclusively	-11.0588
▁Palm	-11.0588
km	-11.0591
BO	-11.0591
▁Ak	-11.0591
▁curious	-11.0596
SO	-11.06
▁react	-11.06
▁Bat	-11.0603
screen	-11.0606
▁nations	-11.0611
▁enjoyable	-11.0611
▁specifications	-11.0612
▁Reading	-11.0614
ect	-11.0614
▁timing	-11.0616
▁designated	-11.0618
▁1995	-11.0621
▁settle	-11.0625
▁opposition	-11.0627
▁Bon	-11.0627
▁Story	-11.063
born	-11.0631
▁contributed	-11.0631
Pa	-11.0634
EP	-11.0634
▁acknowledge	-11.0635
itz	-11.0636
▁jet	-11.0641
▁tan	-11.0641
▁hybrid	-11.0646
▁basement	-11.0646
▁actor	-11.0647
▁lightweight	-11.0647
▁seasons	-11.0648
ame	-11.0652
ERS	-11.0654
▁killing	-11.0656
ily	-11.0658
▁SD	-11.0658
▁Miller	-11.066
oh	-11.066
▁tele	-11.0661
▁drives	-11.0661
▁Title	-11.0662
now	-11.0662
TER	-11.0664
▁apartments	-11.0665
ii	-11.0668
▁Remove	-11.0668
▁tune	-11.067
▁Ger	-11.067
where	-11.0672
ulation	-11.0675
▁Bush	-11.0677
gger	-11.0677
izer	-11.0678
▁Getting	-11.0679
▁ranked	-11.0679
▁automated	-11.0681
▁Cash	-11.0683
▁pole	-11.0684
chen	-11.0685
▁ve	-11.0685
▁Restaurant	-11.0686
▁ko	-11.0686
▁renovation	-11.0689
▁breaks	-11.0689
▁Given	-11.0689
▁arrested	-11.069
▁dimensions	-11.0694
▁grain	-11.0695
cro	-11.0697
!”	-11.0697
▁nu	-11.0699
uf	-11.07
▁Third	-11.07
▁Know	-11.0701
▁courts	-11.0702
tone	-11.0704
▁operates	-11.0708
MENT	-11.0711
▁Reg	-11.0713
▁Youth	-11.0713
▁loaded	-11.0714
▁prevention	-11.0718
▁Had	-11.0719
▁Dallas	-11.0719
▁secured	-11.072
▁2:	-11.072
▁progressive	-11.0723
▁2011.	-11.0724
ire	-11.0725
▁struck	-11.0728
▁Fun	-11.0728
▁guides	-11.0731
bre	-11.0734
▁commit	-11.0735
▁shed	-11.0735
▁pushed	-11.0735
awa	-11.0736
▁grounds	-11.0736
▁Tar	-11.0737
this	-11.0737
▁alike	-11.0739
▁lawyers	-11.0739
▁churches	-11.0743
las	-11.0746
ied	-11.0747
Th	-11.0748
PE	-11.0749
▁keen	-11.0753
▁optional	-11.0756
▁Talk	-11.0759
chan	-11.0761
ae	-11.0763
▁wherein	-11.0764
▁Anna	-11.0765
“	-11.0765
owned	-11.0768
▁assignment	-11.0772
▁Massachusetts	-11.0774
▁cave	-11.0774
▁ge	-11.0774
▁ratings	-11.0775
▁Orange	-11.0777
▁poverty	-11.0779
▁tremendous	-11.0782
ATION	-11.0785
▁Harry	-11.0786
▁blogs	-11.0786
▁transferred	-11.0787
▁contents	-11.0787
▁detection	-11.0787
▁knowledgeable	-11.0787
eu	-11.0788
gh	-11.079
▁VI	-11.0793
Ch	-11.0798
rio	-11.0802
▁salary	-11.0802
LO	-11.0806
▁workout	-11.081
kan	-11.0811
▁outer	-11.0812
LT	-11.0814
▁Kan	-11.0815
▁Burn	-11.0818
▁Fla	-11.0818
▁Economic	-11.0819
ough	-11.082
lash	-11.082
▁Cabinet	-11.0821
▁unlike	-11.0822
iya	-11.0823
▁hence	-11.0824
▁20%	-11.0826
▁portal	-11.0828
▁Books	-11.0829
▁canvas	-11.0832
▁luxurious	-11.0834
▁strict	-11.0835
▁Bor	-11.0835
▁slide	-11.0838
▁Language	-11.084
pat	-11.0843
▁04	-11.0844
▁installing	-11.0845
PP	-11.0847
▁solely	-11.0853
▁mineral	-11.0854
▁vulnerable	-11.0856
▁jaw	-11.0857
▁answered	-11.0858
step	-11.0859
▁Atlantic	-11.0861
▁arrest	-11.0861
▁disorder	-11.0861
▁Regional	-11.0863
▁cons	-11.0864
▁Tan	-11.0866
▁conversations	-11.0868
▁magnetic	-11.0868
▁Char	-11.0868
▁verify	-11.0873
away	-11.0874
▁purchases	-11.0875
ack	-11.0875
▁Front	-11.0878
▁leaf	-11.0879
active	-11.088
▁conservation	-11.0881
▁defeat	-11.0886
▁donation	-11.0886
▁viagra	-11.0888
▁beans	-11.089
▁attractions	-11.089
specific	-11.0892
▁excitement	-11.0892
▁bottles	-11.0894
▁plates	-11.0895
bank	-11.0895
▁Lewis	-11.0895
cl	-11.0896
Man	-11.0897
▁movements	-11.0901
▁Ana	-11.0902
▁fulfill	-11.0903
▁retreat	-11.0904
tta	-11.0906
▁laundry	-11.0906
▁deadline	-11.0907
▁priced	-11.0908
▁Resources	-11.0909
▁hunt	-11.0912
▁uk	-11.0913
▁2010.	-11.0913
▁Sony	-11.0916
▁Jean	-11.0918
HO	-11.0923
hold	-11.0928
being	-11.0932
osis	-11.0933
▁okay	-11.0934
▁territory	-11.0937
▁bow	-11.0937
▁dialogue	-11.0937
▁proportion	-11.0938
▁Hey	-11.0941
▁2012,	-11.0946
▁barrel	-11.0949
▁nervous	-11.0951
▁IL	-11.0951
uv	-11.0954
▁workforce	-11.0956
cker	-11.0956
▁unlikely	-11.0958
▁coating	-11.0958
▁lounge	-11.0959
▁overwhelming	-11.0959
▁shelf	-11.0961
▁sacrifice	-11.0962
▁imagination	-11.0965
▁Consider	-11.0965
▁legacy	-11.0965
▁Cape	-11.0969
▁Simple	-11.0971
ulate	-11.0975
▁Wheel	-11.0976
tract	-11.0977
▁admin	-11.0977
▁sized	-11.0978
▁Lady	-11.0979
nge	-11.0979
▁hospitals	-11.098
▁Brazil	-11.0985
school	-11.0991
ement	-11.0992
▁memorable	-11.0993
▁Kansas	-11.0993
▁references	-11.0993
sol	-11.0993
▁blast	-11.0993
▁prop	-11.0995
▁tutorial	-11.0995
▁operators	-11.0995
▁embrace	-11.0997
▁72	-11.0997
lk	-11.1002
▁composed	-11.1003
▁2013,	-11.1003
any	-11.1004
▁friendship	-11.1008
▁accomplished	-11.1008
ibility	-11.101
▁weird	-11.1011
ime	-11.1012
▁Jon	-11.1015
▁laboratory	-11.1016
▁involvement	-11.1017
nal	-11.102
▁TX	-11.102
sco	-11.102
▁Authority	-11.102
▁sorts	-11.1023
н	-11.1024
UL	-11.1024
ache	-11.1025
▁instructor	-11.1026
▁interactions	-11.1027
▁Ber	-11.103
who	-11.1031
4%	-11.1035
▁Body	-11.1038
▁thermal	-11.1038
▁emissions	-11.1041
▁entrepreneurs	-11.1046
ila	-11.1048
▁Bowl	-11.1051
▁crop	-11.1052
ato	-11.1052
▁hyper	-11.1053
ural	-11.1055
3,	-11.1058
▁ba	-11.1059
▁premier	-11.106
▁resist	-11.1061
▁Wind	-11.1061
▁Cons	-11.1062
▁Often	-11.1062
▁destroy	-11.1063
▁collaborative	-11.1063
▁Wash	-11.107
▁Wine	-11.1072
▁alumni	-11.1074
▁Os	-11.1076
▁Certified	-11.1088
▁visa	-11.109
▁Anyone	-11.109
▁08	-11.1091
iest	-11.1093
▁refers	-11.1094
▁physically	-11.1097
▁wishes	-11.1097
5,000	-11.1098
▁cater	-11.1098
▁stomach	-11.11
ggle	-11.1101
▁coconut	-11.1103
what	-11.1107
▁implementing	-11.1109
▁intention	-11.1109
pon	-11.1109
▁Bel	-11.1116
▁Egypt	-11.1116
▁Job	-11.1117
PT	-11.1118
position	-11.1119
▁regards	-11.1121
▁invoice	-11.1122
▁occasions	-11.1123
▁achieving	-11.1125
▁fold	-11.1131
▁hearts	-11.1132
mount	-11.1132
▁Commercial	-11.1134
▁graph	-11.1135
▁smoking	-11.1137
▁spouse	-11.1142
▁Nations	-11.1144
pet	-11.1145
▁Equipment	-11.1145
▁lawsuit	-11.1147
▁CON	-11.1148
▁regime	-11.1149
▁Screen	-11.1151
▁Chamber	-11.1151
▁trucks	-11.1152
▁jurisdiction	-11.1154
ching	-11.1154
▁caring	-11.1156
▁Bag	-11.1157
▁sq	-11.1168
▁Dog	-11.1169
▁cal	-11.117
edge	-11.117
such	-11.1174
▁console	-11.1174
▁temple	-11.1175
▁timely	-11.1176
▁renowned	-11.1176
▁Pin	-11.1179
Com	-11.1179
▁meta	-11.1183
▁collective	-11.1183
▁Mission	-11.1185
▁spectrum	-11.1185
▁dear	-11.119
▁disability	-11.1191
▁iconic	-11.1192
▁Common	-11.1192
▁responded	-11.1194
▁enemy	-11.1197
stock	-11.1198
cover	-11.1198
▁Dutch	-11.1198
lies	-11.1198
()	-11.12
▁participated	-11.1204
zen	-11.1205
▁logic	-11.1207
▁substitute	-11.1208
▁marine	-11.1211
ova	-11.1215
▁soap	-11.1215
▁Process	-11.1215
▁Cambridge	-11.1217
▁declared	-11.1218
▁paragraph	-11.1223
▁mature	-11.1224
▁Oxford	-11.1228
▁Tower	-11.1231
▁engineer	-11.1231
▁HE	-11.1232
▁trap	-11.1233
bil	-11.1233
▁streaming	-11.1236
▁overseas	-11.1236
▁Coffee	-11.1237
ved	-11.1237
▁4,	-11.1238
▁ja	-11.1238
iva	-11.1238
▁Castle	-11.1241
▁desert	-11.1243
▁Jane	-11.1249
NE	-11.1249
▁£1	-11.125
▁shipped	-11.1252
▁directors	-11.1256
▁differently	-11.1258
▁cu	-11.1259
nate	-11.1261
▁Iraq	-11.1261
eth	-11.1263
▁Panel	-11.1263
bro	-11.1267
▁Major	-11.1267
▁SU	-11.1269
▁BR	-11.1271
▁valley	-11.1272
▁decorative	-11.1272
▁Wilson	-11.1272
▁intelligent	-11.1274
▁wines	-11.1279
▁BBC	-11.1281
▁retailers	-11.1282
▁brothers	-11.1282
▁Bad	-11.1283
▁intent	-11.1283
▁Sure	-11.1286
cin	-11.129
▁wellness	-11.129
▁Coach	-11.129
▁permitted	-11.1291
▁hesitate	-11.1294
▁virus	-11.1296
▁McC	-11.1298
▁aggressive	-11.1299
maker	-11.1299
▁san	-11.1299
▁Bedroom	-11.1301
▁heaven	-11.1302
▁joke	-11.1302
???	-11.1304
▁cho	-11.1304
▁%	-11.1305
▁Metal	-11.1307
▁buttons	-11.1307
▁travelling	-11.1307
oz	-11.131
▁ES	-11.1311
nis	-11.1311
▁funded	-11.1311
▁Death	-11.1311
▁NE	-11.1311
▁AD	-11.1311
▁tourism	-11.1312
▁Ok	-11.1313
▁wherever	-11.1313
▁DIY	-11.1321
▁epi	-11.1322
▁Discover	-11.1324
▁stake	-11.1327
▁Lock	-11.1329
▁Magic	-11.133
▁marketplace	-11.1333
mber	-11.1336
▁bearing	-11.1338
lim	-11.1342
▁Attorney	-11.1344
▁TE	-11.1346
▁landing	-11.1347
▁Je	-11.1348
▁Parliament	-11.1349
▁accompanied	-11.1349
▁entries	-11.1349
▁physician	-11.135
▁47	-11.135
▁occasionally	-11.1355
cell	-11.1355
aging	-11.1356
▁pdf	-11.1357
▁achievement	-11.1358
▁limitations	-11.1359
▁2.5	-11.1359
▁mentor	-11.1359
▁enabling	-11.1364
▁recommendation	-11.1365
▁essays	-11.1366
▁($	-11.1366
▁shortly	-11.1366
▁pregnant	-11.1367
▁tennis	-11.1373
▁Springs	-11.1374
FI	-11.1378
▁trails	-11.1382
▁technicians	-11.1383
real	-11.1383
▁Wisconsin	-11.1384
▁followers	-11.1384
▁animation	-11.1384
▁grinding	-11.1388
▁settled	-11.139
▁phrase	-11.1391
▁delighted	-11.1398
ifying	-11.1398
effective	-11.1398
▁Israeli	-11.14
▁Storage	-11.1402
▁championship	-11.1402
▁identifying	-11.1406
▁pile	-11.1408
▁dentist	-11.1409
▁Upon	-11.141
▁carries	-11.141
▁profiles	-11.1411
▁Apr	-11.1413
▁ph	-11.1415
▁cure	-11.1416
▁qualities	-11.1416
▁analytics	-11.1419
▁voters	-11.142
▁knife	-11.1422
▁roughly	-11.1423
rey	-11.1423
▁trials	-11.1425
▁Indiana	-11.1428
▁eco	-11.1429
▁Phone	-11.143
▁ceramic	-11.1431
▁Walk	-11.1434
▁Arch	-11.1435
▁attach	-11.1435
▁Sol	-11.1437
called	-11.144
▁authorized	-11.144
▁pushing	-11.1442
▁Wal	-11.1443
▁Offer	-11.1444
▁Posted	-11.1447
▁Sim	-11.1447
▁utilizing	-11.1449
▁Tre	-11.1449
▁Mil	-11.1449
▁Rich	-11.1451
▁privilege	-11.1454
lle	-11.1454
gro	-11.1459
gov	-11.1459
▁Eco	-11.146
▁Jason	-11.146
▁plumbing	-11.146
▁knock	-11.146
▁skip	-11.1461
▁minimize	-11.1463
▁condo	-11.1464
CL	-11.1465
▁Song	-11.1466
▁EP	-11.1466
▁Provide	-11.1467
▁1994	-11.1468
▁Fan	-11.1474
Star	-11.1474
▁poetry	-11.1476
▁excessive	-11.1476
tics	-11.1477
▁Governor	-11.1478
▁Lincoln	-11.1478
▁surprising	-11.148
.....	-11.1481
ics	-11.1481
party	-11.1483
▁Mind	-11.1489
▁agricultural	-11.149
▁colorful	-11.1493
▁penalty	-11.1496
▁Whatever	-11.1498
bol	-11.1499
▁Friends	-11.1499
space	-11.15
▁blanket	-11.15
▁handled	-11.1501
▁pour	-11.1502
▁Movie	-11.1502
▁precision	-11.1504
live	-11.1505
▁ignore	-11.1506
▁puts	-11.1508
▁hiking	-11.1508
mas	-11.1511
leg	-11.1511
▁disorders	-11.1512
▁observe	-11.1513
cept	-11.1513
▁anytime	-11.1513
▁Patrick	-11.1514
▁tumor	-11.1514
▁batteries	-11.1514
??	-11.1514
▁Dun	-11.1515
▁computing	-11.1516
▁annually	-11.1519
▁Reserve	-11.1522
▁architectural	-11.1522
▁CR	-11.1523
▁holder	-11.1524
▁satisfy	-11.1527
iff	-11.1529
Po	-11.1532
tting	-11.1533
▁Retrieved	-11.1534
▁immigration	-11.1534
tur	-11.1535
etic	-11.1535
boy	-11.1537
▁(8	-11.1538
▁Math	-11.1539
▁mon	-11.1539
▁glasses	-11.1546
▁sustainability	-11.1549
▁Metro	-11.1551
▁Event	-11.1552
▁nutrients	-11.1553
▁hadn	-11.1553
▁Manual	-11.1553
▁precisely	-11.1554
▁meditation	-11.1555
▁ships	-11.1555
aver	-11.1555
▁Cleaning	-11.1557
▁voted	-11.156
▁guilty	-11.1562
▁Craft	-11.1564
▁Tony	-11.1566
▁loads	-11.1567
▁Clark	-11.1567
▁dressing	-11.157
▁dispute	-11.157
▁difficulties	-11.1572
▁conscious	-11.1572
▁1960	-11.1572
▁admitted	-11.1574
▁oh	-11.1578
▁0.	-11.1579
▁Writing	-11.1579
▁leverage	-11.1579
▁CL	-11.1581
▁lamp	-11.1582
▁YOUR	-11.1583
▁str	-11.1587
▁associate	-11.1587
▁mystery	-11.1587
▁Coll	-11.1588
▁determination	-11.1588
ó	-11.1589
▁construct	-11.1591
▁liver	-11.1595
▁stakeholders	-11.1596
cra	-11.1597
▁seasonal	-11.16
ua	-11.1602
▁protest	-11.1603
mont	-11.1605
body	-11.1606
▁punch	-11.1608
Ra	-11.1609
▁Carl	-11.161
▁rings	-11.1612
▁flip	-11.1612
▁Engine	-11.1614
▁cosmetic	-11.1614
▁EM	-11.1615
▁releases	-11.1619
▁tied	-11.1621
▁leak	-11.1623
▁acceptable	-11.1624
▁tiles	-11.1624
▁PRO	-11.1632
▁cyber	-11.1633
▁Maria	-11.1633
▁shades	-11.1633
▁suited	-11.1634
▁delight	-11.1636
▁coin	-11.1641
fect	-11.1643
▁patent	-11.1644
season	-11.1653
▁feeding	-11.1654
▁Steven	-11.1654
▁euro	-11.1657
`	-11.1658
ATE	-11.1658
▁ISO	-11.1659
▁voting	-11.1661
▁measurements	-11.1663
▁seating	-11.1663
TION	-11.1665
▁purple	-11.1665
▁Hair	-11.1666
▁tray	-11.1667
▁360	-11.167
▁geo	-11.1672
case	-11.1673
ien	-11.1674
▁gu	-11.1675
▁requiring	-11.1677
▁amp	-11.1683
▁HTML	-11.1686
?!	-11.1688
▁Gr	-11.1689
▁hardly	-11.1695
▁Dead	-11.1695
▁receiver	-11.1696
PL	-11.1699
▁Bookmark	-11.17
▁Ross	-11.1702
media	-11.1703
▁bundle	-11.1704
▁hired	-11.1706
▁essence	-11.1707
▁meter	-11.1707
▁AN	-11.1709
▁Championship	-11.171
▁sustain	-11.1711
▁Ave	-11.1712
▁fancy	-11.1712
▁Wow	-11.1713
▁Jacob	-11.1713
▁backyard	-11.1714
ith	-11.1716
▁Companies	-11.1716
▁terrible	-11.1716
▁vent	-11.1716
IO	-11.1718
▁scholarship	-11.1719
▁PhD	-11.1723
è	-11.1724
nut	-11.1724
ѕ	-11.1726
▁dec	-11.1732
▁Uni	-11.1732
ifier	-11.1733
▁airline	-11.1734
worth	-11.1736
▁combines	-11.1736
▁query	-11.1736
▁frames	-11.1737
▁maximize	-11.1739
▁varied	-11.174
▁affects	-11.1741
▁gently	-11.1743
▁favour	-11.1745
ο	-11.1746
stop	-11.1746
▁gel	-11.1747
▁cookie	-11.1747
VI	-11.1748
▁Fine	-11.1749
▁Bow	-11.1754
ava	-11.1755
▁Wales	-11.1757
▁guided	-11.1757
bot	-11.1757
hen	-11.1758
▁09	-11.176
▁retired	-11.176
using	-11.1761
▁Temple	-11.1762
▁LI	-11.1762
▁Ms	-11.1763
Ha	-11.1763
▁delicate	-11.1765
▁Outdoor	-11.1768
▁gum	-11.1769
▁maker	-11.1772
▁makers	-11.1772
▁Fit	-11.1774
cess	-11.1774
▁lap	-11.1774
tern	-11.1776
▁Exam	-11.1776
ique	-11.1779
▁CI	-11.1782
▁stamp	-11.1783
▁Say	-11.1783
▁downloaded	-11.1786
▁dancing	-11.179
▁verse	-11.179
word	-11.1791
▁offense	-11.1793
▁arise	-11.1794
▁Editor	-11.1794
▁plugin	-11.1796
▁alternatives	-11.1797
▁consultant	-11.1798
ident	-11.1799
▁reserves	-11.18
▁beam	-11.18
▁54	-11.1801
▁champion	-11.1802
mod	-11.1806
▁acceptance	-11.1807
▁Peace	-11.1808
▁clue	-11.181
▁pub	-11.1811
▁tailored	-11.1813
▁Assembly	-11.1813
cip	-11.1817
▁Fr	-11.1819
▁striking	-11.1819
ulator	-11.1821
▁$7	-11.1824
▁oils	-11.1824
▁te	-11.1825
▁Arab	-11.1826
▁complaint	-11.1827
▁tent	-11.1828
▁Driver	-11.183
▁worker	-11.183
▁ti	-11.1831
American	-11.1831
▁cultures	-11.1837
▁Channel	-11.1838
▁dig	-11.1838
cle	-11.1839
▁automotive	-11.184
▁Pri	-11.1841
▁conditioning	-11.1841
CU	-11.1842
hard	-11.1842
▁Mont	-11.1844
▁relate	-11.1845
▁invitation	-11.1846
▁producers	-11.1846
▁ke	-11.1848
▁51	-11.1849
▁threats	-11.1852
▁presentations	-11.1852
▁passenger	-11.1852
▁Hor	-11.1852
▁ya	-11.1853
▁Snow	-11.1853
▁diamond	-11.1854
▁utilized	-11.1854
▁psychological	-11.1856
▁Rick	-11.186
▁va	-11.1861
▁refuse	-11.1862
▁medications	-11.1862
▁tags	-11.1865
▁peer	-11.187
uma	-11.1875
sive	-11.1876
▁Vietnam	-11.1877
▁attachment	-11.1877
outs	-11.1881
▁soldiers	-11.1885
▁remind	-11.1887
bri	-11.1889
▁frozen	-11.1889
its	-11.1892
▁col	-11.1892
▁Dance	-11.1893
▁Ring	-11.1894
▁comic	-11.1895
▁motorcycle	-11.1896
▁calculated	-11.1899
▁destroyed	-11.1899
▁Diamond	-11.1902
▁99	-11.1904
▁True	-11.1905
▁breach	-11.1906
▁Tro	-11.1906
▁loading	-11.1911
▁Convention	-11.1911
ule	-11.1911
▁Indeed	-11.192
lton	-11.1925
▁fingers	-11.1926
▁Deep	-11.1926
▁donations	-11.1927
▁fiscal	-11.193
▁RO	-11.1931
▁departments	-11.1933
▁Safe	-11.1934
try	-11.1934
▁Later	-11.1938
▁confused	-11.194
ines	-11.1941
▁derived	-11.1944
▁distinctive	-11.1946
▁responsive	-11.1946
RT	-11.1948
▁filters	-11.1948
▁incorporated	-11.1949
▁branches	-11.1954
▁painful	-11.1954
▁nurse	-11.1958
▁rush	-11.1959
▁Floor	-11.196
▁Syria	-11.1962
▁Ice	-11.1963
▁coaches	-11.1963
cr	-11.1965
▁cuisine	-11.1966
ori	-11.1967
▁Corp	-11.197
▁NJ	-11.1971
aga	-11.1971
▁Analysis	-11.1973
▁musicians	-11.1974
▁centuries	-11.1976
▁Nigeria	-11.1976
▁translate	-11.1976
▁actors	-11.1977
▁oxygen	-11.1979
▁terrace	-11.1979
▁crushing	-11.1983
▁stir	-11.1985
▁fu	-11.1986
▁Race	-11.1987
▁NFL	-11.1988
▁bell	-11.199
▁considerable	-11.199
▁anchor	-11.1992
▁Med	-11.1993
▁costly	-11.1999
▁binding	-11.2001
▁outdoors	-11.2002
4,	-11.2003
▁collecting	-11.2006
▁classical	-11.2006
▁walks	-11.2009
▁TA	-11.2009
▁Together	-11.201
DP	-11.201
far	-11.2011
▁Maryland	-11.2013
nie	-11.2014
▁highway	-11.2014
700	-11.202
▁Thr	-11.2022
▁charging	-11.2025
▁warrant	-11.2025
▁pollution	-11.2025
-15	-11.2026
▁tire	-11.2028
▁reduces	-11.2029
▁vacuum	-11.2031
▁transparent	-11.2038
▁attorneys	-11.2042
▁obligation	-11.2043
vel	-11.2043
▁preferences	-11.2044
-16	-11.2045
▁roller	-11.2045
▁pension	-11.2046
▁Cho	-11.2048
▁argue	-11.2049
▁exceed	-11.2053
ridge	-11.206
ELL	-11.2061
▁stopping	-11.2061
pad	-11.2062
▁harmful	-11.2064
▁taxi	-11.2067
▁Ky	-11.2068
▁Galaxy	-11.2069
▁$100	-11.207
▁Pal	-11.2072
▁begun	-11.2072
▁Bird	-11.2073
▁blame	-11.2073
pass	-11.2073
▁56	-11.2079
▁somebody	-11.208
▁Kelly	-11.2081
▁wipe	-11.2084
▁(4	-11.2084
▁protocol	-11.2086
oke	-11.2088
▁intimate	-11.2088
▁Better	-11.209
ional	-11.2091
▁HO	-11.2093
▁wing	-11.2096
▁Bitcoin	-11.2097
▁experimental	-11.2099
▁Java	-11.2101
▁suspension	-11.2103
▁bri	-11.2103
▁slight	-11.2104
DO	-11.2105
▁promotional	-11.2107
▁Ron	-11.2108
▁steep	-11.211
▁proceed	-11.211
▁spec	-11.2111
▁pi	-11.2111
▁venues	-11.2111
▁specialty	-11.2113
var	-11.2114
▁publications	-11.2114
▁durability	-11.2116
▁calories	-11.2117
▁Throughout	-11.2118
▁scoring	-11.2119
▁accused	-11.2122
▁ok	-11.2124
▁Cl	-11.2126
eck	-11.2129
▁nicely	-11.213
lation	-11.213
▁destinations	-11.2131
▁cheer	-11.2133
▁1,000	-11.2134
▁thesis	-11.2136
▁EC	-11.2143
▁tourists	-11.2145
▁je	-11.2145
▁Audio	-11.2146
aff	-11.2146
ode	-11.2146
▁advocate	-11.2147
▁IBM	-11.2147
▁Alliance	-11.2147
▁steady	-11.2147
▁scent	-11.215
▁prints	-11.2151
rine	-11.2152
▁reflects	-11.2152
▁treating	-11.2153
▁colored	-11.2153
▁TH	-11.2155
▁Allen	-11.2157
▁stocks	-11.2161
▁biological	-11.2161
▁Used	-11.2161
▁indication	-11.2162
order	-11.2163
hl	-11.2167
▁flavors	-11.2168
▁nuts	-11.217
▁silent	-11.217
▁Additional	-11.217
▁Clinton	-11.217
▁confirmation	-11.2171
▁climbing	-11.2173
▁Muslim	-11.2175
pop	-11.2175
uz	-11.2179
▁intake	-11.2181
▁sponsor	-11.2181
▁Mexican	-11.2182
▁mixing	-11.2183
▁Staff	-11.2184
▁Mod	-11.2187
Ho	-11.2188
▁boundaries	-11.2189
▁affiliate	-11.219
about	-11.2191
▁converted	-11.2191
▁Sur	-11.2192
|	-11.2194
▁Ultra	-11.2195
een	-11.2202
▁ANY	-11.2204
▁hu	-11.2206
▁revolution	-11.2208
▁coupons	-11.2209
▁stereo	-11.2211
▁Seven	-11.2218
▁heater	-11.2218
▁shorter	-11.2218
hin	-11.2221
▁excuse	-11.2223
▁offerings	-11.2224
▁rod	-11.2226
▁Official	-11.2226
▁screw	-11.2228
▁vaccine	-11.2229
▁fridge	-11.223
EX	-11.2231
▁rhythm	-11.2234
dan	-11.2235
▁dried	-11.2237
▁apparent	-11.2238
▁sal	-11.2242
▁bias	-11.2245
▁Innovation	-11.2245
▁counsel	-11.2246
▁Really	-11.2247
▁beliefs	-11.2247
All	-11.225
▁Animal	-11.2252
▁TR	-11.2252
lea	-11.2253
▁Email	-11.2254
	-11.2255
▁marijuana	-11.2258
▁surgical	-11.226
▁sits	-11.2262
wick	-11.2263
▁Sk	-11.2266
▁defend	-11.2267
SM	-11.2267
▁agreements	-11.2269
▁absorb	-11.227
▁simultaneously	-11.227
▁catalog	-11.227
▁Urban	-11.2271
▁cleaner	-11.2271
graph	-11.2275
▁EX	-11.2276
▁disabled	-11.2276
%)	-11.2279
▁jail	-11.2279
▁dozen	-11.228
▁measuring	-11.228
▁drove	-11.2281
En	-11.2282
▁1993	-11.2282
▁GPS	-11.2283
▁LOVE	-11.2283
Car	-11.2284
▁celebrating	-11.229
▁proteins	-11.229
▁10-	-11.229
▁Denver	-11.229
▁coupled	-11.2293
▁dial	-11.2294
▁quest	-11.2295
▁permalink	-11.2296
▁hassle	-11.2298
▁tasty	-11.2299
▁thankful	-11.2301
▁Suite	-11.2301
▁abstract	-11.2302
▁rolled	-11.2303
only	-11.2304
▁soccer	-11.2306
▁angel	-11.2306
▁sponsored	-11.2307
ain	-11.2308
▁replacing	-11.2312
bird	-11.2312
dar	-11.2313
▁separately	-11.2315
▁nonprofit	-11.2319
▁85	-11.2323
▁injection	-11.2325
▁USD	-11.2328
mond	-11.2328
▁routes	-11.2329
▁comprises	-11.233
olo	-11.2331
▁broker	-11.2334
On	-11.2335
▁solving	-11.2335
▁funeral	-11.2338
rot	-11.234
▁dimension	-11.2341
udge	-11.2341
▁ladies	-11.2342
▁barely	-11.2342
▁promised	-11.2342
▁Sorry	-11.2344
▁CBD	-11.2348
▁grants	-11.2349
▁Rather	-11.2352
▁proposals	-11.2352
▁Ty	-11.2353
therapy	-11.2353
▁2010,	-11.2355
▁Sy	-11.2361
▁developments	-11.2362
▁Iowa	-11.2364
tress	-11.2365
▁gambling	-11.2367
▁Yeah	-11.237
▁Anyway	-11.2371
esh	-11.2381
cate	-11.2389
▁employ	-11.239
▁suits	-11.2392
▁Leave	-11.2393
SL	-11.2394
▁Lane	-11.2396
▁hitting	-11.2396
osa	-11.2398
sie	-11.2399
▁Jews	-11.2402
▁31,	-11.2404
▁charter	-11.2404
▁recipient	-11.2405
ā	-11.2405
▁hum	-11.2408
▁SW	-11.2408
▁Thanksgiving	-11.2409
▁genre	-11.241
NT	-11.2411
▁navigation	-11.2412
▁promises	-11.2415
▁Sweet	-11.2416
▁semester	-11.2421
▁2011,	-11.2422
▁Previous	-11.2425
▁Chrome	-11.2425
▁bake	-11.2426
kes	-11.2426
▁legend	-11.2428
▁attendance	-11.2431
▁Valentine	-11.2432
▁Inside	-11.2433
▁homeowners	-11.2435
writing	-11.2437
▁Gene	-11.2439
▁tries	-11.2439
▁density	-11.244
▁vendor	-11.244
▁Hay	-11.2441
▁Battle	-11.2441
▁Got	-11.2443
▁DR	-11.2445
▁powers	-11.2445
▁cow	-11.2448
▁adjustable	-11.245
▁accidents	-11.2452
▁tablets	-11.2452
▁Meet	-11.2453
▁prospective	-11.2453
▁weapon	-11.2454
▁beloved	-11.2455
▁continuously	-11.2457
▁internationally	-11.2462
▁spoken	-11.2472
▁neighbors	-11.2473
FT	-11.2473
▁modules	-11.2477
▁rub	-11.2478
▁Block	-11.2478
▁governments	-11.2479
▁Sc	-11.248
▁labels	-11.2481
▁Flash	-11.2481
▁fur	-11.2482
▁shore	-11.2484
SH	-11.2485
cri	-11.2486
▁PO	-11.2487
anda	-11.2488
ر	-11.2489
▁Navy	-11.249
▁ce	-11.249
▁2009.	-11.2493
▁determining	-11.2493
▁jazz	-11.2493
▁$20	-11.2494
proof	-11.2494
▁Islam	-11.2495
open	-11.2496
wall	-11.2496
weight	-11.2497
bag	-11.25
ago	-11.25
AGE	-11.2502
▁Investment	-11.2503
▁02	-11.2505
▁drops	-11.2508
▁CH	-11.2512
▁Heritage	-11.2512
speed	-11.2513
▁automobile	-11.2513
▁Buck	-11.2514
▁configured	-11.2514
▁batch	-11.2516
▁stops	-11.2518
▁towns	-11.2519
bid	-11.252
▁est	-11.2521
▁Production	-11.2525
▁containers	-11.2527
▁Greg	-11.2528
▁Wo	-11.2528
▁hop	-11.2529
▁190	-11.2531
▁Base	-11.2534
▁libraries	-11.2539
▁Bureau	-11.2539
bas	-11.2541
▁formats	-11.2545
▁hell	-11.2548
▁facial	-11.2549
ony	-11.255
▁simulation	-11.2552
CT	-11.2553
▁antique	-11.2554
-17	-11.2554
▁Vancouver	-11.2555
▁conservative	-11.2555
EG	-11.2555
▁minds	-11.2556
▁ethical	-11.2561
rian	-11.2562
▁Junior	-11.2562
▁checks	-11.2563
mu	-11.2563
▁Speed	-11.2564
▁traditions	-11.2566
▁expecting	-11.2567
▁convention	-11.2567
▁AP	-11.2567
▁supporters	-11.2569
▁applicants	-11.2571
▁Pad	-11.2572
▁intensity	-11.2573
▁LE	-11.2573
dog	-11.2576
▁Hunt	-11.2578
▁unfortunately	-11.2579
nel	-11.258
▁Template	-11.2584
▁races	-11.2585
nia	-11.2587
▁Apply	-11.2587
▁Portland	-11.2591
▁bubble	-11.2591
▁consume	-11.2591
▁sweat	-11.2595
▁odds	-11.2601
▁Qu	-11.2602
▁gains	-11.2603
▁Mail	-11.2606
emp	-11.2608
▁departure	-11.2608
gel	-11.2609
▁documentary	-11.2609
oni	-11.2609
▁recycling	-11.2611
▁additionally	-11.2611
▁Depending	-11.2613
OK	-11.2615
▁junk	-11.2618
ifies	-11.2623
▁roofing	-11.2624
▁countless	-11.2625
▁Islamic	-11.2631
▁notification	-11.2633
ote	-11.2636
▁tro	-11.2637
▁unlimited	-11.2637
▁Dental	-11.2638
▁disappointed	-11.264
▁tick	-11.2641
▁Rs	-11.2642
▁ye	-11.2642
▁Medicare	-11.2644
▁camping	-11.2647
rous	-11.2648
gn	-11.2648
gli	-11.2649
ean	-11.2649
thing	-11.2649
▁Deal	-11.265
ential	-11.265
▁Foreign	-11.265
▁undergraduate	-11.2651
▁Des	-11.2653
▁automation	-11.2654
▁vegan	-11.2656
▁specially	-11.2659
▁1-	-11.2663
▁Tool	-11.2663
▁Tennessee	-11.2664
▁Prize	-11.2665
▁exp	-11.2665
▁mutual	-11.2667
other	-11.2668
▁blessed	-11.2673
▁impacts	-11.2673
▁audiences	-11.2674
▁disclosure	-11.2677
▁Villa	-11.2679
▁thereby	-11.268
▁agriculture	-11.268
bridge	-11.2681
att	-11.2682
▁petition	-11.2684
itor	-11.2685
▁investor	-11.2686
▁Wolf	-11.2687
inal	-11.2688
▁gut	-11.2689
▁nest	-11.269
depth	-11.2693
▁ordering	-11.2694
eau	-11.2695
▁Clo	-11.2695
RY	-11.2695
▁Recently	-11.27
tim	-11.27
lly	-11.2703
▁honour	-11.2704
▁pants	-11.2706
▁MC	-11.2711
CM	-11.2713
▁demonstration	-11.2714
▁ranking	-11.2714
▁harsh	-11.2717
▁complexity	-11.2719
ering	-11.2719
▁Pool	-11.2722
▁Legal	-11.2723
▁Bachelor	-11.2724
▁Christians	-11.2725
▁THIS	-11.2727
▁Break	-11.2727
▁identical	-11.273
ered	-11.2735
▁Consumer	-11.274
▁potatoes	-11.2741
▁Mah	-11.2741
wo	-11.2742
ature	-11.2743
▁surgeon	-11.2746
▁CE	-11.2747
3-	-11.2747
AND	-11.2749
▁Labor	-11.2749
▁rewards	-11.275
▁Communications	-11.275
eur	-11.2751
▁obligations	-11.2753
cas	-11.2753
▁steal	-11.2755
rat	-11.2755
▁lean	-11.2756
▁google	-11.2759
▁pat	-11.276
▁Solar	-11.2763
▁fantasy	-11.2764
▁titled	-11.2766
▁Intel	-11.2767
▁(5	-11.277
elli	-11.2771
core	-11.2774
IE	-11.2774
▁Football	-11.2774
▁individually	-11.2776
▁Kra	-11.2777
dies	-11.2778
▁blogging	-11.2779
▁snack	-11.2781
▁startup	-11.2782
▁Girl	-11.2788
▁1992	-11.2789
▁discussing	-11.2793
▁significance	-11.2794
▁Fill	-11.2794
green	-11.2795
atch	-11.2795
▁magnificent	-11.2797
bul	-11.2797
▁earning	-11.2798
AB	-11.28
FO	-11.28
▁easiest	-11.2804
▁FI	-11.2806
▁Soft	-11.2808
rock	-11.2809
▁fo	-11.281
▁oak	-11.2811
▁53	-11.2813
die	-11.2816
і	-11.2817
▁Affairs	-11.2824
▁binary	-11.2829
▁liable	-11.2829
▁Kat	-11.2831
▁compound	-11.2832
▁Spi	-11.2835
mini	-11.2836
▁Pla	-11.2837
▁legitimate	-11.2837
ees	-11.2838
shop	-11.2838
▁prospects	-11.2839
▁defensive	-11.2841
▁forgotten	-11.2842
▁pasta	-11.2844
▁presenting	-11.2849
▁Dining	-11.2851
▁stones	-11.2852
▁gal	-11.2854
▁alien	-11.2856
▁grocery	-11.2858
▁Send	-11.2861
▁DA	-11.2864
▁Phoenix	-11.2864
▁Taking	-11.2866
▁Morgan	-11.2868
▁Sept	-11.2868
quest	-11.2869
▁drag	-11.287
▁gradually	-11.2871
▁Adult	-11.2872
▁experiments	-11.2873
▁wrapped	-11.2875
▁breathing	-11.2876
mun	-11.2879
▁Judge	-11.288
▁votes	-11.2881
▁Bri	-11.2882
▁concentrate	-11.2883
▁gi	-11.2884
▁instances	-11.2885
▁diagnostic	-11.2885
▁Survey	-11.2885
▁Alaska	-11.2885
▁Chairman	-11.2886
dam	-11.2887
▁Region	-11.2888
▁UV	-11.2888
▁ramp	-11.2889
nne	-11.2889
▁Met	-11.289
▁Missouri	-11.2892
▁bones	-11.2893
▁deployment	-11.2895
EST	-11.2897
ALL	-11.2898
tec	-11.29
▁competing	-11.2902
▁locked	-11.2902
soft	-11.2903
tile	-11.2903
▁Mur	-11.2905
▁invested	-11.2908
▁variations	-11.291
▁drum	-11.2912
▁athletic	-11.2912
▁dedication	-11.2913
▁mechanisms	-11.2913
▁motivated	-11.2914
▁connector	-11.2917
▁bump	-11.2918
▁Anderson	-11.2918
▁comedy	-11.2919
▁independence	-11.2922
▁publicly	-11.2923
▁7,	-11.2924
▁Highway	-11.2925
after	-11.2927
gress	-11.2932
wel	-11.2932
▁reside	-11.2932
▁blank	-11.2934
▁serial	-11.2936
7-	-11.2938
▁Dragon	-11.2943
▁diagnosed	-11.2943
▁Thailand	-11.2943
▁blade	-11.2946
ark	-11.2947
▁Payment	-11.295
TT	-11.2954
▁95	-11.2954
Up	-11.2956
ls	-11.2957
▁(18	-11.2958
▁dip	-11.2959
▁warehouse	-11.296
▁Mayor	-11.296
▁6,	-11.296
▁specify	-11.2961
▁separated	-11.2963
inter	-11.2964
の	-11.2966
▁Greece	-11.2966
▁inclusion	-11.2966
iser	-11.2967
▁Drug	-11.2967
WA	-11.2969
▁flame	-11.2971
▁homework	-11.2971
▁variables	-11.2973
▁terrorist	-11.2974
sc	-11.2974
ook	-11.2976
▁appreciation	-11.2977
watch	-11.298
▁Toyota	-11.298
group	-11.2983
▁Alexander	-11.2984
▁betting	-11.2985
ttle	-11.2985
▁shame	-11.2986
▁Olympic	-11.2988
▁scam	-11.2989
Se	-11.2991
▁belong	-11.2993
▁variation	-11.2995
▁execute	-11.2996
▁submission	-11.2996
▁Malaysia	-11.2996
▁Chat	-11.2997
▁Lan	-11.2998
▁praise	-11.3001
▁readily	-11.3004
▁cement	-11.3004
▁gross	-11.3006
▁CV	-11.3007
fr	-11.3007
▁islands	-11.3009
rist	-11.3011
▁mobility	-11.3011
▁Salt	-11.3012
▁Ye	-11.3014
▁tasting	-11.3014
▁Mas	-11.3016
▁rotation	-11.3018
▁credits	-11.3018
stra	-11.3018
BI	-11.3021
▁Oklahoma	-11.3021
▁Agent	-11.3022
▁Must	-11.3026
▁Dean	-11.3026
▁backed	-11.3027
▁cry	-11.3029
▁tomatoes	-11.3029
▁11.	-11.303
hot	-11.303
▁Inn	-11.3032
▁Mis	-11.3033
heat	-11.3033
▁Ce	-11.3034
▁palm	-11.3038
▁optimization	-11.3038
▁Detroit	-11.3042
▁disposal	-11.3042
phi	-11.3043
▁Scottish	-11.3044
▁corporation	-11.3045
mission	-11.3049
Sp	-11.3056
road	-11.3057
▁Empire	-11.3059
▁tunnel	-11.3059
▁imaging	-11.3059
▁repeated	-11.3064
▁floral	-11.3064
cial	-11.3064
Ba	-11.3065
▁influenced	-11.3068
UD	-11.3069
itch	-11.3073
▁bat	-11.3074
▁transit	-11.3075
CD	-11.3076
▁strap	-11.3076
▁decorating	-11.3078
▁crafted	-11.3079
▁devoted	-11.3079
▁shadow	-11.3082
▁login	-11.3083
▁Harris	-11.3084
looking	-11.3084
▁deemed	-11.3085
▁failing	-11.3085
▁Cri	-11.3085
▁ebook	-11.3086
▁electronics	-11.3087
▁Visual	-11.3087
▁180	-11.3089
▁refused	-11.3092
▁squad	-11.3094
▁denied	-11.3094
▁Paint	-11.3095
▁Gre	-11.3095
▁anger	-11.31
▁bargain	-11.3101
▁ruling	-11.3102
▁attributes	-11.3102
▁Between	-11.3104
gie	-11.3104
▁basket	-11.3104
▁HERE	-11.3105
▁recruitment	-11.3106
、	-11.3107
▁tropical	-11.3107
Ar	-11.3108
▁pockets	-11.3109
▁toxic	-11.3109
▁charming	-11.3109
▁pipeline	-11.3112
▁aging	-11.3114
▁Usually	-11.3114
▁eastern	-11.3115
▁clo	-11.3116
▁notion	-11.3116
▁figured	-11.3121
aj	-11.3124
▁Adventure	-11.3125
wise	-11.3126
▁grades	-11.3136
jun	-11.3136
▁coil	-11.3137
▁exploit	-11.3137
▁Sin	-11.3138
wind	-11.3138
▁herbs	-11.314
▁customize	-11.3141
▁exhaust	-11.3142
▁lying	-11.3142
▁Dubai	-11.3143
▁banner	-11.3144
▁Honda	-11.3144
▁Edward	-11.3145
action	-11.3145
▁cra	-11.3152
▁lip	-11.3156
▁Face	-11.3157
▁Original	-11.316
▁Ridge	-11.3161
night	-11.3164
▁lid	-11.3168
▁Dam	-11.3169
▁reveals	-11.3172
▁closure	-11.3174
▁underground	-11.3177
▁Sample	-11.3178
▁Sl	-11.318
▁trauma	-11.318
▁prospect	-11.318
▁Caribbean	-11.318
▁assault	-11.3181
▁protective	-11.3181
▁castle	-11.3182
GS	-11.3183
tell	-11.3184
base	-11.3185
▁subscribe	-11.3185
▁asks	-11.3187
FP	-11.3187
▁leisure	-11.3187
▁thirty	-11.3187
vid	-11.3189
NG	-11.3189
bell	-11.319
▁Records	-11.319
▁niche	-11.3191
▁Constitution	-11.3191
lb	-11.3192
▁appealing	-11.3192
IV	-11.3194
▁Ren	-11.3201
▁Basic	-11.3201
▁straightforward	-11.3201
▁digit	-11.3203
▁healthier	-11.3203
▁tale	-11.3204
▁Yoga	-11.3205
▁sentiment	-11.3205
▁Certificate	-11.3208
▁adjacent	-11.3208
tus	-11.3211
▁Anne	-11.3211
▁welcoming	-11.3212
sign	-11.3213
▁clay	-11.3214
▁teaches	-11.3216
▁balloon	-11.3216
▁cups	-11.3218
▁adjusted	-11.322
nor	-11.3221
▁fallen	-11.3221
▁Kate	-11.3223
▁restricted	-11.3223
walk	-11.3225
▁fraction	-11.3225
▁elite	-11.3226
TR	-11.3226
rc	-11.3227
▁lenses	-11.3227
anna	-11.3229
▁Virtual	-11.3229
oop	-11.3231
▁writes	-11.3232
▁emerge	-11.3233
▁scroll	-11.3233
UC	-11.3233
city	-11.3236
▁chef	-11.3237
▁myth	-11.3239
▁evident	-11.324
▁generating	-11.324
▁Culture	-11.324
sburg	-11.3242
▁veteran	-11.3243
▁(7	-11.3245
▁paste	-11.3245
▁finishes	-11.3246
▁Syn	-11.3246
▁wax	-11.3246
α	-11.3247
▁Corporate	-11.3247
▁Summit	-11.3247
▁preventing	-11.3249
▁coastal	-11.3249
ige	-11.3249
▁Value	-11.3251
▁belonging	-11.3252
▁fed	-11.3252
▁homemade	-11.3252
▁demanding	-11.3253
▁citizen	-11.3253
▁machinery	-11.3254
▁Charlotte	-11.3257
▁refreshing	-11.3258
▁renewable	-11.3259
▁optical	-11.3263
▁Fred	-11.3263
path	-11.3265
▁wallet	-11.3265
ND	-11.3266
▁Package	-11.3266
▁Document	-11.3266
NY	-11.3267
▁deciding	-11.3268
▁placeholder	-11.327
▁royal	-11.3274
kind	-11.3274
will	-11.3275
▁complaints	-11.3277
▁convinced	-11.3278
ی	-11.3278
▁boats	-11.328
▁Pinterest	-11.328
▁lately	-11.3281
▁Netherlands	-11.3282
▁crisp	-11.3284
▁couples	-11.3285
▁pond	-11.3285
▁tires	-11.3286
▁polish	-11.3287
asse	-11.3288
▁horror	-11.3289
▁tears	-11.3292
▁colleges	-11.3293
▁establishing	-11.3294
iding	-11.3294
▁obtaining	-11.3295
dra	-11.3295
▁concluded	-11.3296
▁66	-11.33
oil	-11.33
▁Until	-11.33
▁elderly	-11.3302
▁SS	-11.3305
▁refrigerator	-11.3307
▁waist	-11.3307
▁skirt	-11.3307
▁distribute	-11.3309
bby	-11.3309
kh	-11.3316
▁packing	-11.332
▁Hat	-11.3321
They	-11.3322
▁WI	-11.3322
▁anticipated	-11.3324
▁Pur	-11.3324
▁lovers	-11.3324
▁boasts	-11.3325
▁Poly	-11.3327
3)	-11.3327
▁Guard	-11.333
▁drone	-11.3334
▁liberal	-11.3334
▁calculate	-11.3334
▁lighter	-11.3334
▁GP	-11.3335
▁Anthony	-11.3339
▁scar	-11.3339
▁pound	-11.334
▁$8	-11.3341
pped	-11.3341
▁algorithm	-11.3348
▁Baker	-11.3348
▁Address	-11.335
nan	-11.3352
sur	-11.3352
▁merchandise	-11.3356
logist	-11.3356
▁GM	-11.3357
▁fortunate	-11.3358
rah	-11.3359
dle	-11.3359
▁god	-11.336
▁Grade	-11.3361
▁pros	-11.3362
▁Mul	-11.3363
▁Hub	-11.3365
▁Cream	-11.3366
▁reservation	-11.3366
▁Jet	-11.3367
▁Premium	-11.3367
▁cro	-11.3371
▁recruit	-11.3373
through	-11.3373
▁1991	-11.3376
▁Susan	-11.3377
▁Owner	-11.3378
▁booth	-11.3379
▁governor	-11.338
▁candy	-11.338
cel	-11.3381
▁62	-11.3383
▁thrown	-11.3386
▁regret	-11.3393
▁speaks	-11.3393
rose	-11.3393
▁Stra	-11.3394
cht	-11.3394
▁integral	-11.3395
▁decoration	-11.3399
▁corporations	-11.34
▁queen	-11.3401
▁11,	-11.3405
▁burst	-11.3406
▁boom	-11.3408
▁Amazing	-11.341
▁oversee	-11.341
▁Sar	-11.3411
ground	-11.3411
own	-11.3412
▁supportive	-11.3412
coming	-11.3412
▁nobody	-11.3416
▁Results	-11.3417
▁Hunter	-11.3418
▁Lead	-11.3419
▁gauge	-11.3424
▁balls	-11.3425
zing	-11.3426
▁offensive	-11.3428
▁EN	-11.3428
▁Row	-11.3429
▁contacts	-11.3429
▁educate	-11.3429
▁varieties	-11.3431
IF	-11.3432
ites	-11.3434
▁discretion	-11.3435
▁visibility	-11.3438
▁Residential	-11.3439
shi	-11.3439
▁cab	-11.344
▁divide	-11.3441
▁compelling	-11.3442
▁Cheap	-11.3443
▁starter	-11.3444
▁vessel	-11.3446
oy	-11.3447
я	-11.3449
▁vegetable	-11.345
▁Dry	-11.3451
▁110	-11.3452
▁handful	-11.3452
▁Gulf	-11.3453
▁Treatment	-11.3454
▁Spec	-11.3455
▁GT	-11.3456
▁embedded	-11.3456
▁fails	-11.3457
▁heated	-11.3458
▁manually	-11.346
itude	-11.346
▁Alabama	-11.3463
▁bloom	-11.3463
▁beneath	-11.3463
▁closest	-11.3464
▁Fashion	-11.3467
▁logical	-11.3468
▁affairs	-11.3469
DM	-11.3469
fold	-11.3472
▁Register	-11.3472
▁Hal	-11.3477
nam	-11.3484
▁continually	-11.3484
▁aggregate	-11.3485
▁compromise	-11.3488
▁correction	-11.3489
rri	-11.3489
▁350	-11.3492
amine	-11.3492
▁attempting	-11.3493
▁AB	-11.3496
▁premises	-11.3496
rink	-11.3497
▁max	-11.3498
▁thrive	-11.3499
▁dye	-11.3501
▁2008.	-11.3501
▁ears	-11.3501
▁appliance	-11.3501
▁Sat	-11.3502
▁equation	-11.3503
Tech	-11.3505
▁disabilities	-11.3507
▁1950	-11.3508
▁Grey	-11.3508
▁Oracle	-11.351
▁trademark	-11.351
lyn	-11.3513
fra	-11.3513
▁entities	-11.3514
▁treats	-11.3516
▁Ski	-11.3517
▁kidney	-11.3519
stick	-11.352
▁preview	-11.3522
▁classified	-11.3522
▁Works	-11.3523
▁Gary	-11.3523
logical	-11.3525
TP	-11.3525
▁poster	-11.3525
▁criticism	-11.3526
flow	-11.3527
Cl	-11.3527
▁Geo	-11.353
▁6-	-11.3531
▁tra	-11.3532
▁Gray	-11.3533
▁CF	-11.3534
▁Present	-11.3535
▁separation	-11.3535
▁therapeutic	-11.3537
▁reset	-11.3538
▁nationwide	-11.354
▁mesh	-11.354
ced	-11.3541
▁VPN	-11.3541
driven	-11.3542
▁bicycle	-11.3543
dem	-11.3543
▁dessert	-11.3544
▁conjunction	-11.3546
▁́	-11.3547
▁radiation	-11.3548
▁nano	-11.3549
When	-11.355
▁LO	-11.3552
▁speeds	-11.3553
▁bonds	-11.3553
▁GE	-11.3553
OM	-11.3553
NI	-11.3554
▁implications	-11.3554
▁BI	-11.3555
▁informative	-11.3555
FS	-11.3555
anti	-11.3555
▁sensors	-11.3559
▁contributing	-11.3561
▁destruction	-11.3564
▁silence	-11.3565
▁queries	-11.3565
▁quit	-11.3571
▁promising	-11.3572
▁assisted	-11.3572
zu	-11.3573
▁Rod	-11.3575
▁lobby	-11.3576
cake	-11.3578
UT	-11.3579
▁defendant	-11.3579
ink	-11.3583
▁wage	-11.3585
▁preference	-11.3585
▁3:	-11.3587
▁rocks	-11.3587
▁Fish	-11.3587
▁screens	-11.3588
▁descend	-11.359
▁supplements	-11.3592
▁Schools	-11.3596
▁observation	-11.3598
▁addressing	-11.3598
▁Wil	-11.3599
▁Democrats	-11.3602
▁blocked	-11.3604
▁Dad	-11.3605
▁outlet	-11.3606
▁crossing	-11.3607
▁Current	-11.3607
▁Technologies	-11.3608
▁Century	-11.3608
▁Images	-11.3612
▁Canon	-11.3612
▁episodes	-11.3612
note	-11.3612
▁horizontal	-11.3612
▁labour	-11.3617
trans	-11.3617
▁ED	-11.3617
ffer	-11.3619
▁Eve	-11.362
▁Details	-11.3621
▁propose	-11.3623
▁profound	-11.3623
char	-11.3625
▁anybody	-11.3628
▁consist	-11.363
ike	-11.3633
▁priorities	-11.3633
▁Allow	-11.3634
▁Cast	-11.3634
▁IV	-11.3635
▁2019,	-11.3637
▁functioning	-11.3638
▁Rent	-11.364
▁Saudi	-11.3643
arch	-11.3646
▁promo	-11.3646
▁eager	-11.3647
uro	-11.3648
▁vector	-11.3648
▁Moore	-11.3649
ded	-11.3651
▁prestigious	-11.3652
▁particles	-11.3652
▁spark	-11.3655
▁dresses	-11.3655
▁adventures	-11.3656
▁march	-11.3656
▁governance	-11.366
▁adverse	-11.3663
▁peel	-11.3665
rad	-11.3666
▁combining	-11.3666
▁Utah	-11.3667
▁advisor	-11.367
▁Answer	-11.367
▁mall	-11.367
▁dozens	-11.3671
▁McG	-11.3674
▁swap	-11.3675
izz	-11.3677
RM	-11.3679
▁contacted	-11.368
▁Users	-11.368
▁Defense	-11.3681
fla	-11.3682
▁GB	-11.3687
One	-11.3689
lat	-11.369
▁inflation	-11.3692
tas	-11.3693
▁Path	-11.3695
▁manuscript	-11.3696
▁surf	-11.3697
train	-11.3702
▁Falls	-11.3703
▁envelope	-11.3703
lio	-11.3705
▁careers	-11.3706
▁footage	-11.3707
▁Kentucky	-11.371
▁Imagine	-11.371
ech	-11.3714
▁Jun	-11.3716
▁Index	-11.3717
▁Mall	-11.3718
▁attain	-11.3718
comp	-11.3719
▁//	-11.372
▁Alan	-11.3721
▁puzzle	-11.3721
▁shelves	-11.3722
-30	-11.3723
▁Bath	-11.3723
▁assign	-11.3724
▁Skin	-11.3724
ail	-11.3726
▁HIV	-11.3728
▁bitter	-11.3728
▁lined	-11.3729
▁(6	-11.373
▁bolt	-11.373
▁wardrobe	-11.3733
▁boring	-11.3734
▁alleged	-11.3734
▁highlighted	-11.3736
▁accurately	-11.3736
▁conclude	-11.374
▁ties	-11.3743
ured	-11.3744
▁compliment	-11.3746
▁villa	-11.3747
▁Aid	-11.3747
▁cooler	-11.3747
▁Cold	-11.3747
▁welcomed	-11.3748
▁Bas	-11.3753
▁reflected	-11.3754
▁enjoys	-11.3754
sum	-11.3756
▁SM	-11.376
GO	-11.3762
▁INC	-11.3763
▁Palace	-11.3763
▁rig	-11.3763
▁gaining	-11.3764
▁pickup	-11.3766
▁flavour	-11.3766
▁twelve	-11.3766
▁embodiment	-11.3766
▁migration	-11.3768
▁cinema	-11.3768
▁Tickets	-11.3769
tch	-11.3769
▁WITH	-11.377
ific	-11.377
▁Excellent	-11.3773
mmer	-11.3775
teen	-11.3775
▁stall	-11.3776
▁habitat	-11.3778
▁flows	-11.3779
▁folk	-11.3782
▁poem	-11.3784
▁epic	-11.3787
▁Pages	-11.3788
▁microwave	-11.3788
▁30,	-11.3789
good	-11.3791
▁valued	-11.3791
▁archive	-11.3791
lier	-11.3792
▁Wars	-11.3793
▁Designed	-11.3795
▁Imp	-11.3796
▁Glen	-11.3797
▁Philippines	-11.3797
But	-11.3798
▁bankruptcy	-11.3799
▁oz	-11.38
▁ter	-11.38
▁Match	-11.3802
▁Nat	-11.3803
▁cottage	-11.3803
▁Focus	-11.3803
▁dan	-11.3804
▁graduates	-11.3806
▁pulling	-11.3807
▁pork	-11.3807
▁sudden	-11.3808
▁Location	-11.3811
▁pig	-11.3811
▁confusion	-11.3811
▁receives	-11.3812
▁tricks	-11.3812
▁RV	-11.3816
▁Install	-11.3818
▁58	-11.3821
▁Edge	-11.3822
▁(3)	-11.3823
stream	-11.3824
▁conducting	-11.3826
▁Sara	-11.3827
▁assure	-11.3827
lift	-11.3829
lem	-11.3829
▁inexpensive	-11.3831
▁Published	-11.3833
▁granite	-11.3833
▁Exp	-11.3834
▁nerve	-11.3835
▁Andy	-11.3835
-14	-11.3838
▁bride	-11.3839
▁Cer	-11.3845
▁isolated	-11.3846
▁cognitive	-11.3848
▁mice	-11.385
▁suicide	-11.3851
▁synthetic	-11.3853
▁Shipping	-11.3856
▁brass	-11.3856
AF	-11.3857
▁globally	-11.3858
/8	-11.3858
ulating	-11.3859
▁Mining	-11.3859
▁programmes	-11.386
▁Blu	-11.3861
pay	-11.3861
▁Francis	-11.3861
dr	-11.3862
▁Question	-11.3863
east	-11.3864
▁debris	-11.3866
▁Merc	-11.3868
▁humanity	-11.3869
▁pal	-11.3869
▁clever	-11.3871
4-	-11.3874
rent	-11.3875
▁PE	-11.3876
▁organ	-11.3876
▁Luke	-11.3877
▁glory	-11.3877
une	-11.3882
html	-11.3885
▁dock	-11.3885
▁Islands	-11.3889
▁angry	-11.3889
▁ru	-11.3889
IST	-11.389
vie	-11.3892
▁stove	-11.3897
▁Grace	-11.3897
▁Host	-11.3904
▁Hence	-11.3905
HI	-11.3905
▁interpret	-11.3905
▁Extra	-11.3906
▁organizing	-11.3908
AG	-11.3908
▁margin	-11.391
▁Traditional	-11.3912
▁align	-11.3913
▁Hawaii	-11.3913
▁seemingly	-11.3915
bling	-11.3916
▁reaches	-11.3918
▁2009,	-11.3919
▁gro	-11.3922
mers	-11.3928
til	-11.3928
lig	-11.3929
▁snacks	-11.393
▁node	-11.3931
▁sunny	-11.3933
▁booked	-11.3935
NET	-11.3935
▁rope	-11.3935
▁Voice	-11.3942
lis	-11.3943
▁norm	-11.3948
▁24/7	-11.3949
▁Fat	-11.3949
MM	-11.3952
dent	-11.3954
▁reminded	-11.3954
▁EV	-11.3955
▁partial	-11.3957
▁presidential	-11.3959
▁Blood	-11.396
▁disappear	-11.3961
ras	-11.3962
▁badge	-11.3962
▁13,	-11.3964
▁worthy	-11.3965
▁violent	-11.3966
▁Palestinian	-11.3968
▁AG	-11.397
▁Finding	-11.3972
eller	-11.3972
tribu	-11.3973
▁Transfer	-11.3976
▁decreased	-11.3977
▁consistency	-11.3979
▁legally	-11.3979
ographic	-11.398
▁NI	-11.398
▁Active	-11.3981
▁Pine	-11.3984
▁adapted	-11.3984
▁Sweden	-11.3986
▁porch	-11.3987
▁Rate	-11.3989
▁Zone	-11.399
they	-11.3994
▁Jul	-11.3994
▁marble	-11.3995
▁conferences	-11.3996
ml	-11.3996
aught	-11.3997
▁Release	-11.3998
▁Bet	-11.3998
▁pl	-11.4003
▁SI	-11.4004
▁SQL	-11.4009
▁hypo	-11.4009
▁honestly	-11.4013
▁attempted	-11.4014
▁silk	-11.4015
▁Wy	-11.4017
▁Fed	-11.4017
▁creatures	-11.4019
▁Captain	-11.4021
▁admire	-11.4025
▁Leadership	-11.4025
▁Hopefully	-11.4025
▁Excel	-11.4025
ination	-11.4027
▁affecting	-11.4028
lect	-11.4029
▁accessed	-11.4029
ounce	-11.403
▁regarded	-11.4031
nna	-11.4033
▁Ji	-11.4034
▁backpack	-11.4035
▁15,	-11.4038
▁8,	-11.4041
▁1989	-11.4042
▁accepting	-11.4043
▁03	-11.4047
ended	-11.4047
than	-11.405
▁token	-11.4051
LU	-11.4054
▁outline	-11.4054
▁consecutive	-11.4055
▁medal	-11.4055
▁minerals	-11.4057
▁membrane	-11.4059
▁Workshop	-11.4059
▁id	-11.406
▁intensive	-11.4061
▁seeks	-11.4062
stead	-11.4063
▁peers	-11.4064
▁keywords	-11.4069
▁Girls	-11.4069
▁dirty	-11.4074
▁Maine	-11.4075
▁nearest	-11.4077
▁voices	-11.4078
▁barriers	-11.4081
▁pla	-11.4083
▁Events	-11.4083
▁Secret	-11.4086
▁mp	-11.4087
aro	-11.4091
shirt	-11.4091
▁ranks	-11.4092
▁whi	-11.4096
▁arguments	-11.4097
▁inflammation	-11.4101
▁deploy	-11.4103
▁Mode	-11.4104
▁onions	-11.4107
▁Dal	-11.411
▁fired	-11.411
▁electro	-11.4111
▁barrier	-11.4113
▁deaths	-11.4114
▁Includes	-11.4114
▁floating	-11.4114
▁Mus	-11.4115
▁22,	-11.4115
▁packet	-11.412
▁Beyond	-11.412
▁magazines	-11.4121
▁withdrawal	-11.4122
▁30-	-11.4122
▁spice	-11.4123
▁Dia	-11.4124
▁crafts	-11.4125
▁Invest	-11.4125
▁Something	-11.4129
▁Build	-11.4131
▁cleaned	-11.4132
▁dramatically	-11.4132
ages	-11.4133
nar	-11.4133
arm	-11.4133
▁headquarters	-11.4135
▁cheapest	-11.4136
▁throwing	-11.4136
900	-11.4137
▁Whit	-11.4138
▁adorable	-11.4139
▁physics	-11.4139
▁Rio	-11.4141
▁Tokyo	-11.4143
▁structured	-11.4145
▁gig	-11.4147
▁Bond	-11.4148
▁charts	-11.415
▁ci	-11.4151
▁Tiger	-11.4153
▁Lang	-11.4154
horn	-11.4155
▁bro	-11.4156
▁Horse	-11.4157
▁vet	-11.4159
▁shield	-11.416
▁vol	-11.4161
▁CP	-11.4162
▁depart	-11.4163
▁grows	-11.4163
She	-11.4163
▁Homes	-11.4165
▁resolved	-11.4166
last	-11.4166
▁Cent	-11.4167
▁organizational	-11.4168
▁stimulate	-11.417
▁float	-11.4171
▁Senator	-11.4174
▁cl	-11.4174
▁brave	-11.4176
▁kits	-11.4176
▁hint	-11.4177
commerce	-11.4177
▁waterproof	-11.4178
nz	-11.4178
HC	-11.4179
BE	-11.418
▁clarity	-11.4181
▁Fra	-11.4183
▁Past	-11.4183
▁hardwood	-11.4186
▁linear	-11.4187
▁costume	-11.4188
▁syndrome	-11.4189
▁chill	-11.4189
▁Lar	-11.4192
!).	-11.4193
LD	-11.4194
▁basics	-11.4196
books	-11.4196
▁Dress	-11.4197
vit	-11.4197
scape	-11.4198
edu	-11.4201
una	-11.4201
▁Stage	-11.4202
▁Jose	-11.4205
Mar	-11.4205
lli	-11.4205
▁printable	-11.421
pr	-11.4212
▁Bee	-11.4213
▁partnerships	-11.4218
▁63	-11.4221
▁а	-11.4221
▁Born	-11.4222
▁buffer	-11.4223
▁litigation	-11.4224
▁populations	-11.4224
yne	-11.4225
▁Orleans	-11.4228
▁spill	-11.4228
▁psycho	-11.4231
kill	-11.4231
▁organised	-11.4231
▁Spin	-11.4232
▁tongue	-11.4232
▁transformed	-11.4233
▁decorated	-11.4233
▁violation	-11.4234
AI	-11.424
GI	-11.4243
▁Gro	-11.4245
▁thrilled	-11.4246
▁slim	-11.4246
▁rejected	-11.4249
▁Indonesia	-11.425
▁Taiwan	-11.4251
▁attendees	-11.4251
▁Amy	-11.4252
▁armed	-11.4254
story	-11.4256
▁carb	-11.4258
▁graduation	-11.4259
BB	-11.426
▁symbols	-11.426
start	-11.4262
▁adhere	-11.4263
▁accent	-11.4264
▁melt	-11.4264
▁Var	-11.4264
▁Notice	-11.4265
▁Directors	-11.4265
ICE	-11.4267
ander	-11.4268
▁macro	-11.4274
▁roast	-11.4274
▁ur	-11.4275
▁Decor	-11.4277
standing	-11.4277
phil	-11.428
▁Swiss	-11.4282
▁Regulation	-11.4282
▁relaxation	-11.4283
▁UP	-11.4283
▁spine	-11.4283
▁executed	-11.4284
▁Protect	-11.4285
▁57	-11.4285
▁gra	-11.4285
▁donate	-11.4285
▁Housing	-11.4287
▁uploaded	-11.4288
▁Write	-11.4288
bl	-11.4289
yer	-11.4292
▁Stadium	-11.4294
▁pressing	-11.4299
▁61	-11.4301
▁gluten	-11.4302
▁architect	-11.4303
▁suppose	-11.4306
▁Text	-11.4306
▁MB	-11.4307
▁introducing	-11.4309
▁favorites	-11.431
shot	-11.431
▁cousin	-11.4311
mid	-11.4311
▁Partners	-11.4314
▁duck	-11.4314
▁onion	-11.4314
▁Info	-11.4317
▁corners	-11.4317
▁unnecessary	-11.4317
▁Truck	-11.4318
clo	-11.4324
▁14,	-11.4324
▁les	-11.4325
▁Native	-11.4326
charge	-11.4327
▁lyrics	-11.4327
▁Listen	-11.433
▁legendary	-11.433
▁winds	-11.4335
▁handed	-11.4338
▁mit	-11.4338
▁Harvard	-11.4341
▁(10	-11.4341
▁Sleep	-11.4341
▁Record	-11.4344
▁Sil	-11.4344
▁Fortunately	-11.4344
▁alternate	-11.4345
▁wheat	-11.4345
▁bur	-11.4346
▁Albert	-11.4346
iki	-11.4347
oe	-11.4348
▁wool	-11.4349
▁101	-11.4351
▁Switzerland	-11.4352
▁institute	-11.4352
rge	-11.4357
▁opera	-11.4359
▁Knight	-11.4359
▁Years	-11.4359
ema	-11.4362
▁Plans	-11.4362
▁honored	-11.4365
▁excel	-11.4367
tag	-11.4368
▁upset	-11.4368
mile	-11.4369
▁perceived	-11.437
▁consciousness	-11.437
▁Rental	-11.4371
▁finds	-11.4374
▁analog	-11.4375
▁loyal	-11.4375
iving	-11.4375
▁cannabis	-11.438
▁Antonio	-11.438
▁metres	-11.4381
▁candle	-11.4383
▁Universal	-11.4384
▁Die	-11.4385
▁cushion	-11.4386
rail	-11.4387
▁Cru	-11.4388
▁Designer	-11.4389
▁cylinder	-11.4394
▁buzz	-11.4396
▁Ter	-11.4397
▁Costa	-11.4397
▁conform	-11.4398
show	-11.4399
▁practicing	-11.44
▁exams	-11.4402
в	-11.4402
▁targeting	-11.4404
suit	-11.4406
ppy	-11.4407
▁insulation	-11.4411
door	-11.4412
:15	-11.4413
▁Chef	-11.4414
▁sellers	-11.4415
▁Clinic	-11.4416
▁Stand	-11.4419
▁HS	-11.442
mil	-11.4422
▁psychology	-11.4423
▁Shu	-11.4426
▁ser	-11.4427
▁stairs	-11.4431
▁Sab	-11.4432
ault	-11.4433
gio	-11.4434
▁Pink	-11.4434
▁intra	-11.4435
▁defence	-11.4436
hou	-11.4436
▁dying	-11.4437
▁practitioners	-11.4438
▁composite	-11.4439
oso	-11.4439
▁collar	-11.444
organ	-11.4441
▁restored	-11.4442
▁steering	-11.4442
▁Adobe	-11.4443
▁Ur	-11.4444
▁Independent	-11.4444
▁coins	-11.4445
▁smoothly	-11.4446
▁Associate	-11.4446
kg	-11.4446
break	-11.4448
emi	-11.4449
▁Beauty	-11.4449
user	-11.445
gri	-11.4451
▁Jar	-11.4451
▁24-	-11.4451
▁independently	-11.4452
▁mad	-11.4452
▁garbage	-11.4455
UE	-11.4455
▁Clinical	-11.4457
▁Communication	-11.4459
▁cri	-11.4459
▁reasonably	-11.446
▁drawings	-11.446
▁tends	-11.4463
▁prizes	-11.4465
▁cozy	-11.4466
▁emerged	-11.4468
ARD	-11.4469
▁hungry	-11.4472
▁Kenya	-11.4472
▁adjustment	-11.4474
▁suggestion	-11.4477
▁3.5	-11.4478
Our	-11.4478
▁pharmacy	-11.4479
▁survived	-11.448
▁referring	-11.448
▁Luc	-11.4481
▁hood	-11.4482
▁Congratulations	-11.4483
▁genes	-11.4484
gest	-11.4486
▁Gil	-11.4488
▁radi	-11.4488
▁chairman	-11.4488
▁Specialist	-11.4489
▁haul	-11.449
▁10,000	-11.4491
▁header	-11.4492
▁varying	-11.4493
▁Gun	-11.4494
▁controlling	-11.4498
▁Pic	-11.4499
▁stolen	-11.4501
roid	-11.4501
astic	-11.4501
▁Coloring	-11.4502
▁mandatory	-11.4503
▁Dumpster	-11.4503
▁ingredient	-11.4503
uni	-11.4503
▁Hy	-11.4504
▁harvest	-11.4505
▁theoretical	-11.4507
▁patience	-11.4507
▁priest	-11.4507
▁assignments	-11.4507
▁permits	-11.4507
▁harness	-11.4508
▁21,	-11.4509
▁vessels	-11.451
к	-11.4511
-13	-11.4511
▁corruption	-11.4512
▁$9	-11.4513
▁handles	-11.4515
▁Revolution	-11.4515
member	-11.4515
eye	-11.4516
thy	-11.4516
▁Environment	-11.4518
▁Shower	-11.452
▁ore	-11.452
▁77	-11.4521
▁Laura	-11.4521
arian	-11.4521
▁tomato	-11.4521
▁rival	-11.4523
/10	-11.4524
umble	-11.4526
jan	-11.4527
▁pose	-11.4528
blo	-11.4529
▁warming	-11.4529
▁Commerce	-11.4533
▁profitable	-11.4535
tine	-11.4538
▁nut	-11.4539
▁mainstream	-11.454
▁Josh	-11.454
▁occupation	-11.4541
▁Ker	-11.4541
▁Tel	-11.4544
pal	-11.4544
▁dressed	-11.4546
Go	-11.4547
▁vanilla	-11.4547
▁triple	-11.4551
▁Honor	-11.4553
▁accordingly	-11.4553
▁indicator	-11.4556
▁Philip	-11.4557
▁Registration	-11.4558
▁NYC	-11.456
▁2007.	-11.456
▁magnet	-11.4562
▁threshold	-11.4562
▁baked	-11.4566
▁detected	-11.4566
▁welfare	-11.4566
▁mandate	-11.4567
dding	-11.4568
▁Chan	-11.457
▁supervisor	-11.457
▁reactions	-11.4575
▁Ground	-11.4575
▁cone	-11.4576
▁surround	-11.4577
▁Crystal	-11.4578
▁ports	-11.4579
▁Graduate	-11.4582
tier	-11.4583
iro	-11.4583
rite	-11.4585
▁Bruce	-11.4586
▁paths	-11.4586
▁3)	-11.4587
▁Lou	-11.4588
▁800-	-11.459
▁doll	-11.459
▁respected	-11.459
▁RAM	-11.4594
▁politicians	-11.4597
▁fundraising	-11.4599
▁ritual	-11.4599
ido	-11.4602
▁faithful	-11.4602
▁Awesome	-11.4603
main	-11.4605
▁broader	-11.4605
▁Zen	-11.4606
▁Thai	-11.4606
▁Flat	-11.4608
▁Bluetooth	-11.4611
▁bugs	-11.4611
▁(9	-11.4612
▁districts	-11.4613
though	-11.4613
aid	-11.4614
▁Window	-11.4618
▁Nevertheless	-11.4619
▁Player	-11.4619
▁tuned	-11.4619
▁alignment	-11.4621
Ad	-11.4623
II	-11.4624
▁inviting	-11.4627
aria	-11.4629
ao	-11.4631
▁washer	-11.4632
▁Twin	-11.4632
▁Actually	-11.4637
▁Browse	-11.4638
aba	-11.4638
▁poet	-11.464
▁$50	-11.464
▁rewarding	-11.4641
▁DS	-11.4641
▁stays	-11.4642
▁transparency	-11.4643
▁forming	-11.4643
▁cycling	-11.4643
▁Beck	-11.4645
▁Vision	-11.4646
▁Lots	-11.465
rog	-11.465
▁besides	-11.465
▁tattoo	-11.4651
▁pursuit	-11.4651
▁democracy	-11.4655
▁viewers	-11.4656
▁sensitivity	-11.4657
▁dont	-11.4658
▁aroma	-11.4659
▁font	-11.466
▁consisting	-11.4663
▁chunk	-11.4663
▁timber	-11.4667
▁wings	-11.4669
▁Commissioner	-11.4671
itter	-11.4672
RD	-11.4673
poli	-11.4674
▁farming	-11.4674
▁Res	-11.4675
▁enemies	-11.4675
angle	-11.4675
▁MT	-11.4675
host	-11.4675
▁inclusive	-11.468
▁Crown	-11.468
▁Es	-11.4681
▁Partner	-11.4685
▁sketch	-11.4686
▁pumpkin	-11.4686
▁Cab	-11.4689
▁Platform	-11.4691
rim	-11.4694
▁Architecture	-11.4696
▁portrait	-11.4697
▁offset	-11.4697
▁nomination	-11.4698
▁Different	-11.47
▁fought	-11.4704
▁Lisa	-11.4704
▁acute	-11.4705
makers	-11.4706
▁Sto	-11.4706
▁ri	-11.4709
▁Almost	-11.4709
▁sixth	-11.471
▁GO	-11.4712
stan	-11.4713
system	-11.4714
▁dividend	-11.4717
▁Wonder	-11.4719
▁Especially	-11.472
▁Fri	-11.472
▁wrist	-11.4721
▁Beat	-11.4721
gun	-11.4721
▁Fin	-11.4724
▁phenomenon	-11.4724
ela	-11.4726
▁encourages	-11.4727
▁Choice	-11.4729
▁gonna	-11.4729
▁strengths	-11.4732
▁Gor	-11.4732
▁Brooklyn	-11.4732
Or	-11.4732
▁browsing	-11.4732
▁toddler	-11.4732
SON	-11.4732
▁donated	-11.4737
stage	-11.4739
▁pun	-11.4739
▁Entertainment	-11.474
▁poison	-11.4741
▁es	-11.4742
▁Installation	-11.4744
د	-11.4744
▁dairy	-11.4744
▁surveys	-11.4745
▁lung	-11.4745
▁troops	-11.4746
▁infant	-11.4748
▁endeavor	-11.4748
bon	-11.4749
▁shaft	-11.4749
▁needle	-11.4753
▁None	-11.4754
▁sewing	-11.4754
▁Brook	-11.4755
▁slice	-11.4756
▁hol	-11.4756
HD	-11.4757
▁Regardless	-11.4757
▁mounting	-11.4757
▁tastes	-11.4758
▁sleeve	-11.4759
ANT	-11.4762
▁ARE	-11.4764
▁institutional	-11.4767
▁freely	-11.4767
check	-11.477
Ja	-11.4771
pic	-11.4772
▁picnic	-11.4773
▁bucket	-11.4775
▁stain	-11.4775
track	-11.4777
▁Vitamin	-11.4777
▁subsequently	-11.4777
building	-11.4777
▁Birthday	-11.4781
▁connectivity	-11.4782
▁Bun	-11.4782
▁lender	-11.4786
▁Kid	-11.4789
▁gang	-11.4789
▁orchestra	-11.4789
▁Garage	-11.479
▁workflow	-11.4791
▁professionally	-11.4793
▁oc	-11.4794
▁shipment	-11.4796
▁SH	-11.4796
IG	-11.4796
▁constitute	-11.4797
▁guns	-11.48
PD	-11.4801
▁UC	-11.4806
▁hammer	-11.4807
▁mailing	-11.4809
dit	-11.4809
mine	-11.4811
▁07	-11.4812
▁dropping	-11.4813
▁romance	-11.4814
▁Mumbai	-11.4814
▁railway	-11.4814
▁tailor	-11.4815
▁executives	-11.4815
ality	-11.4815
▁partially	-11.4817
ы	-11.4818
<	-11.4819
nom	-11.4819
rain	-11.4821
▁bathrooms	-11.4824
▁Edit	-11.4825
▁orientation	-11.4826
▁prescribed	-11.4833
▁surprisingly	-11.4836
▁captain	-11.4836
▁Diet	-11.4839
▁gen	-11.4839
▁Hack	-11.4841
tie	-11.4843
▁Fee	-11.4844
▁bikes	-11.4846
▁positioned	-11.4846
▁Ukraine	-11.4847
▁examined	-11.4849
▁evolved	-11.4851
▁retro	-11.4851
rank	-11.4854
▁literary	-11.4856
▁loyalty	-11.4856
▁dense	-11.4857
▁lands	-11.486
▁talents	-11.4861
▁cellular	-11.4862
▁Neuro	-11.4863
▁toast	-11.4863
▁Therapy	-11.4863
▁Howard	-11.4864
block	-11.4865
wed	-11.4866
▁Starting	-11.4867
BR	-11.4867
▁sunset	-11.4868
▁Bru	-11.4869
▁Tur	-11.487
illo	-11.4871
▁associations	-11.4873
▁strictly	-11.4874
uit	-11.4874
▁Hamilton	-11.4876
▁pencil	-11.4876
▁fears	-11.4876
▁700	-11.4877
▁59	-11.4877
▁timeline	-11.4878
▁26,	-11.4879
▁Impact	-11.4879
▁Connecticut	-11.488
▁Dur	-11.4881
▁Target	-11.4884
▁applicant	-11.4885
▁plum	-11.4886
wal	-11.4891
▁texts	-11.4891
dh	-11.4891
▁Greater	-11.4892
▁abandoned	-11.4895
▁composer	-11.4895
▁5%	-11.4895
▁23,	-11.4897
▁exotic	-11.4897
▁Republicans	-11.4897
▁reel	-11.4899
▁Purchase	-11.4901
▁publisher	-11.4901
fici	-11.4901
▁optimize	-11.4903
ILL	-11.4904
▁summit	-11.4904
▁safer	-11.4904
▁Month	-11.4906
▁explaining	-11.4907
▁Cleveland	-11.4909
▁paired	-11.4911
▁13.	-11.4911
▁advancement	-11.4911
▁1/4	-11.4912
▁warmth	-11.4915
▁SEC	-11.4916
mix	-11.4919
▁comparable	-11.4921
ssa	-11.4922
hun	-11.4923
▁sake	-11.4923
▁dynamics	-11.4924
▁Yellow	-11.4929
▁Apart	-11.4932
ESS	-11.4932
▁bullet	-11.4932
▁Walker	-11.4935
Sa	-11.4936
▁proceedings	-11.4938
▁grave	-11.4939
▁panic	-11.4941
bert	-11.4942
▁Barcelona	-11.4942
▁ribbon	-11.4942
▁damp	-11.4947
▁manifest	-11.4947
▁HA	-11.4948
▁assumed	-11.4949
aged	-11.4955
▁Khan	-11.4956
loc	-11.4958
▁bracket	-11.4959
▁educated	-11.4959
say	-11.4959
▁9,	-11.496
▁scenarios	-11.4961
▁RSS	-11.4962
▁BS	-11.4962
▁abundance	-11.4967
▁enthusiasm	-11.4967
▁bun	-11.4967
▁thickness	-11.4968
▁76	-11.4971
▁CM	-11.4971
verb	-11.4974
▁pupils	-11.4976
working	-11.4978
▁sisters	-11.4979
▁gallon	-11.498
▁searches	-11.4981
▁$15	-11.4982
▁static	-11.4982
▁Opera	-11.4983
▁Nike	-11.4984
mis	-11.4986
▁Ready	-11.4988
▁FC	-11.499
yes	-11.4992
▁bits	-11.4992
▁Hart	-11.4993
▁launching	-11.4995
▁thumb	-11.4998
5)	-11.4999
FL	-11.4999
▁fry	-11.4999
uld	-11.5001
▁insist	-11.5002
▁paperwork	-11.5002
▁underneath	-11.5005
▁BMW	-11.5005
▁Soviet	-11.5005
▁urgent	-11.5005
quin	-11.5006
▁grasp	-11.5006
vision	-11.5015
▁achievements	-11.5018
cons	-11.5018
▁ac	-11.5021
race	-11.5022
▁comparing	-11.5026
▁boutique	-11.5026
▁Dev	-11.5027
rag	-11.5027
▁acids	-11.5029
▁diesel	-11.5029
▁pioneer	-11.503
▁tuition	-11.503
▁complimentary	-11.5031
lab	-11.5032
nies	-11.5033
▁DI	-11.5033
▁attraction	-11.5038
plo	-11.5039
▁longest	-11.5041
▁lining	-11.5041
▁cocktail	-11.5043
▁Charlie	-11.5043
▁tee	-11.5045
▁barn	-11.5045
▁mal	-11.5046
▁revision	-11.5046
▁seminar	-11.5048
▁Zo	-11.5048
▁landmark	-11.5049
▁Tele	-11.505
very	-11.5051
▁classification	-11.5051
▁rolls	-11.5054
▁mysterious	-11.5055
▁CPU	-11.5055
▁intuitive	-11.5057
▁retention	-11.5057
▁Soul	-11.5059
▁chic	-11.5062
▁rug	-11.5064
▁helmet	-11.5065
oper	-11.5066
▁buried	-11.5068
▁informal	-11.5071
▁counseling	-11.508
▁Questions	-11.5081
That	-11.5084
▁riders	-11.5084
ude	-11.5084
otic	-11.5084
▁specializes	-11.5085
▁FDA	-11.5086
▁Seat	-11.5086
igan	-11.5087
▁landlord	-11.5089
▁Delivery	-11.509
▁competent	-11.509
▁Slot	-11.5093
▁urge	-11.5094
▁mag	-11.5095
▁Half	-11.5096
▁courtesy	-11.5097
▁hills	-11.51
▁empower	-11.5101
▁molecular	-11.5103
▁weekends	-11.5106
▁elementary	-11.5106
▁outlets	-11.5106
▁planting	-11.5108
Di	-11.5108
▁forums	-11.5109
▁tar	-11.5109
add	-11.5109
▁fr	-11.5113
▁brake	-11.5114
▁bot	-11.5114
▁30%	-11.5115
▁sheep	-11.5115
▁travelers	-11.5117
▁journalist	-11.5117
▁4:	-11.5118
▁surroundings	-11.5119
▁Karen	-11.5119
▁Schedule	-11.5123
phan	-11.5124
▁Continue	-11.5127
▁acoustic	-11.5127
▁demographic	-11.5127
generation	-11.5127
▁assessed	-11.5128
▁2008,	-11.5128
hab	-11.513
ç	-11.5131
▁dissertation	-11.5131
▁branding	-11.5136
guard	-11.5138
▁Emergency	-11.514
pl	-11.514
▁Disease	-11.514
▁Rain	-11.514
▁rib	-11.514
▁Camera	-11.514
ckle	-11.5141
igh	-11.5143
tens	-11.5143
▁holy	-11.5144
▁Log	-11.5145
▁mud	-11.5145
▁physicians	-11.5147
cum	-11.5148
▁Counsel	-11.5148
▁robot	-11.5148
ann	-11.515
erie	-11.5154
▁router	-11.5154
lib	-11.5154
▁Rd	-11.5158
▁nurses	-11.5158
▁Train	-11.5158
▁vitamins	-11.5161
▁pharmaceutical	-11.5161
▁breathe	-11.5161
itt	-11.5163
▁sooner	-11.5163
▁occasional	-11.5165
▁methodology	-11.5166
▁illustrated	-11.5166
▁16,	-11.5169
з	-11.5169
▁bare	-11.5172
▁fare	-11.5173
rating	-11.5174
▁Primary	-11.5174
▁appointments	-11.5178
▁judges	-11.5181
▁Cra	-11.5183
▁Duke	-11.5185
uda	-11.5186
!!!!	-11.519
▁notify	-11.519
used	-11.5191
▁Physical	-11.5191
▁planner	-11.5191
▁Kam	-11.5191
rm	-11.5193
▁vocal	-11.5196
▁flush	-11.5196
▁«	-11.5196
▁infections	-11.5197
▁ethnic	-11.5197
AST	-11.5199
ITE	-11.52
▁pine	-11.5201
pack	-11.5201
▁streams	-11.5202
▁1988	-11.5203
▁”	-11.5203
▁veterans	-11.5203
▁linen	-11.5203
▁Justin	-11.5204
6,	-11.5207
▁Kay	-11.5209
▁divine	-11.5209
▁substantially	-11.521
▁pillow	-11.5211
▁badly	-11.5213
▁hospitality	-11.5213
▁BY	-11.5214
▁Range	-11.5215
▁ghost	-11.5217
▁Organic	-11.5218
▁lime	-11.522
▁remembered	-11.522
▁distinction	-11.522
▁suspended	-11.5222
▁topped	-11.5225
▁arrow	-11.5225
▁soak	-11.5225
▁Barn	-11.5232
▁bracelet	-11.5235
▁diving	-11.5237
▁Netflix	-11.5238
▁boil	-11.524
▁Th	-11.5242
▁Julie	-11.5242
ces	-11.5242
▁Eat	-11.5243
▁Pot	-11.5247
▁enterprises	-11.5248
▁#2	-11.5248
▁NS	-11.5249
▁polymer	-11.5251
▁kingdom	-11.5251
▁Picture	-11.5251
▁shout	-11.5254
▁Chocolate	-11.5255
▁Otherwise	-11.5255
▁scary	-11.5256
▁perfection	-11.5259
ener	-11.526
▁fabrics	-11.5261
▁Jonathan	-11.5263
▁Archives	-11.5265
▁actress	-11.5268
▁mere	-11.5269
▁Tru	-11.5269
App	-11.527
ying	-11.5272
rov	-11.5272
lusion	-11.5273
▁bother	-11.5276
▁Madison	-11.5277
▁Risk	-11.5278
▁Sheet	-11.528
▁tier	-11.5283
▁mum	-11.5283
▁relieve	-11.5284
▁Shin	-11.5285
ennial	-11.5287
Ed	-11.5288
▁predicted	-11.5289
▁courage	-11.5289
▁trains	-11.5292
▁Either	-11.5293
▁confusing	-11.5294
▁crimes	-11.5294
▁Sie	-11.5298
kel	-11.53
▁Late	-11.53
▁acc	-11.5303
▁Features	-11.5304
▁logistics	-11.5306
▁mate	-11.5307
los	-11.5307
▁widespread	-11.5307
▁balcony	-11.5311
▁adjustments	-11.5311
▁newer	-11.5311
▁rounds	-11.5312
▁Polish	-11.5312
▁cease	-11.5313
▁assists	-11.5315
wait	-11.5316
LL	-11.5318
click	-11.5319
▁fixtures	-11.5319
▁cancellation	-11.532
bla	-11.5321
▁packs	-11.5323
▁Dodge	-11.5324
nish	-11.5324
▁Flo	-11.5326
▁Morning	-11.5326
▁FM	-11.5326
chy	-11.5327
▁Drop	-11.5328
▁80%	-11.5328
▁attracted	-11.5329
▁Client	-11.5332
▁voucher	-11.5332
▁SL	-11.5333
▁Bit	-11.5333
rupt	-11.5335
▁Poland	-11.5335
cost	-11.5335
▁SUV	-11.5336
▁collision	-11.5337
ré	-11.5339
▁glue	-11.534
▁Ranch	-11.5343
▁killer	-11.5343
ه	-11.5345
▁Issue	-11.5346
▁evaluated	-11.5346
▁terrain	-11.535
▁Newspaper	-11.535
▁68	-11.535
▁sporting	-11.5352
inc	-11.5354
ulu	-11.5354
▁continent	-11.5356
▁19,	-11.5358
oriented	-11.5358
▁Tam	-11.5361
MD	-11.5363
▁matched	-11.5364
▁ruled	-11.5364
process	-11.5365
▁Applications	-11.5365
▁Gla	-11.5365
▁necklace	-11.5367
▁Grove	-11.5368
▁Ship	-11.537
▁ladder	-11.5371
▁pixels	-11.5372
Pre	-11.5373
ن	-11.5376
▁Liverpool	-11.538
▁deficit	-11.538
▁considerably	-11.538
corn	-11.5383
utter	-11.5383
▁autumn	-11.5389
▁Christopher	-11.5391
fusion	-11.5391
▁delightful	-11.5392
▁centres	-11.5393
▁Reviews	-11.5394
▁realm	-11.5396
▁Kings	-11.5397
▁learners	-11.5397
▁teen	-11.5397
▁echo	-11.5399
▁Sep	-11.54
▁teens	-11.54
▁encountered	-11.5402
▁sprinkle	-11.5402
▁counts	-11.5402
▁consuming	-11.5403
▁Orlando	-11.5406
▁crawl	-11.5406
Ca	-11.5408
ald	-11.5409
▁knit	-11.5409
▁Aaron	-11.5411
▁drew	-11.5412
ges	-11.5412
blog	-11.5413
sson	-11.5413
▁activate	-11.5414
▁negotiations	-11.5417
▁merit	-11.5419
▁jersey	-11.5419
▁indicating	-11.5419
▁uncertainty	-11.542
mos	-11.5421
▁hoped	-11.5421
▁Finish	-11.5423
▁recreational	-11.5423
▁uncomfortable	-11.5424
▁Session	-11.5424
▁cheat	-11.5425
▁28,	-11.5425
gas	-11.5426
▁towel	-11.5428
▁tr	-11.5429
▁rides	-11.543
▁entrepreneur	-11.543
mbo	-11.5431
▁06	-11.5432
▁Generally	-11.5436
Ta	-11.5437
zone	-11.5439
▁humor	-11.544
yr	-11.5441
▁participant	-11.5441
▁turkey	-11.5441
▁giveaway	-11.5442
ancing	-11.5442
ega	-11.5443
AY	-11.5443
▁recognised	-11.5445
▁goodness	-11.5445
▁Turkish	-11.5446
▁verification	-11.5446
▁suggesting	-11.5446
▁25%	-11.5448
▁Artist	-11.545
▁disadvantage	-11.545
ctu	-11.545
▁draws	-11.545
▁modest	-11.545
hor	-11.5452
▁distinguish	-11.5453
each	-11.5454
▁Shore	-11.5454
HP	-11.5454
▁Moscow	-11.5454
▁Lower	-11.5459
▁Kir	-11.546
lets	-11.5461
▁17,	-11.5462
▁marking	-11.5463
▁museums	-11.5464
▁arising	-11.5465
▁neat	-11.5465
▁Jobs	-11.5466
▁analyzed	-11.5466
▁$500	-11.5466
▁Louisiana	-11.5467
gic	-11.5468
▁modeling	-11.5468
bie	-11.5469
▁offline	-11.547
▁proprietary	-11.5472
▁Wayne	-11.5472
▁Hawk	-11.5472
▁momentum	-11.5473
HR	-11.5474
▁wholesale	-11.5474
▁Fisher	-11.5475
▁observations	-11.548
×	-11.548
▁segments	-11.5482
wen	-11.5483
▁keyword	-11.5484
rel	-11.5484
▁secrets	-11.5485
▁stitch	-11.5486
▁78	-11.5486
▁rehabilitation	-11.5489
cular	-11.549
▁promoted	-11.5491
▁Mun	-11.5492
▁volumes	-11.5493
▁Climate	-11.5494
iel	-11.5494
▁updating	-11.5494
▁Freedom	-11.5496
▁05	-11.5496
▁reminds	-11.5497
▁blockchain	-11.5498
▁avoiding	-11.5499
▁parameter	-11.55
▁pea	-11.55
▁traveled	-11.5501
▁sustained	-11.5501
▁Mau	-11.5502
▁remodel	-11.5505
▁tribe	-11.5506
▁Jennifer	-11.5507
▁Built	-11.5511
color	-11.5512
▁adapter	-11.5512
▁prayers	-11.5512
▁crossed	-11.5515
▁frustration	-11.5516
▁140	-11.5516
▁palette	-11.5517
▁NBA	-11.5518
▁PT	-11.552
▁promptly	-11.552
▁Kin	-11.552
▁demon	-11.5521
▁retrieve	-11.5525
▁handmade	-11.5525
▁attribute	-11.5526
▁waters	-11.5526
▁Warren	-11.5527
▁Associates	-11.5527
▁monetary	-11.5529
vor	-11.5529
▁pulse	-11.5529
▁Chicken	-11.553
▁pastor	-11.5531
▁AA	-11.5532
gus	-11.5533
.99	-11.5536
▁("	-11.5537
Jo	-11.5538
▁Format	-11.5539
___	-11.554
▁lace	-11.5542
▁Vehicle	-11.5542
▁Dublin	-11.5543
▁describing	-11.5544
▁opponent	-11.5545
▁zones	-11.5546
etti	-11.5552
▁warned	-11.5552
ML	-11.5553
▁Zi	-11.5556
▁trainer	-11.5557
▁Touch	-11.5559
▁beta	-11.5564
▁lenders	-11.5565
▁Masters	-11.5567
▁Similarly	-11.5567
▁enrolled	-11.5568
▁licence	-11.5569
▁27,	-11.5569
▁benchmark	-11.557
mir	-11.557
▁curl	-11.5571
▁Firm	-11.5572
▁staple	-11.5573
▁approaching	-11.5574
▁sons	-11.5575
▁$25	-11.5576
eria	-11.5577
▁Whenever	-11.5581
▁Dating	-11.5582
▁Douglas	-11.5582
▁Flight	-11.5584
▁130	-11.5586
▁Discussion	-11.5588
▁touches	-11.5588
▁fried	-11.5589
shaped	-11.5589
mag	-11.559
▁Corner	-11.559
fest	-11.559
▁Supply	-11.5591
▁Route	-11.5593
▁bang	-11.5594
▁desirable	-11.5595
▁statue	-11.5596
▁Strong	-11.5596
▁median	-11.5596
igo	-11.5596
▁Lodge	-11.5597
▁§	-11.5597
omo	-11.5598
▁Baltimore	-11.56
▁Barbara	-11.56
▁critic	-11.56
▁statistical	-11.56
search	-11.5601
▁schemes	-11.5601
anger	-11.5602
▁forests	-11.5603
▁specification	-11.5606
Hi	-11.5606
▁chemistry	-11.5606
▁Weight	-11.5608
shed	-11.5609
ulated	-11.5609
▁leap	-11.5611
▁jury	-11.5612
50,000	-11.5614
▁complications	-11.5614
▁DM	-11.5614
▁undertake	-11.5614
▁Others	-11.5615
▁behaviors	-11.5615
▁notable	-11.5615
cross	-11.5617
▁HVAC	-11.5618
▁Jerusalem	-11.5618
ndi	-11.5618
▁Helen	-11.5619
▁notified	-11.5622
▁planted	-11.5623
▁Kil	-11.5625
earn	-11.5625
▁Device	-11.5628
▁Explore	-11.5628
▁Dor	-11.5629
▁rot	-11.563
▁villages	-11.563
▁Programme	-11.563
▁activated	-11.5631
▁Going	-11.5634
eek	-11.5636
▁discharge	-11.5636
▁sync	-11.5638
▁strand	-11.5639
▁declined	-11.5639
▁holders	-11.5639
▁Unless	-11.5639
▁upgraded	-11.564
▁pairs	-11.564
▁reject	-11.5642
lev	-11.5643
▁Ep	-11.5644
▁rust	-11.5645
▁Photography	-11.5645
▁Retail	-11.5648
▁buses	-11.5649
▁lodge	-11.5649
но	-11.565
▁educators	-11.5653
▁VR	-11.5655
▁Historical	-11.5657
▁eBay	-11.5658
TU	-11.5658
▁potato	-11.5662
▁Avoid	-11.5662
▁dated	-11.5664
▁pics	-11.5664
▁realise	-11.5667
▁stepped	-11.5672
▁Mine	-11.5675
lian	-11.5678
oodle	-11.5678
▁undertaking	-11.5679
▁securities	-11.568
▁scholars	-11.5688
▁Penn	-11.5689
▁Pictures	-11.5689
▁pipes	-11.5689
▁likewise	-11.569
▁Swa	-11.5691
▁circles	-11.5692
▁Version	-11.5694
▁WiFi	-11.5695
150	-11.5697
▁hose	-11.5697
COM	-11.5697
cco	-11.5698
▁retailer	-11.5699
▁vibe	-11.57
▁Gran	-11.57
▁pale	-11.57
▁cope	-11.5701
р	-11.5703
▁Career	-11.5706
▁Wait	-11.5706
▁25,	-11.5707
▁brochure	-11.5707
▁prep	-11.5709
Vi	-11.571
▁LP	-11.571
▁lending	-11.571
brand	-11.5711
▁Dy	-11.5711
▁Wide	-11.5714
his	-11.5715
▁Belgium	-11.5716
▁pools	-11.5717
▁temp	-11.5721
▁freeze	-11.5721
▁chapters	-11.5723
▁96	-11.5723
cit	-11.5723
rl	-11.5725
▁unemployment	-11.5726
▁Cow	-11.5729
▁fortune	-11.5729
▁afterwards	-11.573
▁tribute	-11.5734
▁gospel	-11.5734
▁shortage	-11.5736
1-	-11.5738
hra	-11.5739
▁67	-11.5739
▁CAN	-11.5743
▁Around	-11.5743
▁mindset	-11.5743
▁bounce	-11.5744
pit	-11.5745
▁Plastic	-11.5748
▁spoon	-11.5748
▁rustic	-11.575
▁repeatedly	-11.5751
▁anonymous	-11.5752
have	-11.5753
▁argued	-11.5756
▁pursuing	-11.5757
▁Contract	-11.5757
▁wound	-11.5758
▁Lauren	-11.5758
AV	-11.576
▁Obviously	-11.5761
▁stressed	-11.5761
▁er	-11.5762
▁lbs	-11.5765
▁Nevada	-11.5766
▁OP	-11.5766
▁Jam	-11.5766
▁OH	-11.5767
▁Brain	-11.5767
▁Fly	-11.5767
▁amazed	-11.5767
▁challenged	-11.5769
й	-11.577
▁mapping	-11.577
▁mega	-11.5771
▁acrylic	-11.5775
▁Nelson	-11.5775
▁Boot	-11.5775
▁shoulders	-11.5775
▁Birmingham	-11.5779
▁Speaker	-11.5781
fix	-11.5783
▁tv	-11.5783
▁Federation	-11.5784
cio	-11.5784
▁internship	-11.5784
▁regulate	-11.5788
▁Labour	-11.579
▁influences	-11.5794
park	-11.5796
▁lecture	-11.5797
▁ample	-11.58
▁arriving	-11.5802
max	-11.5803
▁nutritional	-11.5804
▁switching	-11.5805
tha	-11.5805
brook	-11.5806
minded	-11.5806
▁jack	-11.5806
▁sliding	-11.5807
▁lane	-11.5809
▁84	-11.5812
bat	-11.5813
▁circular	-11.5815
web	-11.5817
▁enhancement	-11.5818
▁needing	-11.5819
▁caution	-11.582
RR	-11.5821
urs	-11.5824
▁Intelligence	-11.5829
▁ambition	-11.5829
▁Knowledge	-11.5829
▁pic	-11.583
▁conviction	-11.583
cie	-11.583
▁SK	-11.5832
▁12,	-11.5837
▁chew	-11.5837
kov	-11.5838
▁stupid	-11.5838
▁Adams	-11.5839
▁Vista	-11.5842
food	-11.5842
▁enhancing	-11.5843
there	-11.5845
fore	-11.5853
▁Moving	-11.5853
▁Glad	-11.5856
▁enzyme	-11.5856
▁Wing	-11.586
force	-11.5863
asi	-11.5863
▁Resource	-11.5864
▁clearance	-11.5865
▁Baptist	-11.5865
▁chains	-11.5865
▁Southeast	-11.5867
data	-11.5867
▁Cooper	-11.5869
▁curtains	-11.5871
▁coding	-11.5872
▁probe	-11.5872
install	-11.5873
▁comprised	-11.5873
(1)	-11.5874
▁struggles	-11.5877
▁о	-11.5877
▁ignored	-11.5877
▁memorial	-11.5879
▁surveillance	-11.5879
tron	-11.588
emia	-11.5881
wash	-11.5881
▁upgrades	-11.5884
▁billing	-11.5884
▁limitation	-11.5884
..."	-11.5884
▁Parker	-11.5885
▁Delta	-11.589
▁Au	-11.589
▁Request	-11.5891
borough	-11.5891
tour	-11.5893
amo	-11.5897
stand	-11.5898
design	-11.5899
oa	-11.5899
▁advances	-11.5902
▁specialize	-11.5903
▁Factory	-11.5904
▁Leader	-11.5908
▁sm	-11.5909
▁bal	-11.5909
▁Qua	-11.591
▁PL	-11.5912
▁polished	-11.5915
▁Arabia	-11.5915
▁cartoon	-11.5916
VE	-11.5918
▁WILL	-11.5918
▁sword	-11.5919
▁progression	-11.5919
▁Mediterranean	-11.592
▁deleted	-11.592
▁disclose	-11.5921
▁delayed	-11.5925
▁sneak	-11.5925
▁lips	-11.5927
▁founding	-11.5928
NP	-11.5929
▁stressful	-11.593
▁cited	-11.5932
▁tobacco	-11.5934
▁promotions	-11.5935
▁compression	-11.5935
▁cargo	-11.5936
frame	-11.5937
▁Aqua	-11.5937
▁darkness	-11.5938
▁polar	-11.594
▁touched	-11.5941
▁Tip	-11.5941
white	-11.5944
▁explored	-11.5945
▁Beijing	-11.5948
firm	-11.5948
ра	-11.5949
▁perspectives	-11.5949
tures	-11.5956
Li	-11.5958
▁reviewing	-11.5959
-25	-11.5961
▁rally	-11.5962
▁unwanted	-11.5962
▁modes	-11.5962
century	-11.5962
▁landed	-11.5963
▁1987	-11.5964
▁bon	-11.5965
▁Brad	-11.5968
impl	-11.5969
▁collaborate	-11.597
▁surprises	-11.5972
▁qua	-11.5974
▁Czech	-11.5976
▁14.	-11.5976
▁NASA	-11.5976
▁builds	-11.5977
listed	-11.5978
▁consultants	-11.5978
▁flesh	-11.5981
▁humble	-11.5982
▁Sugar	-11.5982
chu	-11.5983
▁div	-11.5984
▁Mississippi	-11.5985
▁fragrance	-11.5985
▁74	-11.599
kins	-11.5991
▁milestone	-11.5992
▁evolve	-11.5995
iate	-11.5996
▁withdraw	-11.5997
▁Roy	-11.5998
▁nails	-11.5998
▁confidential	-11.5999
▁Marie	-11.6
▁salon	-11.6001
adi	-11.6001
▁emphasize	-11.6003
Net	-11.6003
▁Rachel	-11.6004
▁Legend	-11.6004
▁Jen	-11.6005
still	-11.6007
▁Publishing	-11.6008
para	-11.6011
lah	-11.6011
TY	-11.6012
▁annoying	-11.6013
▁characteristic	-11.6014
zel	-11.6017
▁seniors	-11.6017
▁:)	-11.6019
▁spices	-11.6021
eri	-11.6022
▁Charter	-11.6025
▁transplant	-11.6027
ologist	-11.6027
▁lightly	-11.6029
▁accredited	-11.6031
▁traders	-11.6031
▁Prepare	-11.6032
arrow	-11.6032
▁obstacles	-11.6032
▁Soon	-11.6033
▁recycled	-11.6033
▁jumping	-11.6034
LM	-11.6035
▁Tile	-11.6038
▁lend	-11.6039
keeping	-11.6039
gr	-11.6041
▁Qui	-11.6042
б	-11.6043
author	-11.6046
▁1986	-11.6048
anta	-11.6049
▁dominant	-11.605
▁dealt	-11.605
▁render	-11.6052
▁fatigue	-11.6054
▁substances	-11.6055
SR	-11.6055
▁Display	-11.6055
▁fra	-11.6057
▁descriptions	-11.6059
▁Carol	-11.6059
▁Wor	-11.6059
▁prohibited	-11.606
zzle	-11.606
▁deposits	-11.6062
▁sacred	-11.6064
wheel	-11.6064
▁μ	-11.6066
mph	-11.6068
▁spam	-11.6068
▁collapse	-11.6068
▁Days	-11.6069
▁Cla	-11.607
▁Br	-11.607
▁fate	-11.6071
▁exc	-11.6072
▁premiere	-11.6073
mination	-11.6074
▁Assessment	-11.6074
▁Tools	-11.6076
▁Desk	-11.6077
▁ridiculous	-11.6078
▁dealers	-11.6079
▁Az	-11.6079
▁blur	-11.608
bur	-11.608
▁occupied	-11.6081
▁connects	-11.6081
▁rum	-11.6082
▁assurance	-11.6082
▁assert	-11.6083
▁wages	-11.6083
▁Manhattan	-11.6087
▁sleek	-11.6087
▁tre	-11.6088
▁distant	-11.6088
▁albums	-11.6089
claim	-11.6089
▁Ry	-11.609
▁Reader	-11.6092
▁approve	-11.6092
▁Stick	-11.6094
▁Por	-11.6096
▁controversial	-11.6096
▁chase	-11.6097
▁Brit	-11.61
▁claiming	-11.6101
▁Options	-11.6102
▁batter	-11.6103
▁Russell	-11.6106
▁Kill	-11.6107
▁varies	-11.6109
▁fragment	-11.611
▁29,	-11.6111
▁88	-11.6112
▁000	-11.6112
▁Cruise	-11.6113
▁revised	-11.6113
▁rentals	-11.6113
▁$0	-11.6115
UP	-11.6116
▁simpler	-11.6116
▁sailing	-11.6117
▁Temp	-11.612
Mi	-11.6121
▁dealership	-11.6121
▁Contemporary	-11.6124
share	-11.6126
▁Kent	-11.6128
GR	-11.6129
▁24,	-11.613
▁proceeds	-11.613
▁disagree	-11.6132
▁broth	-11.6133
▁pedestrian	-11.6134
▁supervision	-11.6135
▁rap	-11.6135
flu	-11.6136
▁biology	-11.6136
▁Left	-11.6137
▁Contractor	-11.6139
▁steak	-11.6139
▁Hit	-11.6139
▁duct	-11.6142
▁Bin	-11.6144
▁Degree	-11.6144
▁Transportation	-11.6145
Can	-11.6146
▁tutor	-11.6147
▁secretary	-11.6148
▁illustration	-11.6149
▁fond	-11.6153
ITY	-11.6153
▁Rail	-11.6156
▁peanut	-11.6157
▁Essay	-11.6157
▁messaging	-11.6157
ante	-11.616
▁submitting	-11.6162
▁occurring	-11.6164
ried	-11.6164
▁approached	-11.6165
▁cakes	-11.6166
▁clause	-11.6167
▁scheduling	-11.6167
▁ONE	-11.6169
▁BBQ	-11.6173
▁sandwich	-11.6175
▁sturdy	-11.6176
▁installations	-11.6177
▁combo	-11.618
▁hunter	-11.6181
hoo	-11.6183
▁translated	-11.6185
▁glimpse	-11.6185
9-	-11.6186
rol	-11.6186
▁qui	-11.6187
▁intersection	-11.6188
uan	-11.6189
▁Parts	-11.6189
▁characterized	-11.6191
▁Graphic	-11.6191
▁Stan	-11.6193
▁whisk	-11.6193
▁thoughtful	-11.6193
▁bush	-11.6194
▁bail	-11.6195
▁Craig	-11.6196
▁lineup	-11.6196
pli	-11.6197
▁comm	-11.6198
▁Raj	-11.6201
▁breeze	-11.6204
▁animated	-11.6204
▁Walter	-11.6205
▁Near	-11.6207
▁neo	-11.6207
2015	-11.6208
▁insured	-11.6209
▁License	-11.6209
▁entertain	-11.6211
▁extends	-11.6211
▁combinations	-11.6212
bor	-11.6212
▁Switch	-11.6213
▁revenues	-11.6214
ista	-11.6215
▁flowing	-11.6215
▁banana	-11.6215
INE	-11.6216
▁Worth	-11.6217
▁desires	-11.6219
▁Campbell	-11.6219
▁hobby	-11.6219
▁wondered	-11.6221
▁Ent	-11.6221
▁Teacher	-11.6221
▁Frame	-11.6222
▁Arthur	-11.6224
osh	-11.6225
▁textile	-11.6227
▁Thompson	-11.6228
▁licensing	-11.6228
hem	-11.6235
▁elevated	-11.6237
▁cas	-11.6237
▁deserves	-11.6239
oxy	-11.624
▁Dakota	-11.6242
▁arena	-11.6243
ugh	-11.6243
▁rocket	-11.6244
▁satisfying	-11.6245
KE	-11.6245
▁Sco	-11.6245
▁compiled	-11.6247
▁Speaking	-11.6249
▁Singh	-11.6249
▁dryer	-11.6249
▁emotion	-11.625
▁horizon	-11.6251
▁Nutrition	-11.6252
▁catching	-11.6253
▁overhead	-11.6254
▁inquiry	-11.6256
▁Xbox	-11.6257
▁Rice	-11.6258
▁bookmark	-11.6259
▁breakdown	-11.626
▁frustrating	-11.6261
▁dash	-11.6261
▁Corn	-11.6264
▁restrict	-11.6264
▁Bla	-11.6265
cid	-11.6265
▁splash	-11.6266
lex	-11.6268
▁tanks	-11.6268
▁prototype	-11.6271
▁refined	-11.6272
pid	-11.6272
▁garment	-11.6274
▁Transport	-11.6275
▁promotes	-11.6275
▁cam	-11.6275
~	-11.6276
▁freezer	-11.6278
▁borders	-11.6278
▁ambitious	-11.628
▁circulation	-11.628
▁THAT	-11.6281
▁Pure	-11.6281
▁Ran	-11.6287
▁adaptation	-11.6289
▁Cole	-11.6291
250	-11.6291
▁98	-11.6293
▁counties	-11.6294
▁Lawrence	-11.6294
▁passport	-11.6295
▁scared	-11.6297
▁Dynamic	-11.6299
▁seamless	-11.6301
▁Operations	-11.6303
▁3.0	-11.6304
▁catering	-11.6304
م	-11.6305
▁Upper	-11.6305
▁columns	-11.6306
▁illustrations	-11.6307
▁quicker	-11.6309
▁comprising	-11.6309
hua	-11.631
hon	-11.6312
▁styling	-11.6313
▁glance	-11.6314
SB	-11.6315
▁ABC	-11.6315
0°	-11.6315
▁Wright	-11.6315
▁theft	-11.6316
▁Fix	-11.6317
also	-11.6318
▁Mason	-11.632
▁Same	-11.6321
▁neighbor	-11.6322
▁Rules	-11.6323
ides	-11.6323
▁tricky	-11.6324
mouth	-11.6325
▁elect	-11.6325
▁LinkedIn	-11.6328
minating	-11.6328
▁crops	-11.6328
▁salmon	-11.6328
▁Trading	-11.6329
▁tissues	-11.6329
▁playground	-11.6331
▁rein	-11.6332
▁yarn	-11.6333
▁rh	-11.6334
▁Million	-11.6334
▁creamy	-11.6334
▁lifting	-11.6335
nik	-11.6336
▁compassion	-11.6336
nnie	-11.6336
▁manages	-11.6338
▁almond	-11.6339
/4	-11.6339
▁1984	-11.634
▁compounds	-11.634
▁watches	-11.6341
▁relay	-11.6341
ished	-11.6342
▁nominated	-11.6345
▁Tap	-11.6346
▁carriers	-11.6346
▁12-	-11.6346
circ	-11.6347
▁woods	-11.6347
ogen	-11.6347
▁Ah	-11.6348
▁administrator	-11.6348
▁runner	-11.6349
▁IF	-11.6351
▁Monte	-11.6351
hara	-11.6352
▁safeguard	-11.6353
▁Joint	-11.6354
shore	-11.6355
wire	-11.6359
▁hockey	-11.6361
▁algorithms	-11.6363
uter	-11.6363
▁tactics	-11.6366
Â	-11.6366
▁RT	-11.6367
و	-11.6367
rak	-11.6368
▁activation	-11.6369
▁Bern	-11.637
▁footprint	-11.6372
▁therapist	-11.6373
▁Rat	-11.6373
▁bacon	-11.6374
▁seam	-11.6377
▁Lamp	-11.638
plus	-11.6382
▁Nation	-11.6385
▁ham	-11.6389
▁Marvel	-11.639
▁RC	-11.639
▁gaps	-11.639
▁Standards	-11.639
nick	-11.639
▁belongs	-11.6391
▁crust	-11.6391
▁indicators	-11.6392
▁sci	-11.6393
▁implant	-11.6393
tant	-11.6393
▁casinos	-11.6394
▁fri	-11.6396
posed	-11.6397
ل	-11.6399
▁dietary	-11.6402
▁RM	-11.6403
▁Afghanistan	-11.6404
titu	-11.6405
love	-11.6405
▁appearing	-11.6409
▁hon	-11.6409
▁Scout	-11.641
ension	-11.6411
founder	-11.6415
▁outlook	-11.6415
rod	-11.6418
▁sunlight	-11.6418
text	-11.6418
▁disrupt	-11.6419
▁sponsors	-11.6419
▁pledge	-11.642
▁editorial	-11.6421
/2	-11.6422
:10	-11.6422
▁0.0	-11.6422
▁firmly	-11.6424
▁Plain	-11.6427
▁Eagle	-11.6427
▁69	-11.6427
▁00	-11.6429
▁elaborate	-11.6429
▁Alternatively	-11.643
buy	-11.643
▁complain	-11.6431
▁Les	-11.6431
▁glow	-11.6432
▁necessity	-11.6433
▁abundant	-11.6433
▁Bishop	-11.6434
php	-11.6435
▁Graham	-11.6435
▁Sel	-11.6435
▁decorations	-11.6439
▁rigid	-11.6441
▁Rec	-11.6442
hoe	-11.6442
ively	-11.6444
5,	-11.6444
uous	-11.6447
▁tones	-11.6447
▁demonstrates	-11.645
▁briefly	-11.6452
▁£2	-11.6453
▁deployed	-11.6454
▁gloves	-11.6455
▁portions	-11.6459
idi	-11.6459
risk	-11.6459
▁Victorian	-11.6462
▁Foot	-11.6462
▁Deputy	-11.6462
▁Swedish	-11.6462
ception	-11.6464
▁1920	-11.6464
▁73	-11.6469
▁Plate	-11.647
ood	-11.6471
▁correlation	-11.6472
▁Vin	-11.6475
▁analyses	-11.6476
/1	-11.6476
▁pc	-11.6478
▁ginger	-11.6479
sheet	-11.6481
▁Material	-11.6481
▁Expert	-11.6482
▁20,	-11.6482
▁terrific	-11.6482
▁Canyon	-11.6482
▁quantities	-11.6482
▁anticipate	-11.6483
vas	-11.6483
▁che	-11.6485
▁Comments	-11.6485
▁Stat	-11.6486
▁immigrants	-11.6486
rig	-11.6487
▁disciplines	-11.6487
ACE	-11.649
pha	-11.6496
▁fixing	-11.6496
▁documented	-11.6496
▁Visa	-11.6498
▁90%	-11.6501
▁Gov	-11.6501
▁instrumental	-11.6502
▁recognise	-11.6502
0.0	-11.6506
▁Warrior	-11.6506
▁verified	-11.6507
▁Cas	-11.6508
▁scenery	-11.6508
▁Analytics	-11.6511
uation	-11.6511
▁pending	-11.6512
lumin	-11.6512
▁washed	-11.6514
▁Poll	-11.6516
▁resemble	-11.6516
▁eternal	-11.6518
▁Kon	-11.6518
▁sealed	-11.652
writer	-11.652
▁Solid	-11.6521
▁coordination	-11.6521
▁convince	-11.6522
▁cushions	-11.6523
▁Eli	-11.6523
▁guarantees	-11.6524
▁prevents	-11.6525
▁vibration	-11.6526
▁Jazz	-11.6527
▁organise	-11.6529
/3	-11.6529
▁Robin	-11.6529
▁PayPal	-11.653
▁Supplier	-11.653
course	-11.6531
▁1%	-11.6531
д	-11.6531
▁microphone	-11.6531
DD	-11.6533
▁solved	-11.6533
esteem	-11.6534
▁Mai	-11.6534
▁elastic	-11.6536
▁rip	-11.6542
▁Morris	-11.6544
▁Except	-11.6545
▁Leather	-11.6545
▁earliest	-11.6545
▁mathematics	-11.6545
▁receptor	-11.6545
▁drying	-11.6546
▁picks	-11.6547
nation	-11.6548
▁Deck	-11.6549
▁1985	-11.655
▁Wh	-11.655
onia	-11.6553
▁ballot	-11.6553
▁Princess	-11.6555
▁jeans	-11.6555
▁outlined	-11.6556
ت	-11.6565
▁Gospel	-11.6565
▁Breakfast	-11.6565
lop	-11.6565
cology	-11.6566
▁Lot	-11.6568
two	-11.657
▁15%	-11.6574
▁legislative	-11.6574
▁Abu	-11.6575
▁socio	-11.6575
hai	-11.6576
▁notebook	-11.6578
eno	-11.6579
▁FO	-11.6579
▁refresh	-11.6579
▁Stewart	-11.6579
Un	-11.6579
▁sensation	-11.658
▁92	-11.6581
▁Prices	-11.6581
▁caps	-11.6582
lux	-11.6583
▁blessing	-11.6583
▁expenditure	-11.6584
▁hedge	-11.6588
▁assessments	-11.6589
▁Discount	-11.659
▁Franklin	-11.6591
▁commands	-11.6591
▁burger	-11.6592
▁consumed	-11.6592
▁Forex	-11.6593
▁festivals	-11.6594
▁Volunteer	-11.6594
▁qualifications	-11.6595
hawk	-11.6595
▁fool	-11.6596
▁ET	-11.6596
▁Spot	-11.6596
▁Academic	-11.6599
▁lover	-11.6599
▁slave	-11.66
itation	-11.66
▁theories	-11.6602
▁Planet	-11.6605
▁pays	-11.6605
▁checkout	-11.6605
▁cru	-11.6607
▁Designs	-11.6607
▁households	-11.6608
▁discusses	-11.6608
▁bronze	-11.6609
▁Gordon	-11.6609
▁viable	-11.661
▁remedy	-11.6614
▁Budget	-11.6614
▁contrary	-11.6615
▁reportedly	-11.6618
▁Weather	-11.6619
▁Lanka	-11.6621
▁NOTE	-11.6622
▁ankle	-11.6622
▁enforce	-11.6624
-24	-11.6625
ONE	-11.6627
first	-11.663
▁pills	-11.663
▁webinar	-11.6633
▁Tips	-11.6636
TOR	-11.6639
sale	-11.664
IX	-11.6642
▁gar	-11.6643
amma	-11.6645
▁defeated	-11.6645
▁2-3	-11.6645
▁dragon	-11.6645
▁Grill	-11.6647
▁EL	-11.6649
▁icons	-11.6649
has	-11.6649
▁quoted	-11.665
▁Ava	-11.6651
▁mac	-11.6653
iver	-11.6653
▁Developer	-11.6654
eta	-11.6655
▁awful	-11.6656
sub	-11.6656
value	-11.6659
▁forgot	-11.666
dio	-11.6662
num	-11.6664
duct	-11.6665
▁ram	-11.6667
▁casting	-11.6667
uli	-11.6667
▁Ros	-11.6668
▁Murray	-11.6669
▁Okay	-11.6669
▁lacking	-11.6671
▁builder	-11.6672
quarter	-11.6674
ease	-11.6676
▁Cyber	-11.6676
▁journalists	-11.6677
▁musician	-11.6678
▁Phase	-11.6679
▁conveniently	-11.668
▁newspapers	-11.6681
▁Conditions	-11.6681
▁kiss	-11.6682
▁Der	-11.6683
▁AV	-11.6685
▁dim	-11.6685
▁Brexit	-11.6688
▁transfers	-11.6688
▁Gardens	-11.6691
▁ev	-11.6692
toxic	-11.6692
▁Competition	-11.6693
▁locksmith	-11.6693
drive	-11.6695
taking	-11.6695
▁Ideal	-11.6696
▁Military	-11.6698
▁proximity	-11.6698
rp	-11.6699
▁Rule	-11.67
▁drift	-11.6703
cock	-11.6703
station	-11.6703
▁pointing	-11.6704
▁joints	-11.6705
▁analysts	-11.6705
▁Fle	-11.6706
PH	-11.6706
-22	-11.6708
▁Campus	-11.6711
▁elevation	-11.6713
▁curtain	-11.6713
IDE	-11.6713
▁$30	-11.6713
mato	-11.6713
▁Honey	-11.6715
gor	-11.6716
▁Potter	-11.6716
▁Guy	-11.6717
▁Bike	-11.6717
▁infected	-11.6718
▁practically	-11.6719
▁Wear	-11.6721
▁diploma	-11.6721
▁Cultural	-11.6722
▁happier	-11.6722
▁smartphones	-11.6723
▁farms	-11.6723
kit	-11.6723
▁outreach	-11.6724
ij	-11.6726
▁Emb	-11.6727
▁Lighting	-11.6727
▁miracle	-11.6727
▁daughters	-11.6728
▁Circle	-11.673
▁Todd	-11.673
▁Mercedes	-11.6732
▁2007,	-11.6734
▁photographers	-11.6735
▁Carbon	-11.6736
▁Coin	-11.6737
eon	-11.6738
▁2006.	-11.6738
▁supermarket	-11.6739
▁duo	-11.6739
filled	-11.6745
▁gay	-11.6745
▁mor	-11.6746
▁servant	-11.6747
▁Oscar	-11.6749
▁existed	-11.6751
▁consolidation	-11.6752
▁hatch	-11.6754
▁900	-11.6754
self	-11.6754
enberg	-11.6756
bn	-11.6757
▁Category	-11.6757
▁conditioner	-11.6758
trust	-11.6759
bad	-11.676
sell	-11.6763
▁cleared	-11.6764
Cha	-11.6767
▁clouds	-11.6767
▁simplicity	-11.6767
▁spatial	-11.6767
▁AF	-11.6768
ury	-11.6768
▁Customers	-11.6768
▁Kal	-11.6768
▁Flu	-11.6769
giving	-11.6769
▁opponents	-11.677
7,	-11.677
SF	-11.677
▁iTunes	-11.6772
rang	-11.6773
exe	-11.6774
gard	-11.6776
▁runners	-11.6777
▁metrics	-11.6778
▁neighborhoods	-11.6779
▁vanity	-11.678
▁Fel	-11.6782
▁proactive	-11.6784
▁Spark	-11.6784
▁shrink	-11.6788
▁adhesive	-11.6789
▁Volume	-11.6793
▁stool	-11.6794
▁struggled	-11.6794
▁socks	-11.6794
▁bloggers	-11.6795
▁squeeze	-11.6797
▁bu	-11.6797
smith	-11.6798
▁backgrounds	-11.6799
▁Astro	-11.6799
▁shifting	-11.6801
Mon	-11.6803
▁witnessed	-11.6804
ois	-11.6805
▁Flor	-11.6806
jet	-11.6806
▁Bake	-11.6808
▁mint	-11.6808
your	-11.6809
▁downloading	-11.681
▁pertain	-11.6811
▁embark	-11.6812
▁cherry	-11.6818
ito	-11.6818
▁ethics	-11.682
▁Marc	-11.6821
▁pads	-11.6821
▁Earlier	-11.6823
▁Egyptian	-11.6823
▁arrives	-11.6824
▁pretend	-11.6824
▁char	-11.6829
▁creator	-11.683
fort	-11.6831
▁Heaven	-11.6832
▁girlfriend	-11.6833
▁Materials	-11.6833
▁vest	-11.6834
change	-11.6835
▁resin	-11.6836
▁holistic	-11.6838
▁Healthcare	-11.684
▁sur	-11.6841
pol	-11.6841
▁affiliated	-11.6842
▁jumped	-11.6842
▁congregation	-11.6843
001	-11.6843
▁Nepal	-11.6843
▁Success	-11.6844
▁Photos	-11.6846
▁cholesterol	-11.6848
▁Guest	-11.6848
▁XP	-11.6849
▁Syrian	-11.6851
▁nowhere	-11.6853
miss	-11.6854
▁gem	-11.6856
▁parish	-11.6856
▁imported	-11.6856
▁cycles	-11.6857
storm	-11.6858
▁wo	-11.6859
ision	-11.6861
▁contacting	-11.6861
▁plea	-11.6863
▁Provider	-11.6864
▁Arkansas	-11.6868
▁Buffalo	-11.6868
▁regulated	-11.6868
▁MBA	-11.687
agan	-11.6872
▁advocacy	-11.6873
▁probability	-11.6873
▁releasing	-11.6873
written	-11.6874
▁40%	-11.6875
▁por	-11.6877
▁evolving	-11.6878
▁vinegar	-11.6878
▁VIP	-11.6879
▁shareholders	-11.6883
▁namely	-11.6883
▁Nar	-11.6884
mme	-11.6884
▁160	-11.6886
▁Shopping	-11.6888
="	-11.6888
▁discrimination	-11.6888
▁compartment	-11.6888
rom	-11.6888
MR	-11.6889
▁monster	-11.6892
▁Strategy	-11.6893
▁fifteen	-11.6893
▁financially	-11.6894
▁CB	-11.6897
▁custody	-11.6898
▁Kind	-11.6899
▁Hell	-11.69
stat	-11.6901
▁scientist	-11.6901
▁fin	-11.6902
▁unfold	-11.6902
▁fuse	-11.6902
▁eaten	-11.6902
▁Profile	-11.6904
▁Beth	-11.6906
▁Fig	-11.6906
FE	-11.6907
▁spreading	-11.6907
▁UI	-11.6908
▁Maintenance	-11.6908
family	-11.691
pool	-11.6913
▁preliminary	-11.6913
▁relatives	-11.6915
▁silly	-11.6915
▁cage	-11.6916
▁coated	-11.6917
▁Wish	-11.6917
▁LG	-11.6918
▁bachelor	-11.6918
▁recreation	-11.692
▁blogger	-11.692
▁assisting	-11.692
inated	-11.6922
iac	-11.6923
▁JA	-11.6924
▁seventh	-11.6925
▁chop	-11.6925
iga	-11.6927
▁Response	-11.6928
▁sciences	-11.6929
▁renewal	-11.6929
▁soften	-11.693
8,	-11.6933
▁Pittsburgh	-11.6933
friend	-11.6934
▁Linda	-11.6936
▁ext	-11.6937
had	-11.6937
▁maintains	-11.6939
▁facebook	-11.694
▁brew	-11.6941
▁qualification	-11.6943
4)	-11.6945
▁retire	-11.6946
▁comfortably	-11.6947
▁Shanghai	-11.6949
▁influential	-11.6949
▁backdrop	-11.6949
▁traditionally	-11.695
▁forex	-11.695
▁minority	-11.6951
info	-11.6951
sley	-11.6952
▁zoom	-11.6953
▁fossil	-11.6954
▁incidents	-11.6954
▁Organ	-11.6955
grad	-11.6955
▁termination	-11.6955
п	-11.6956
▁cube	-11.6956
kers	-11.6959
END	-11.6962
boat	-11.6962
cup	-11.6964
▁grandmother	-11.6964
▁threatened	-11.6965
▁backing	-11.6966
▁publishers	-11.6967
▁Egg	-11.6967
ECT	-11.6968
▁explosion	-11.6969
▁Luckily	-11.6969
▁Audi	-11.697
▁Ted	-11.6975
▁Emma	-11.698
ility	-11.6982
▁schedules	-11.6982
going	-11.6982
▁1930	-11.6984
▁Chelsea	-11.6984
▁PH	-11.6988
▁performs	-11.699
▁bend	-11.699
▁beside	-11.6991
▁Hang	-11.6991
▁mechanics	-11.6992
▁Tal	-11.6992
▁Typically	-11.6993
▁Evans	-11.6994
▁Thi	-11.6997
▁wore	-11.6998
▁Someone	-11.7
▁Bangladesh	-11.7
▁Dimension	-11.7
▁calcium	-11.7
▁energetic	-11.7
lean	-11.7
▁unto	-11.7001
▁tendency	-11.7001
▁boiler	-11.7004
▁eliminating	-11.7005
▁happily	-11.7005
▁nourish	-11.7005
▁Chu	-11.7006
▁Af	-11.7006
▁82	-11.7008
▁Episode	-11.701
▁counting	-11.701
▁и	-11.701
▁lamps	-11.7012
▁Mt	-11.7013
▁Cisco	-11.7013
▁reign	-11.7015
▁Luxury	-11.7015
▁threw	-11.7015
▁strikes	-11.7017
▁galleries	-11.702
gna	-11.7021
▁Explorer	-11.7023
▁cigarette	-11.7024
0)	-11.7024
doc	-11.7024
▁Problem	-11.7025
▁mothers	-11.7026
▁answering	-11.7026
▁71	-11.7028
▁vein	-11.7028
imi	-11.703
▁Vintage	-11.703
▁anxious	-11.7031
LP	-11.7032
▁SMS	-11.7032
nc	-11.7034
▁Hen	-11.7036
▁sells	-11.7036
▁extending	-11.7037
▁explores	-11.7037
section	-11.7038
▁supplying	-11.704
▁Emily	-11.7041
▁antenna	-11.7041
Art	-11.7041
▁Architect	-11.7045
aine	-11.7045
▁quad	-11.7046
glass	-11.7047
▁Norway	-11.7047
▁Kennedy	-11.7051
▁finances	-11.7053
▁webpage	-11.7054
▁Rest	-11.7055
▁Disc	-11.7055
▁dam	-11.7056
▁Command	-11.7056
▁TN	-11.706
▁countryside	-11.7061
▁switched	-11.7062
IGHT	-11.7063
▁meantime	-11.7063
▁pearl	-11.7064
quit	-11.7064
▁incorrect	-11.7064
▁Lev	-11.7066
know	-11.7066
▁liner	-11.707
▁calculator	-11.7072
▁tang	-11.7074
tiv	-11.7074
plex	-11.7075
▁bonuses	-11.7077
▁PI	-11.7077
▁heroes	-11.7078
▁Meta	-11.708
▁von	-11.708
▁attacked	-11.7082
▁Edinburgh	-11.7082
▁Ward	-11.7082
▁rounded	-11.7083
▁Former	-11.7086
pes	-11.7087
SN	-11.709
▁assembled	-11.7092
▁Richmond	-11.7092
▁lion	-11.7093
▁Consulting	-11.7095
ologists	-11.7096
▁Thor	-11.7097
cade	-11.7098
wl	-11.7099
▁Move	-11.7101
▁spicy	-11.7108
▁Crime	-11.7108
▁consequence	-11.711
▁expose	-11.7111
▁Hydro	-11.7111
▁concerts	-11.7112
BER	-11.7116
▁Samuel	-11.7118
▁clips	-11.7119
OD	-11.712
ume	-11.7121
▁rotate	-11.7121
▁democratic	-11.7121
▁accessibility	-11.7122
▁rational	-11.7123
▁Publisher	-11.7123
▁pr	-11.7125
▁nationally	-11.7125
▁camps	-11.7126
▁Lip	-11.7126
▁cables	-11.7127
▁delays	-11.7127
▁poorly	-11.7128
▁earthquake	-11.7128
▁trunk	-11.7128
▁singles	-11.7129
▁recovered	-11.713
▁modification	-11.7132
▁Highland	-11.7133
▁harmony	-11.7134
▁seafood	-11.7134
lene	-11.7137
▁capsule	-11.7137
▁Roger	-11.7137
ncy	-11.7139
ANCE	-11.7141
▁Advisory	-11.7143
eration	-11.7143
▁Bright	-11.7145
▁hiding	-11.7146
2014	-11.7146
▁declare	-11.7146
▁Mars	-11.7148
▁Initiative	-11.7149
AME	-11.7151
▁Compare	-11.7152
▁LCD	-11.7153
▁administrators	-11.7153
▁Harbor	-11.7153
▁Faculty	-11.7154
▁Kris	-11.7155
▁Faith	-11.7155
▁FE	-11.7157
▁protects	-11.7157
▁initiated	-11.7159
▁pixel	-11.7163
▁dominated	-11.7164
▁ty	-11.7165
ugu	-11.7168
▁extensions	-11.7169
▁discomfort	-11.717
▁Pearl	-11.717
▁Steam	-11.7173
boro	-11.7173
▁passive	-11.7174
NN	-11.7175
▁noon	-11.7176
▁crap	-11.7178
▁Counter	-11.7182
OO	-11.7185
▁Higher	-11.7185
▁inevitable	-11.7185
pel	-11.7187
▁innovations	-11.7187
▁gratitude	-11.7191
▁investigating	-11.7191
▁6:	-11.7191
▁Parents	-11.7196
▁tolerance	-11.7196
▁Storm	-11.7197
With	-11.7198
▁Hebrew	-11.7198
present	-11.72
▁Engineer	-11.7202
▁endure	-11.7202
▁feather	-11.7207
▁homeless	-11.7207
▁unre	-11.7208
▁spotted	-11.721
emo	-11.721
▁Hur	-11.7216
▁365	-11.7216
▁Mirror	-11.7217
▁diminish	-11.7217
▁drunk	-11.7217
▁Norman	-11.7217
iko	-11.7219
▁Fitness	-11.722
▁databases	-11.7221
imo	-11.7221
▁Terry	-11.7221
▁Zu	-11.7223
▁Assist	-11.7224
▁editors	-11.7224
▁permanently	-11.7225
▁**	-11.7227
▁persistent	-11.7228
▁Stream	-11.723
▁deny	-11.7231
▁partly	-11.7234
▁cop	-11.7235
▁Hero	-11.7238
▁Featuring	-11.7238
▁Reference	-11.7238
▁marina	-11.724
Fa	-11.724
too	-11.724
national	-11.7241
▁Cable	-11.7242
▁orbit	-11.7243
DB	-11.7244
▁Person	-11.7245
erate	-11.7246
Fe	-11.7248
▁configure	-11.7251
ebra	-11.7252
▁arc	-11.7253
▁fibre	-11.7254
aster	-11.7255
▁investigated	-11.7256
▁Lil	-11.7257
▁Serve	-11.7257
som	-11.7257
▁stroll	-11.7259
▁novels	-11.726
-21	-11.726
▁avoided	-11.7261
▁behavioral	-11.7263
▁advertise	-11.7263
▁exquisite	-11.7264
▁vegetarian	-11.7264
▁Carter	-11.7271
▁Rapid	-11.7272
▁colon	-11.7272
▁overlooking	-11.7273
▁beating	-11.7275
▁slower	-11.7276
▁yeah	-11.7276
▁Drink	-11.7277
▁mph	-11.7278
▁travels	-11.7278
▁tenants	-11.7278
2017	-11.7278
に	-11.7279
▁chrome	-11.728
▁smallest	-11.728
▁Northwest	-11.728
▁Scan	-11.7281
▁ER	-11.7282
▁Kh	-11.7284
▁scenic	-11.7285
▁Wallpaper	-11.7285
▁viral	-11.7287
▁fellowship	-11.7287
roy	-11.7288
ggy	-11.7289
▁acre	-11.7291
inger	-11.7291
tree	-11.7292
olin	-11.7293
BL	-11.7294
▁imposed	-11.7294
▁SF	-11.7295
▁Nova	-11.7295
▁marathon	-11.7295
▁MY	-11.7297
▁avail	-11.7298
▁ranges	-11.7299
:1	-11.7299
▁Hold	-11.7299
▁Sierra	-11.7301
▁foil	-11.7301
▁Chip	-11.7302
cultural	-11.7302
▁elephant	-11.7306
▁Robinson	-11.7307
▁restart	-11.7308
▁Rub	-11.7308
▁testimony	-11.7311
▁dispatch	-11.7311
▁Alberta	-11.7312
▁locks	-11.7312
▁Collins	-11.7312
agon	-11.7315
▁herein	-11.7315
▁accountability	-11.7316
▁driveway	-11.7316
▁hung	-11.7316
▁plasma	-11.7317
▁1-2	-11.7319
chin	-11.7322
▁rankings	-11.7325
exp	-11.7326
▁Jessica	-11.7327
kle	-11.7329
▁monument	-11.7329
▁rows	-11.7329
▁analyst	-11.7329
▁mock	-11.733
lac	-11.733
▁tweet	-11.733
▁sculpture	-11.7332
▁hug	-11.7333
▁2005.	-11.7337
Je	-11.7337
▁ranch	-11.7341
flower	-11.7343
▁laminate	-11.7343
▁Essential	-11.7344
▁conflicts	-11.7344
especially	-11.7345
▁horn	-11.7346
▁rivers	-11.7346
▁stadium	-11.7348
▁93	-11.7348
▁dialing	-11.7349
ider	-11.735
▁technician	-11.7351
▁investigations	-11.7351
▁remodeling	-11.7352
▁forgive	-11.7352
▁Sid	-11.7354
▁puppy	-11.7354
▁allocation	-11.7354
***	-11.7354
TL	-11.7355
▁mug	-11.7356
▁airlines	-11.7357
▁visually	-11.7357
▁shy	-11.7358
▁Tab	-11.7359
▁tweak	-11.7359
▁improves	-11.7359
gil	-11.7359
PG	-11.7359
▁switches	-11.736
bet	-11.736
▁Jimmy	-11.736
Work	-11.7362
▁Puerto	-11.7364
▁redeem	-11.7365
▁5:	-11.7369
▁abortion	-11.7369
▁sunshine	-11.7369
▁undertaken	-11.7371
lake	-11.7371
▁pause	-11.7373
▁sour	-11.7374
▁culinary	-11.7375
▁Michelle	-11.7376
▁innocent	-11.738
▁cliff	-11.7381
▁relates	-11.7381
▁researcher	-11.7384
▁20-	-11.7385
▁Trip	-11.7386
▁enjoyment	-11.7386
TON	-11.7387
▁greenhouse	-11.7388
icle	-11.7389
▁Marshall	-11.7391
▁alloy	-11.7391
▁reputable	-11.7396
ffle	-11.7396
▁altogether	-11.7396
Time	-11.7397
▁subscribers	-11.7398
[...]
